[PAD]
[UNK]
[CLS]
[SEP]
[MASK]
!
"
#
$
%
&
'
(
)
*
+
,
-
.
/
0
1
2
3
4
5
6
7
8
9
:
;
<
=
>
?
@
[
\
]
^
_
`
a
b
c
d
e
f
g
h
i
j
k
l
m
n
o
p
q
r
s
t
u
v
w
x
y
z
{
|
}
~
¡
¢
£
¤
¦
§
¨
©
ª
«
¬
®
¯
°
±
²
³
´
µ
¶
·
¸
¹
º
»
½
¿
×
ß
æ
ð
ø
þ
đ
ħ
ı
ł
œ
ǝ
ɐ
ɑ
ɔ
ə
ɛ
ɪ
ɹ
ʄ
ʇ
ʊ
ʌ
ʍ
ʎ
ʕ
ˈ
ˉ
ˌ
ː
˜
α
β
γ
δ
ε
ζ
η
θ
ι
κ
λ
μ
ν
ξ
ο
π
ρ
ς
σ
τ
υ
φ
χ
ψ
ω
а
б
в
г
д
е
ж
з
и
к
л
м
н
о
п
р
с
т
у
ф
х
ц
ч
ш
щ
ъ
ы
ь
э
ю
я
ђ
є
і
ј
ћ
҉
ү
ө
א
ב
ג
ד
ה
ו
ז
ח
ט
י
ך
כ
ל
ם
מ
ן
נ
ס
ע
פ
צ
ק
ר
ש
ת
،
؟
ء
ا
ب
ة
ت
ث
ج
ح
خ
د
ذ
ر
ز
س
ش
ص
ض
ط
ظ
ع
غ
ـ
ف
ق
ك
ل
م
ن
ه
و
ى
ي
ٹ
پ
چ
ڑ
ژ
ک
گ
ڵ
ں
ھ
ہ
ۆ
ی
ێ
ے
۔
ە
۩
अ
आ
इ
ई
उ
ए
ओ
औ
क
ख
ग
घ
च
छ
ज
झ
ट
ठ
ड
ढ
ण
त
थ
द
ध
न
प
फ
ब
भ
म
य
र
ल
व
श
ष
स
ह
ा
ि
ी
ो
ौ
ॐ
।
॥
०
१
२
५
ং
ঃ
অ
আ
ই
উ
এ
ও
ক
খ
গ
ঘ
ঙ
চ
ছ
জ
ট
ঠ
ড
ণ
ত
থ
দ
ধ
ন
প
ফ
ব
ভ
ম
য
র
ল
শ
ষ
স
হ
া
ি
ী
ে
০
১
ਅ
ਆ
ਇ
ਉ
ਏ
ਕ
ਖ
ਗ
ਚ
ਜ
ਠ
ਤ
ਦ
ਧ
ਨ
ਪ
ਬ
ਭ
ਮ
ਯ
ਰ
ਲ
ਵ
ਸ
ਹ
ਾ
ਿ
ੀ
અ
આ
એ
ક
ગ
ચ
છ
જ
ણ
ત
થ
દ
ધ
ન
પ
બ
મ
ય
ર
લ
વ
સ
હ
ા
િ
ી
ો
କ
ର
ା
େ
அ
ஆ
இ
உ
எ
ஒ
க
ங
ச
ட
ண
த
ந
ன
ப
ம
ய
ர
ற
ல
ள
ழ
வ
ஸ
ா
ி
ு
ூ
ெ
ே
ை
ం
క
ద
న
మ
ర
ల
వ
ు
ಂ
ಅ
ಆ
ಇ
ಕ
ಗ
ಚ
ಜ
ಟ
ಡ
ಣ
ತ
ದ
ಧ
ನ
ಪ
ಬ
ಭ
ಮ
ಯ
ರ
ಲ
ಳ
ವ
ಶ
ಷ
ಸ
ಹ
ಾ
ು
ೂ
ೕ
೦
ം
അ
ആ
ഇ
എ
ഒ
ക
ഗ
ങ
ച
ജ
ഞ
ട
ണ
ത
ഥ
ദ
ധ
ന
പ
ബ
മ
യ
ര
റ
ല
ള
ഴ
വ
ശ
ഷ
സ
ഹ
ാ
ി
ീ
െ
േ
අ
ක
ග
ජ
ට
ඩ
ණ
ත
ද
න
ප
බ
ම
ය
ර
ල
ව
ස
හ
ා
ැ
ෙ
ก
ข
ค
ง
จ
ช
ญ
ณ
ด
ต
ท
ธ
น
บ
ป
ผ
พ
ภ
ม
ย
ร
ล
ว
ส
ห
อ
ะ
า
ำ
เ
แ
โ
ใ
ไ
າ
་
།
༼
༽
ག
ད
ས
က
ခ
င
စ
ည
တ
န
ပ
မ
ရ
လ
သ
အ
ါ
ာ
ေ
း
ျ
ြ
ა
ბ
გ
დ
ე
ვ
ზ
თ
ი
კ
ლ
მ
ნ
ო
პ
რ
ს
ტ
უ
ფ
ქ
ღ
ყ
შ
ც
ძ
წ
ხ
ჯ
ᄀ
ᄂ
ᄃ
ᄅ
ᄆ
ᄇ
ᄉ
ᄋ
ᄌ
ᄎ
ᄏ
ᄐ
ᄑ
ᄒ
ᅡ
ᅢ
ᅣ
ᅥ
ᅦ
ᅧ
ᅩ
ᅪ
ᅬ
ᅭ
ᅮ
ᅲ
ᅳ
ᅴ
ᅵ
ᆨ
ᆫ
ᆯ
ᆷ
ᆸ
ᆺ
ᆻ
ᆼ
ሃ
ለ
ላ
ል
ሓ
መ
ማ
ም
ረ
ሩ
ራ
ር
ሰ
ስ
በ
ብ
ተ
ቲ
ታ
ት
ነ
ና
ን
ኣ
እ
ከ
ካ
ክ
ወ
ው
ዓ
ዝ
የ
ዩ
ይ
ደ
ድ
ግ
ፍ
።
ᴥ
–
—
―
‘
’
“
”
„
†
•
…
′
″
›
⁄
₪
€
№
™
←
→
↔
⇒
⇔
∆
∇
−
∞
∴
≈
⋅
─
━
┃
┐
═
║
╟
╢
╦
╩
█
■
□
►
●
◕
★
☆
☎
☏
☠
☥
☮
☯
☺
☻
☼
♠
♣
♥
♦
♪
♫
♬
✄
✉
✍
✎
✔
✰
✽
❤
➨
ⱷ
、
。
「
」
あ
い
う
え
お
か
き
く
け
こ
さ
し
す
そ
た
っ
つ
て
と
な
に
の
は
ま
み
も
や
よ
ら
り
る
れ
を
ん
イ
カ
ク
ス
ト
フ
ホ
ラ
リ
ル
レ
ン
・
ー
ㄱ
ㅂ
ㅇ
ㅋ
一
三
上
下
不
个
中
丰
为
之
也
了
五
人
他
以
们
会
作
你
信
先
其
出
包
化
十
卐
厚
口
可
名
后
和
国
國
在
地
基
大
天
她
好
子
学
家
小
山
崎
年
惑
意
慬
我
所
打
文
新
日
昂
明
是
月
有
本
机
李
来
格
械
水
法
海
為
版
王
琉
生
用
百
的
真
科
竜
絡
羌
翻
者
而
聖
能
自
英
范
荙
虲
装
西
見
规
話
語
译
语
这
迷
連
都
里
雲
风
龙
ﺍ
ﺎ
ﻣ
！
（
）
，
．
：
？
ａ
ｂ
ｃ
ｄ
ｅ
ｆ
ｇ
ｈ
ｉ
ｋ
ｌ
ｍ
ｎ
ｏ
ｐ
ｒ
ｓ
ｔ
ｕ
ｖ
ｗ
ｘ
ｙ
｡
𒁳
🍁
##0
##5
##i
##m
##e
##r
##d
##v
##a
##c
##t
##9
##1
##8
##q
##n
##g
##w
##s
##ب
##ن
##ي
##l
##k
##ف
##ل
##ا
##م
##н
##о
##ю
##o
##h
##z
##ি
##ল
##u
##7
##2
##p
##y
##j
##ح
##ی
##т
##е
##р
##я
##х
##ر
##س
##ه
##b
##ت
##ق
##ক
##ষ
##য
##ম
##া
##ত
##র
##f
##4
##6
##3
##ട
##ി
##യ
##റ
##ങ
##ന
##ｕ
##ｓ
##ｙ
##ｂ
##ａ
##غ
##ε
##χ
##ρ
##ι
##x
##و
##ك
##ि
##र
##त
##न
##ى
##ட
##ை
##க
##ு
##ம
##у
##п
##м
##ز
##ة
##ਾ
##ਰ
##ਿ
##व
##ा
##ी
##ר
##י
##ת
##ج
##ع
##ে
##ব
##а
##к
##д
##ы
##л
##ो
##ठ
##ض
##ᅩ
##ᄋ
##ᅳ
##ᆯ
##श
##ο
##κ
##μ
##α
##ζ
##τ
##ன
##ே
##ற
##ி
##د
##ዓ
##ለ
##መ
##ᅮ
##ᆺ
##ı
##வ
##ப
##த
##ெ
##ா
##ர
##ந
##ய
##ð
##হ
##দ
##∆
##∇
##ন
##ಂ
##ತ
##ರ
##ک
##ط
##¢
##ظ
##भ
##म
##δ
##υ
##σ
##ς
##в
##ာ
##င
##ခ
##ရ
##ေ
##သ
##း
##и
##ண
##ಲ
##ಯ
##ದ
##ल
##य
##स
##ص
##з
##ш
##ல
##ß
##б
##щ
##थ
##በ
##ን
##ር
##گ
##ஸ
##क
##−
##ங
##ள
##с
##ь
##শ
##ל
##ח
##ם
##ذ
##ര
##ണ
##ത
##േ
##ാ
##െ
##പ
##മ
##ല
##γ
##λ
##і
##ц
##ภ
##า
##ก
##แ
##ക
##സ
##വ
##ء
##හ
##ත
##º
##い
##て
##す
##đ
##ಾ
##ಧ
##ನ
##ಗ
##ಳ
##ವ
##ش
##ᆫ
##ᄉ
##ᅥ
##ᆼ
##ᄀ
##স
##ಟ
##ч
##ж
##อ
##โ
##ค
##ร
##ง
##ड
##ण
##ہ
##ห
##ว
##ย
##ะ
##ท
##เ
##ผ
##আ
##ה
##ו
##ד
##か
##ら
##چ
##φ
##θ
##ł
##г
##လ
##ק
##ｃ
##ｋ
##ｉ
##ｎ
##ｇ
##ო
##ნ
##კ
##უ
##რ
##ს
##ი
##´
##ස
##ක
##ছ
##ই
##ර
##ා
##ප
##න
##ය
##پ
##ν
##ө
##ণ
##ভ
##থ
##ী
##গ
##জ
##ø
##प
##خ
##ট
##ෙ
##π
##ω
##є
##ഥ
##ह
##た
##な
##る
##ھ
##ழ
##द
##ध
##ज
##ਇ
##ျ
##မ
##က
##ث
##ں
##η
##ક
##ય
##ા
##ф
##ዝ
##ད
##ъ
##ು
##ə
##ホ
##ද
##☆
##ژ
##တ
##ष
##ە
##ע
##ב
##け
##ಣ
##ಕ
##ೕ
##°
##מ
##א
##च
##æ
##খ
##ഞ
##প
##ᄅ
##ᅢ
##ಸ
##ಪ
##ം
##ധ
##ඩ
##উ
##れ
##は
##と
##う
##も
##っ
##ড
##つ
##פ
##ይ
##ም
##ச
##ン
##ᆨ
##ᄃ
##จ
##ψ
##ಬ
##ۆ
##ێ
##²
##±
##ව
##ｏ
##ｔ
##ｈ
##ｅ
##ｒ
##ｆ
##³
##ള
##ᅵ
##≈
##β
##ए
##გ
##ლ
##ट
##ｌ
##ג
##મ
##ర
##ం
##ξ
##ᅡ
##ᄂ
##ے
##ග
##ـ
##ર
##ત
##ა
##მ
##დ
##ｄ
##ｘ
##შ
##ტ
##ვ
##ე
##ਨ
##ਮ
##ው
##ਬ
##ਚ
##ማ
##ሩ
##ላ
##ી
##™
##હ
##ש
##ಹ
##ಮ
##を
##િ
##ચ
##ો
##כ
##ᅦ
##ᅭ
##ﺎ
##ხ
##ბ
##ई
##ც
##ঘ
##נ
##ग
##ਹ
##ੀ
##☎
##თ
##ദ
##ও
##ט
##ס
##ญ
##ป
##น
##ส
##ใ
##ล
##ᅪ
##ਭ
##フ
##の
##に
##წ
##ზ
##ዩ
##ର
##ʎ
##ʇ
##ფ
##ख
##ਲ
##ਕ
##¬
##ต
##ข
##ำ
##ณ
##ไ
##ม
##บ
##ജ
##こ
##─
##╢
##ગ
##વ
##ך
##ڵ
##ശ
##ഷ
##カ
##ച
##ഴ
##ద
##ೂ
##ქ
##ん
##よ
##リ
##ー
##პ
##ැ
##ಡ
##ᅧ
##ਧ
##צ
##ᄌ
##ᆸ
##ᄒ
##ช
##ด
##พ
##ธ
##০
##छ
##ಭ
##ᆷ
##ပ
##э
##ब
##వ
##ן
##ｐ
##®
##ା
##କ
##େ
##ᄇ
##ਖ
##♫
##०
##ම
##ණ
##ල
##ට
##ｍ
##ᅣ
##ീ
##ಷ
##ј
##લ
##સ
##ћ
##ყ
##ਪ
##ਸ
##फ
##ধ
##ז
##ြ
##झ
##న
##©
##જ
##ү
##ং
##し
##ঃ
##ク
##ᆻ
##ラ
##ス
##♥
##ወ
##ሃ
##ᄆ
##ɐ
##ન
##ɹ
##ூ
##ਆ
##☯
##ታ
##ᅲ
##१
##ድ
##あ
##उ
##ਦ
##║
##╩
##ौ
##ओ
##¯
##き
##み
##ǝ
##ਗ
##ʊ
##ᅬ
##ધ
##೦
##⇒
##ᄑ
##ま
##→
##ਜ
##ਤ
##ഹ
##ተ
##ረ
##ਏ
##થ
##आ
##চ
##ﻣ
##♠
##ካ
##ል
##इ
##お
##ነ
##ঙ
##ག
##ঠ
##ル
##န
##ည
##စ
##ಜ
##►
##ါ
##દ
##ˈ
##ト
##µ
##ᄏ
##ძ
##□
##■
##ᄎ
##✎
##さ
##★
##€
##り
##ਯ
##ᄐ
##や
##█
##ɑ
##બ
##ಚ
##ራ
##۩
##ღ
##ብ
##く
##ჯ
##ｗ
##ফ
##レ
##♦
##ٹ
##ђ
##¨
##¤
##ɪ
##ɔ
##ː
##ት
##ల
##ክ
##∞
##ｖ
##ڑ
##ኣ
##ና
##イ
##క
##ਵ
##←
##ు
##ഗ
##×
##ᅴ
##¹
##ስ
##ढ
##ಶ
##ʕ
##ણ
##ਉ
##ਠ
##ɛ
##ﺍ
##እ
##そ
##ደ
##२
##ቲ
##ʌ
##♣
##အ
##घ
##ፍ
##↔
##✉
##҉
##ʍ
##ሓ
##♪
##┃
##☺
##५
##¸
##ሰ
##½
##þ
##え
##œ
##✍
##ħ
##પ
##☻
##₪
##এ
##మ
##າ
##£
##ˌ
##ª
##એ
##ⱷ
##ᴥ
##ከ
##ˉ
##ས
##ግ
##ബ
##છ
##☠
##බ
##╦
##ㄱ
##ㅇ
##ජ
##የ
##┐
##☮
##¦
##ਅ
##═
##✰
##♬
##━
##১
##ㅋ
##☼
##⇔
##எ
##अ
##№
##⋅
##⁄
##˜
##❤
##આ
##ಆ
th
##er
##in
the
##ou
##on
##at
##ed
##es
##or
##an
##en
an
##ing
##it
to
##is
##al
##le
you
##ic
in
##ar
of
##as
##re
and
##ion
##ot
re
is
##om
be
##ly
it
that
##ll
##ve
wh
##ent
on
##ut
##us
##ag
##ct
not
for
##ck
##ow
##id
as
ar
ha
##ay
##ld
##ik
##ce
this
##se
st
##ig
##et
##ere
##ro
##am
##tic
##ad
con
##ch
##ia
se
##st
##ver
##ith
##im
##th
##ation
##ol
are
su
artic
##ip
##age
de
or
##op
##ould
do
have
with
he
sh
your
##ist
##est
##ate
##ur
##ers
we
##ir
wik
##il
was
##oo
com
me
if
article
ne
ch
##ill
at
but
##edia
##dit
fr
al
un
##and
ab
##ak
##ter
pro
wikip
##pp
so
edit
##ess
##ain
ad
##ul
ex
my
##ome
##out
can
us
##ab
wikipedia
##ust
##ht
##our
##if
##ie
page
##ment
##ore
po
##ally
by
##ant
en
from
##ink
##ase
any
##pe
##uck
cont
##ri
##em
there
all
##un
than
about
what
##oun
##ra
##alk
##ight
im
##ive
no
wor
some
dis
don
##ike
talk
##lo
##um
##let
##ort
##ame
has
would
##el
will
##ity
##ard
like
le
##la
they
go
just
##ich
one
fa
tr
##lease
fuck
##ther
##ions
am
qu
ag
##der
please
mo
##ish
##ks
pr
kn
##her
##ies
who
up
##00
##ite
##fer
##iv
##ous
##art
##ang
##ect
should
##one
##all
how
##oug
##ud
which
know
##cc
##ack
##ian
##ake
delet
##ated
##ong
##ble
##use
sour
been
##ue
##so
more
add
other
##les
##ence
##ces
##ind
##os
see
pe
ev
##og
think
bec
##pt
##ast
##pl
here
##ree
out
##ial
rem
##cl
his
res
##ause
did
also
##rit
inf
tim
##ap
##ction
##ff
spe
##ear
##end
te
##ine
##ound
peop
may
does
##orm
##iz
app
use
say
man
people
##qu
because
fe
ver
get
##uss
##ook
##ood
##able
##ary
##ber
co
int
##ough
##ure
##ry
disc
only
why
##ages
when
them
new
##ire
##ory
cons
##lock
need
##int
##rib
##ide
##ick
articles
then
pers
##ub
##ism
##ious
##ject
time
were
acc
##ors
##ign
##lf
sa
##per
##lp
per
comp
##ved
now
##ice
inter
##hing
##ose
##ens
##ge
act
want
remo
again
sp
##ci
##ans
##ee
user
link
pol
pre
under
ind
their
rep
being
discuss
af
gu
##aa
help
ve
##ced
rel
19
ever
block
read
##iew
list
##ical
person
ass
refer
had
##ations
even
##ah
##ass
##ph
thanks
good
off
##ict
gr
##od
att
##ount
inform
imp
200
make
sub
par
could
##tt
##ult
pl
cl
comment
##self
bel
mat
##ile
work
well
chang
wr
##are
way
fir
##ss
fact
rec
comm
back
look
##reat
point
very
##ings
##ac
its
##ade
##andal
##vert
##ance
##ru
over
##other
##ason
war
information
ph
des
vandal
fo
name
quest
##erm
sources
tw
first
id
20
such
wp
##ond
these
ob
lo
bet
adm
reg
##xt
##gg
##ual
mu
##ific
##way
##igg
seem
sc
##ention
##itt
section
##wn
deletion
br
part
##act
incl
##ving
source
##ach
##fore
where
image
##tc
contrib
right
find
most
##ress
every
gen
##ail
hist
##ful
too
##ates
##lish
##ww
##ord
pages
som
cle
sim
sin
pla
ser
him
cop
dif
reason
##ert
much
really
##ually
editing
##du
thank
##cy
che
many
requ
made
revert
somet
ro
op
supp
into
try
used
word
admin
call
##amp
mar
her
##own
after
##ise
includ
ask
nigg
bit
##ider
discussion
said
same
state
##ied
edits
cre
##cept
##bo
##up
cor
own
def
those
since
top
contribut
col
two
post
year
##ib
bot
bo
##av
spec
rev
before
##ever
##ently
ll
ac
deleted
tag
copy
eng
still
##ons
mak
someone
let
##thing
put
expl
jo
##zz
iss
consider
take
she
suck
##iss
content
polic
##ote
##irect
conf
stop
##vers
em
something
##arly
cla
##read
belie
cur
##ew
##ition
el
##raph
red
going
##ope
cit
##mm
##ting
bl
##olog
##gr
bas
##ttp
##blem
hi
http
##ility
prov
crit
##ning
show
inv
##ten
problem
wiki
##ational
writ
day
claim
aut
free
##pect
our
##ug
sure
##ft
201
##ating
##ense
differ
doesn
mean
bi
pub
##llow
##inal
inc
gay
hell
la
added
##ines
mention
##eep
sch
##ath
feel
inst
long
web
real
##yle
##rect
start
ent
wel
without
form
history
##ild
##we
##iable
cr
might
happ
interest
sign
##ative
##ave
##ily
another
##ather
sy
##stand
##come
##ences
sec
never
view
request
keep
##ize
##ible
question
contin
pres
removed
##ank
regard
##less
sugg
ho
blocked
org
suggest
style
##rop
##right
gener
place
subject
note
##lic
##ought
case
##ments
hope
orig
##ys
##oup
sm
welcome
however
dec
term
editors
seems
ref
##ix
better
count
ma
tem
##ably
ins
mess
##ics
actually
world
fag
giv
##ead
##vious
while
support
##ull
done
##be
follow
shit
simp
both
##ann
using
understand
thr
##ral
num
check
##aaaa
str
##cess
best
yourself
great
anything
##oc
curr
utc
vandalism
##ents
speed
main
##uu
didn
##igh
tit
text
review
##hh
things
copyright
believe
desc
##vel
nigger
##az
##eric
##ke
found
arg
personal
mon
links
##ute
agree
thing
##unt
opin
##ether
pen
policy
min
##sh
got
##ittle
last
wrong
##kk
attack
americ
tak
little
##ove
##ither
##ready
fl
##ists
##ically
comments
prop
change
already
must
won
fair
though
fucking
correct
against
nothing
##ace
##ians
##ern
##ife
##land
examp
##led
##clop
##ames
##fuck
##ves
exp
appear
ir
10
##ty
##ward
resp
##ell
old
##cyclop
##lect
non
editor
det
ap
##arn
ide
english
explain
far
##lev
few
end
poss
inde
prob
exper
encyclop
##ues
anyone
questions
import
above
partic
stand
cour
##ited
give
##aps
##ahah
ip
##rr
vi
##ooks
remove
sent
different
down
##ged
conc
isn
##ify
reliable
thought
char
nor
##day
come
else
tell
##ody
bla
years
rather
##upid
issue
second
lang
##box
sor
sex
templ
report
lot
##11
##rat
trying
care
##ular
##yy
##ution
reference
av
fil
##ateg
play
##thers
bitch
trans
met
account
jew
stupid
lat
through
others
##nn
##wh
##got
ty
fur
defin
##ensus
news
guid
##ho
hello
says
langu
sorry
car
group
18
probably
chr
cert
##orn
tur
making
##lete
##erial
commun
##ograph
cent
speedy
yes
lead
##omin
ok
life
high
bad
references
mus
val
original
unt
wat
ca
ret
material
12
ext
##osed
mem
vers
doing
##man
penis
##tern
##ways
poop
produ
argu
either
ra
fun
enough
##ately
www
accept
continue
##io
least
around
webs
categ
called
summ
adding
prot
simply
example
es
mis
##ween
leave
consensus
book
certain
clear
opinion
info
auth
##earch
address
between
guidel
further
mer
rest
specific
etc
##red
viol
research
##ropri
move
needs
##ier
sl
##res
##ne
cunt
evid
sing
title
kind
##ool
##ified
exist
contro
created
##ven
kill
redirect
eff
log
##als
die
leg
##not
lar
site
beh
given
har
head
pos
pict
sci
notable
cock
##ars
const
images
##any
##its
##load
impro
11
yet
write
dr
disp
##arch
##ov
fam
maybe
matter
saying
number
hate
##ii
delete
having
complete
direct
15
adv
##sw
opp
##ric
##ropriate
tri
dem
##ional
obvious
language
hard
message
sol
polit
clo
##ided
ant
##ures
criter
important
public
pop
hand
class
##levant
template
media
big
states
administ
always
offic
reverted
true
faggot
stud
##haps
notice
quite
oh
##ized
sit
perhaps
##ract
god
##ina
encyclopedia
users
##ower
whether
mor
##ision
##ased
until
instead
dist
clearly
199
##ology
##gn
intern
##ash
evidence
tra
bu
rul
##ised
##ember
##rip
sw
color
left
written
law
##ability
14
times
school
wee
eas
##ony
pov
17
sock
three
based
makes
##ruct
general
hum
christ
##ets
##me
##zzzz
addit
##ts
project
##body
answ
allow
##jor
getting
idea
arch
uns
##iot
national
website
words
upload
version
once
prom
mind
bus
less
##oooo
16
germ
sur
neut
ste
med
##ities
american
uni
ter
##bers
##ost
contributions
##ring
13
result
invol
##ont
##ground
fre
sever
dick
##ger
test
current
author
common
##uff
publish
considered
##ature
bar
##ident
brit
##oy
##hip
changes
four
##ale
fin
means
each
phot
##upp
several
aw
major
present
##ript
date
##ret
guidelines
stat
gover
##ime
neutral
cannot
black
##empt
criteria
wish
whole
set
open
##ude
serious
ign
##uring
happen
detail
ball
24
possible
miss
histor
##pg
##med
ke
##usion
bor
##iend
course
listed
seen
proper
pur
pri
var
short
background
hey
topic
##fa
following
##stem
dep
describ
mentioned
statement
friend
past
govern
include
##idd
mother
##used
love
dou
assum
fix
##par
##cial
entire
ear
##line
##ton
answer
concern
ge
regarding
speak
object
cra
loc
22
##ins
system
est
000
issues
sense
eu
sentence
protect
prof
rules
administrat
##dd
known
accord
21
appre
100
jpg
##cing
organ
line
sk
pat
including
appreci
run
bre
related
##outh
##ives
create
attempt
category
##where
standard
watch
pass
dont
und
child
nomin
da
exact
##ird
next
facts
mark
##ness
creat
record
##atur
##ene
##istic
order
film
##amm
##wwww
##uth
sand
del
mil
##cu
##px
cover
##bs
happy
ban
full
charact
appropriate
##att
arm
##cially
learn
changed
days
picture
official
ye
file
##bb
mod
parag
li
pa
alth
simil
ru
looking
##umb
search
wikiped
##ides
##oman
anyway
##ork
although
##con
##te
qual
##hn
uk
provide
##uation
##ories
myself
fal
paragraph
##ner
idiot
included
##ries
sound
away
indic
small
##aaaaaaaa
bro
##sp
month
band
##ired
##ane
##na
perf
notability
deb
beg
country
##uuuu
diff
names
cult
white
started
##ross
later
game
goo
relevant
alb
abs
lol
summary
rac
stay
deal
##ield
ur
##tty
occ
according
##ler
sucks
recent
ta
intro
relig
align
fail
process
everyone
unb
civ
dam
##rupt
stuff
respect
##ior
large
quot
gl
##of
pretty
##gle
community
##add
ep
den
single
##oid
tot
improve
art
nice
power
anti
mist
previous
looks
2005
espe
self
wa
critic
##hhhh
disag
during
##ended
removing
government
23
currently
los
##amb
fut
##lling
equ
hom
##com
tech
notic
claims
mill
25
##ived
itself
especially
ah
wrote
##sel
air
##ising
sort
##ization
taken
##name
music
univers
hy
within
came
##ark
##uly
certainly
today
writing
interested
wasn
hon
able
hu
##son
##ange
remember
##ned
appears
faith
week
##ases
##app
wonder
##velop
unless
position
balls
ident
gre
similar
port
below
party
euro
anal
typ
##ains
mot
compl
policies
cap
ال
##uppet
fat
pie
city
develop
##iving
fig
np
completely
tro
wanted
guess
##ledge
##eng
live
super
everything
err
##mber
west
guy
##ants
##fully
due
##und
##yyyy
books
quote
jud
##leg
truth
necess
repla
##iment
cal
##ids
warning
##enced
john
##ctions
reading
##ification
##ok
jun
published
##roject
controvers
nons
political
future
side
##kkkk
argument
##ored
techn
google
##ital
useful
##miss
false
##using
death
repe
mag
descript
##ined
alm
signific
##eeee
##ipp
##wise
##acy
human
entry
sandbox
mult
wikiproject
##ration
scient
##tm
##ouse
conv
bull
##ha
obviously
british
##sc
##uc
talking
accur
lic
##pr
therefore
whate
united
attacks
disagree
prim
worth
song
cat
##wards
whatever
hal
##onse
ago
##gy
docu
##page
##ared
##rael
##get
##ially
working
##amed
explan
behav
##ulation
involved
effect
meaning
hold
vis
arb
company
##ient
israel
##lict
##ese
asked
##iet
five
ed
foot
hit
##ury
upd
strong
hour
##val
##uy
##ending
took
border
purp
often
wid
europe
##ama
response
exactly
##ata
unf
russ
particular
admins
ann
edited
##iple
except
##ling
eth
ill
##omen
lab
along
mass
##tical
2006
nonsense
lack
##oph
phil
respond
##anned
##imes
regards
##iter
almost
##ext
##selves
30
german
reasons
needed
king
##resent
introdu
##olution
##de
##bt
face
home
conflict
##ging
##ren
close
##go
##ography
##igned
fine
story
noticed
become
contact
definition
vide
##utes
email
##xx
##ny
context
terms
soon
##ogn
points
transl
##ser
separ
appro
##ball
blo
placed
autom
unc
saw
enj
cheers
cred
mal
##uk
likely
incor
##ley
dra
posted
aust
sal
##ively
reply
appar
civil
##por
threat
level
vandalize
##ivid
problems
##ained
lim
##ister
dispute
npov
##iness
gree
##nnnn
bur
addition
er
##ator
mr
mom
##ma
disrupt
haven
##que
ren
ga
unblock
##iction
##ps
knowledge
ps
otherwise
area
minor
##ock
confir
width
##icks
experi
status
##iddle
appreciate
jan
aff
avoid
members
sem
moved
taking
##ahahahah
sil
family
youfuck
##urch
third
##ng
sus
vag
prefer
di
rule
##ror
2007
cited
team
shows
south
character
moder
2008
tried
type
works
generally
enjoy
expect
valid
##ortun
meet
##hole
individ
##aper
ele
win
cite
middle
##shit
##lu
interesting
citation
rid
recently
criticism
elect
pract
##df
box
told
stated
jews
light
net
username
cir
##ourn
198
##co
men
wouldn
actual
pet
plan
htm
piece
aren
deleting
wait
press
clean
rad
##atically
##ili
vertical
naz
christian
##ush
recogn
promot
##inc
event
##unch
description
conn
clar
university
##ternal
provided
indeed
explanation
sockp
emp
administrator
individual
church
##he
subst
reverting
##pend
special
ey
guys
##adding
possib
##itive
experiment
contr
##ream
uploaded
pal
jap
simple
oper
ang
##lam
origin
aug
views
je
theory
aware
camp
##ison
##onym
album
went
##etic
yeah
fight
##ان
##ump
action
##iod
##edic
serv
##uted
rational
alone
##lex
contribs
themselves
##ency
edu
##yl
decide
verif
vol
ones
##ats
space
##soci
dog
quick
##imate
bal
independ
banned
thus
external
rece
##ung
shouldn
rock
belong
apolog
break
##ites
##ablish
avail
##more
proposed
der
japan
coll
##ensive
##zzzzzzzz
document
tags
solid
##over
boo
##gress
50
##aining
##aged
fav
series
sourced
internet
##view
represent
various
attention
social
job
##ada
##rew
establish
seriously
poor
##key
afd
particip
hol
insert
citations
associ
##bert
effort
norm
##ob
coup
dumb
##reme
period
decl
comput
##1111
sn
ment
##ying
comes
click
##oth
##atic
##ief
##ep
living
science
cause
bast
##adem
milit
##itted
absol
##ones
dead
north
colle
profess
allowed
preced
significant
ignor
ce
tog
bring
access
july
build
longer
goes
meant
##izing
epis
field
islam
##urd
jewish
##side
dev
##yn
2009
circ
happened
##lim
heard
video
##iam
##tered
##arily
himself
doubt
schol
afric
contributing
##els
assert
calling
cell
bul
##rain
progr
##ench
2010
available
fan
mov
neg
usually
##itely
supposed
sites
necessary
##cra
connect
bastard
episod
product
pot
tab
women
together
among
creating
rew
bullshit
##erely
du
gir
repub
##vent
##ularly
##by
apr
terror
legal
##row
propos
moron
##ka
sections
asshole
begin
coun
absolute
helpful
syn
express
div
mich
bill
dest
earl
million
rf
infobox
27
unre
arab
##back
incorrect
journ
hours
data
vot
08
bias
jim
##orial
dav
automatically
manual
opinions
member
early
##ster
son
debate
wank
details
sat
born
land
roman
##itch
creation
months
republic
enc
worked
crap
sla
pun
assume
concl
ess
statements
business
reach
multiple
##oice
austral
contest
india
lib
august
tild
##ots
personally
proof
invest
historical
##ls
half
interp
##oney
rights
separate
irre
jes
hor
constit
##ron
accurate
house
##ox
wal
sockpuppet
san
##ances
march
perfect
##gh
altern
vote
boy
cut
couple
gets
197
##iab
academ
ethn
tv
table
court
photo
dri
biased
honest
eat
##fd
##ze
international
##ta
primary
cocks
##che
modern
na
none
##ana
accepted
phys
##pppp
tildes
cy
online
##20
##uyuy
##mission
priv
countries
tre
racist
educ
##tyty
##oooooooo
##ices
actions
28
insult
blog
barn
que
wikipedian
quality
retur
##mb
mur
##ium
batt
final
treat
liter
##arian
##omm
tagged
night
continu
oct
foc
violation
##ters
sept
2012
##alth
##10
president
indicate
advert
clos
##ption
expand
##ading
map
pill
archive
children
purpose
apparently
accus
star
##ted
##aming
phr
ny
##oint
dece
##oss
difference
situation
html
damn
##uary
##ential
##wwwwwwww
ital
pig
##ij
upon
26
directly
vict
oppos
military
okay
offer
sometimes
format
uses
##aster
muslim
feb
geor
dicks
stra
##zer
##ugh
activ
changing
rand
concept
bir
##aries
culture
gra
thinking
inclusion
size
##ught
##anda
release
stub
hear
described
jack
##icult
shut
##ured
specifically
cases
vir
##ambig
##ety
extreme
unfortun
french
difficult
explaining
##conom
math
2011
tut
june
results
##asc
rationale
exc
##ccess
club
##omp
readers
america
low
##tf
##iation
match
fool
soci
asking
##star
lost
##ffff
former
##fuckfuck
outside
butt
##ulous
control
behavior
econom
##ination
ben
earlier
coming
turn
replace
prove
bab
unsigned
niggers
repeated
##ester
season
scientific
196
rele
interpret
liber
computer
desp
flag
29
##ural
roy
frank
##for
reported
arbit
existing
linked
require
wanker
##ffic
2004
journal
cast
##medi
puss
messages
program
##aw
earth
possibly
fart
center
deser
body
consist
cens
fall
april
blah
january
sexual
popular
preceding
games
respons
retard
gave
jer
jesus
error
##ructive
confirm
##board
##ength
particularly
##itions
numbers
##ih
bra
pay
behind
huge
##head
##erv
##form
fire
mine
greek
bud
##zy
arguments
religion
om
##ges
reader
putting
blood
sun
##ds
looked
##atured
hop
total
figure
##iiii
##put
trad
money
##ires
killed
friends
cath
september
##ips
##tw
##ows
amount
tutorial
force
##ney
il
discussed
local
ridic
examples
disruptive
moment
century
pillars
decided
giving
ten
wide
capital
dan
produce
contribute
administrators
##ham
featured
pictures
named
neither
irrelevant
##reed
##onymous
bother
warring
chance
40
bene
hur
##str
york
mad
inapp
##the
spam
independent
tom
cand
wind
##ery
##erous
immedi
##ological
determ
entirely
ethnic
##itate
fac
##ished
gives
across
loser
pick
##33
##thern
cool
reflect
##lin
lik
##lying
finally
warn
##oles
fish
wants
##hr
##hod
totally
##iver
groups
##like
disambig
majority
lie
init
##ال
bott
##itor
abuse
absolutely
##fe
pussy
influ
anim
age
nobody
sad
##to
194
december
knows
teach
gone
sounds
##iding
serb
relations
iran
perform
population
ful
##uuuuuuuu
mistake
town
indian
blocking
merge
takes
glo
##work
tool
blank
dom
biograph
##istan
china
##ica
concerns
##ince
##eder
freed
pain
acceptable
rfc
events
beat
cro
00
1px
nazi
##eal
shall
##fs
ba
##ba
hot
towards
##olic
success
design
lists
base
padding
2014
movie
path
##play
##br
nove
##bar
scot
hes
organization
fill
police
troll
##dom
##ators
understanding
##bal
##itting
propag
trou
##oose
advice
importance
east
missing
definitely
decision
suspect
tar
##ament
##air
grand
##loy
david
easy
heav
##inese
board
mail
##abor
standards
unfortunately
##ends
##rict
prick
##ych
experience
ridiculous
##ober
resol
rich
removal
motherfuck
1996
complain
merely
november
##yyyyyyyy
barnstar
birth
inappropriate
##king
investig
nature
rs
led
##ffy
newsp
russian
chinese
ground
##hhhhhhhh
##lt
luck
surpr
despite
##lled
october
benef
demon
micha
##cent
highly
##ius
##ec
##xual
dear
templates
fem
democ
license
service
sam
religious
ahead
hyp
forum
##anc
row
freedom
fund
##omb
##ouch
water
weight
join
anonymous
bey
##antly
legit
harass
recomm
posting
near
broad
span
rap
##cccc
scru
drop
##alal
2013
spl
appl
##rom
##ja
##ival
couldn
##ops
impl
method
fixed
##ya
properly
nomination
31
guide
##xic
murder
bold
glad
##ai
nigga
battle
listen
track
protected
stick
##verse
excl
wtf
obser
ko
##ague
##iliar
scruffy
controversial
##eth
discussions
bottom
##0s
##port
easily
prior
episode
ut
index
##ship
##bot
comb
##ming
##urs
##ware
mostly
football
##ssss
##icit
willing
hitler
##rog
requesting
gar
introduction
central
##llll
##akes
substant
usage
paper
vagina
race
compar
metal
random
##99
##uses
btw
categories
posts
gun
european
kh
prevent
vs
##oud
value
germany
basic
verifiable
movement
##af
poo
shown
college
somebody
expert
turk
bes
favor
##ole
noted
guideline
sov
vill
explained
award
##ms
porn
febru
trust
blp
##ube
reasonable
bush
##pir
study
##asing
select
february
enter
front
accounts
describe
western
psych
##aaaaaaaaaaaaaaaa
host
incre
yours
seeing
basically
##kkkkkkkk
places
argue
candid
imm
grow
##ourced
prec
controversy
##iability
squ
##dy
##au
island
imag
##ias
forward
struct
mart
basis
funny
negative
##tain
army
stre
alternative
##sex
##ban
fit
##ky
shared
aids
##aving
interview
suggestion
##ingu
becom
hole
##eeeeeeee
##ellig
##tttt
##ibility
##ste
approach
england
ideas
unsourced
established
beyond
green
released
joke
campa
fel
agreed
##cient
##rian
wording
frequ
ways
paul
##duct
f5
father
return
princ
immediately
late
##ands
deg
finding
step
visit
cross
sho
magaz
photos
##ustr
195
chall
required
somewhere
##how
##iki
referring
japanese
##fl
weeks
speaking
proposal
fore
commons
natur
thats
sou
##mp
campaign
characters
nar
james
ignore
##bc
##nnnnnnnn
wikipedians
quotes
wondering
##gggg
length
##ried
##ey
referenced
##ifying
philos
hind
sar
suggested
##iel
intellig
##12
##ression
et
ach
##fffa
f5fffa
young
code
requests
fully
society
discussing
item
protection
intention
encyclopedic
peace
became
encour
##ondon
phrase
##esh
##itable
concerned
destro
##cer
gold
##itude
mos
sport
##ino
##cell
##alog
##ار
nominated
tend
##nd
active
six
ener
previously
share
feed
familiar
##set
##gin
supported
##sequ
knew
attrib
silly
london
remain
##ki
practice
straight
kar
spelling
parts
market
kore
mid
telling
propaganda
brought
requested
##ering
06
##atory
presented
compan
##gar
gramm
##my
wikim
received
##acc
php
types
update
alleg
subm
contribution
instit
played
appreciated
disambiguation
champ
dy
academic
gon
##rary
piss
rape
secondary
##lear
health
anymore
label
##ست
key
meets
apply
convers
engine
arr
speedily
2015
01
moving
spanish
##ym
sold
bigg
##000
topics
kept
##ald
unlike
incident
wil
triv
usa
whose
considering
additional
rfa
thous
shar
irish
indust
contributors
redu
dig
role
judge
##war
bunch
##rug
tradition
55
exists
##unk
languages
##book
brief
happens
trouble
wow
ya
##now
thread
tax
##ceed
inn
blue
failed
nation
instance
palest
ak
##ech
##ون
oppose
##ifies
catholic
##sd
##ford
ple
george
lies
doct
##what
beginning
biographies
##ris
##cedon
##je
##osexual
park
african
france
90
limited
##uf
misle
warnings
intended
demonstr
soft
extremely
motherfucker
##erg
##ask
canada
suggestions
aspect
hopefully
lay
leaving
##idge
sett
sick
michael
touch
ox
conserv
در
reviewed
satis
died
pure
##fg
round
##va
macedon
biography
communic
mc
van
claimed
choice
##ات
development
advertising
manner
starting
ug
mexic
factual
showing
hat
compet
##iday
league
refers
william
##list
minutes
thoughts
australia
ii
##ped
wars
energy
##ero
##ulations
amb
send
fucker
websites
suffic
heart
plus
tests
authority
via
behavi
permission
brown
files
crim
##lement
sen
ire
reality
citiz
areas
notes
##uel
discover
offensive
road
woman
##77
meas
hah
normal
referred
##rite
philosoph
semi
checking
arbitration
sens
##oke
ani
americans
##istics
##esis
puppet
##iting
retarded
held
extra
accusations
spir
evil
spread
##iant
input
assist
scre
blat
eye
3rr
positive
nav
includes
##ilt
display
realize
##anced
##anted
depart
occur
lame
distin
##har
##ken
students
regardless
focus
##no
foreign
##hi
print
35
contrad
register
companies
conduct
union
disg
dar
collabor
stating
region
titles
coverage
hig
##yr
ham
peer
fol
##isions
office
connection
ireland
fasc
##bur
citing
pak
copyrighted
alex
##entially
##pped
##ume
repeatedly
##apers
strongly
draw
##umn
confused
achie
resour
involve
tone
persons
lots
##craft
##action
##ین
##usive
##11111111
claiming
double
dut
##reg
fairly
occup
eyes
##erson
applic
anywhere
counter
lines
cant
worse
push
range
reput
armen
pred
##zzzzzzzzzzzzzzzz
ped
##aging
shot
waste
keeping
uploading
condit
inte
recommend
##ae
save
circum
bon
ancient
ack
capt
hesitate
behaviour
protest
closed
amaz
county
rub
updated
dir
##ax
##ين
##uts
##urb
choose
dark
##enty
translation
##ape
commer
feder
03
##ened
70
somewhat
slight
education
higher
cry
revers
relationship
kingdom
progress
cost
checked
wikimedia
##bbbb
##cil
running
nick
##imin
##tr
hence
sup
45
##80
193
harm
homosexual
##eter
professional
girl
agend
db
forget
lif
magazine
medical
global
misleading
36
##iber
evolution
reports
territ
##urity
famous
besides
sir
##iny
yout
ult
perfectly
odd
ira
##vin
admit
destroy
##isation
diction
legitimate
street
##under
gonna
##ience
speech
dates
02
playing
hund
criminal
refrain
conspir
satisf
lu
contains
##atives
building
intent
trib
ens
##nes
raised
stalk
brain
explicit
laws
licens
additions
##vo
mac
##ko
alle
numerous
05
deep
hundred
aud
##cest
obama
constructive
jimbo
resolution
lad
pron
roll
challen
##eness
employ
##vey
thinks
studies
empire
acknow
repl
fucked
wales
newspaper
youtube
##xxxx
anybody
reverts
pus
unrel
bat
lower
chart
elsewhere
dude
myth
felt
##crap
80
unne
secret
logic
russia
##ater
ms
mix
pan
associated
undo
radio
food
reb
ber
drug
##bn
##enn
cas
##ality
##alogalog
##23
reached
contain
##jj
model
ㅂㄱ
##stream
mach
##ining
ㅂㄱㅇ
##idents
helpme
covered
replaced
##uyuyuyuy
accused
insist
##light
ان
contents
efforts
whom
##rible
wer
##hib
verify
comprom
naming
walk
##ises
forgot
lock
##orth
followed
analys
##tytytyty
75
thom
suppose
originally
##point
adop
letter
truly
pointed
##ruction
sentences
cam
helping
##mmmm
surely
04
60
polish
kids
committ
##ام
##ening
reject
turkey
##ously
private
plot
33
09
##eless
easier
democrat
domain
hair
pathetic
shame
northern
likes
tour
##asion
##rees
perspect
homo
draft
##ga
seemed
poll
somehow
collect
politics
election
ancest
##ander
opposed
##ado
merged
native
ignorant
canad
natural
requires
agenda
##olf
conform
victim
##iff
relative
robert
improving
clicking
##erning
structure
rank
##span
participate
48
kid
authors
alban
##ram
##vir
##crapcrap
ju
##aff
tagging
annoy
##ades
career
existence
##oring
listing
##sec
royal
scott
illeg
crime
hardly
fans
##li
##ago
conclusion
dial
opt
percent
technical
mentions
card
mosc
07
dub
##ray
noticeboard
records
forever
##ums
honestly
ther
##ett
subjects
concerning
assess
figures
##ara
useless
bank
plain
fuk
matters
shortly
widely
##ien
solution
liberal
##pppppppp
errors
quickly
##hj
##agon
confusing
target
##accur
lick
twice
feat
##ception
spirit
quoted
interpretation
mainstream
wing
##za
restored
network
##hu
inaccur
##raid
furthermore
anth
theories
##75
##40
disputed
##itation
acting
mong
rude
ability
fellow
32
rh
##ria
watching
bands
rail
chann
confirmed
split
wall
software
function
affect
cu
##ills
copied
correctly
apologize
pakistan
##ida
latter
font
weak
nearly
##los
committee
tor
station
excuse
commercial
##anna
announ
unnecess
dix
os
##astic
fags
##wwwwwwwwwwwwwwww
##19
idiots
association
bag
afraid
##18
mentioning
lives
##gan
reviews
integr
rob
soviet
ton
hasn
logged
##inks
throw
freak
cup
male
mouth
mic
bell
##fuckfuckfuckfuck
##kn
##padding
bio
##gest
complex
supporting
cellpadding
analysis
bear
cocksuck
fla
indef
domin
latin
addressed
##yan
security
##anch
careful
##chan
providing
critical
constitution
##wa
criterion
##da
##anks
propose
##inge
throughout
##22
smell
player
99
##ios
##gu
disapp
summaries
defined
threats
boob
##rrrr
verifiability
belongs
bark
fast
rout
assuming
sle
##wood
brother
parties
muslims
rate
prem
potential
mel
songs
##stood
helps
conspiracy
jump
blocks
iraq
rot
reads
bol
continued
contradict
##here
arbcom
israeli
##ership
library
au
worst
dictionary
height
worry
##rd
##vv
##ns
scr
latest
symb
experimenting
yo
revision
identity
frequently
68
aver
pushing
washing
regular
appeared
pow
thor
keeps
##aha
sufficient
oil
entries
promote
##اد
ash
located
shoot
##onic
daily
fundament
ugly
lord
opening
greater
paid
54
##ustic
forces
seven
delay
cru
##you
2003
division
voice
##hob
که
advoc
location
cow
##utions
rewrit
##ula
croat
surprised
feedback
##0000
female
ord
confusion
##arks
experienced
clarify
dyk
rom
repeat
minim
##asm
imposs
foundation
detailed
fear
##ault
##ani
##ille
excell
caused
films
38
##mer
village
district
dire
nic
##reh
##ston
##olol
instruct
agreement
cultural
eventually
fighting
boobs
turkish
wife
laugh
began
enfor
turned
##uppets
userpage
emph
schools
##ahahahahahahahah
ze
##inary
##asty
##dh
##berg
significance
ner
simpl
strange
ukrain
thomas
appeal
suggesting
hung
production
busy
wikil
necessarily
##ift
##iance
contributor
pull
reve
##dddd
attempts
thousands
department
##ای
##abb
bomb
##uous
room
stands
calif
egy
telev
pret
peter
##ued
##oses
players
influence
71
everybody
##field
calls
surv
degree
tal
wit
congr
drive
africa
perm
alleged
goal
deserve
dro
sides
student
imagine
##cr
orly
minority
##col
suf
defend
nyan
perspective
pointing
individuals
ready
##ena
mount
max
##estic
proven
britain
##stein
cust
من
##den
##aut
cele
grammar
federal
canadian
ris
rare
##zen
warned
desk
twat
scholar
apart
dixz
athe
missed
vandalizing
artist
council
##92
plenty
systems
##acing
master
##15
proced
scholars
##ortion
californ
##ping
load
##hon
archives
equal
literature
butth
##izations
illustr
impossible
##ores
spent
grad
italian
3px
dyn
nipp
rat
dict
largest
eastern
##wiki
neutrality
australian
maps
egypt
به
logo
precise
##ustice
dealing
palestin
reasoning
consistent
42
86
rum
##mas
photograph
##ws
mir
##iers
ast
attitude
slow
34
talkpage
industry
compromise
washington
provides
inside
dang
chat
##ission
kick
##orship
contrary
dirty
hands
aim
##ered
blind
cond
##uded
##96
##icious
invent
versions
champions
swe
##ette
2000
##hs
##uit
##rie
writer
volunt
involvement
sole
corrected
##13
manage
objective
convention
bos
##enc
votes
serbia
benefit
##اي
average
##rep
chem
corpor
remains
parents
sinc
virt
##face
terrorist
##iw
##ses
justify
https
smith
promin
smart
princip
jones
##gen
fringe
fuckin
jose
##hic
applied
excellent
lying
از
##rem
uncon
##racy
spok
impression
demand
dickhead
mistakes
baby
cou
##rative
brand
responsible
hypoc
##down
traitor
motiv
##iate
##ros
##ulated
##ays
##ension
queen
unnecessary
symbol
##iles
dise
deliber
hall
ken
##bor
curious
leader
emphas
hang
##88
moon
richard
zero
misunder
blatant
nations
mediation
arse
exec
conversation
pu
##ilities
ie
politic
wild
##van
california
##cast
river
hack
unp
##oper
novel
##ivity
lin
guard
species
arguing
huh
##gt
##iiiiiiii
dat
swed
mathem
##ique
incomp
alt
##porary
##aken
restore
redirects
waiting
suggests
angel
##iqu
##ager
colon
belief
##ex
accident
bbc
envir
civility
expanded
##ato
altered
compared
spot
##ressed
##uuuuuuuuuuuuuuuu
television
overall
##well
ignored
rewrite
hits
disputes
46
chic
expected
harassment
nu
trolling
spend
##just
fake
tac
whe
signed
wishes
si
##hood
##oms
script
identify
christianity
##oooooooooooooooo
bible
leading
catch
channel
sake
##do
holy
islamic
56
74
lou
##bag
credit
69
dip
graph
diss
communist
72
exam
##ivil
##plic
signature
crazy
gall
um
##ancy
44
pic
##orter
episodes
pse
verified
allegations
bound
##78
##ari
chap
##ference
reporting
advance
heavy
##yyyyyyyyyyyyyyyy
alph
lear
susp
aside
##istry
##pping
##idden
##urdy
76
fu
projects
medic
environ
190
racism
improvement
awards
impact
##standing
screw
feeling
sports
citizens
option
ven
intel
carefully
undue
##idence
broken
favour
lived
whoever
cities
passed
philosophy
##14
killing
viewpoint
ram
##yer
column
heading
recall
built
apologies
pseud
larger
improved
##iar
##ingly
persist
illegal
fant
##men
##dr
anarch
specified
sourcing
activity
##bl
publication
girls
explicitly
gang
vo
##inn
feature
editorial
faggots
physical
gal
bob
fy
mah
continues
opposition
lingu
franc
achieve
nipple
png
##era
rowspan
han
##cks
##ev
##ور
remind
technology
dumbass
frankly
learning
pdf
unit
loop
esc
opportun
dream
##iger
formal
mut
suitable
friendly
hindu
chicago
bang
weap
violate
applies
##rant
carry
chick
adam
gov
strict
summar
##amming
determine
##cle
forth
##ested
initial
tam
compreh
engage
mainly
attempting
slightly
gas
ol
linking
##jo
bitches
##ca
utter
candidates
##pper
planet
treatment
conservative
suffer
##ulate
promotional
65
satur
##16
##riage
justice
presum
becoming
task
##ipe
nein
##hold
sales
economic
stories
##alalalal
##orrow
genoc
##ocks
inaccurate
differences
minister
complet
paragraphs
weren
##imately
genre
cook
neger
remarks
##izard
specify
paste
portal
credible
##itty
lets
39
##iated
##rass
##bish
##user
unable
wood
unclear
intelligence
43
fffff
beliefs
developed
balance
environment
2nd
cab
##encing
seek
violations
buy
censorship
mosca
##while
hill
edition
cold
192
unique
responded
observ
aspects
37
64
hide
stage
500
older
becomes
eg
ka
##ati
##anas
convert
objection
horse
southern
##ji
##aves
assertion
enem
persian
peoples
encourage
traditional
gh
mechan
##oca
##resp
##ما
##ala
fort
fault
logical
disgust
hero
commonly
martin
slo
##win
forced
quit
nov
spell
christians
##ux
objections
philipp
synth
whore
##usions
usual
holder
mcc
pra
##ners
opposite
##db
congress
ice
distrib
convin
##soever
jeff
resources
##bi
ought
2001
skin
treated
restrict
heads
finan
duplic
indefin
sv
arri
ended
##esome
contributed
chris
render
tomorrow
perman
unblocked
terrorism
direction
66
jon
##kj
friday
cart
ein
##lig
##oon
##pace
##ota
implement
limit
complaint
documents
recognized
##2010
deserves
screen
53
hen
##known
85
nut
ww
understood
##kkkkkkkkkkkkkkkk
##ano
##pled
learned
sant
با
beaut
weird
button
##going
sr
allah
revolution
58
bare
anon
materials
meat
safe
forms
universe
jerk
animal
investigation
ensure
gn
acts
joe
attacking
mast
existed
comparison
reveal
##une
physics
micro
##fj
vandals
innoc
les
nom
yester
services
core
purposes
##hamm
##ales
whatsoever
##izes
normally
resolved
fif
knowing
everywhere
morning
awesome
bed
kurd
##fo
##ucks
prime
##iety
consequ
historians
##zil
niggaz
charles
hundreds
yesterday
##ول
doll
##ode
answers
mission
powers
##ola
donkey
##osen
promotion
gfd
asian
finished
prose
##eme
damage
obsc
stopped
essentially
##tttttttt
52
georg
hun
accusing
biggest
67
drink
wed
##han
prison
fox
interests
mum
sea
##izz
##ssssssss
jay
kel
##ender
##llllllll
mi
staff
minute
folks
instructions
##ocaust
mun
orth
##boy
effects
##hhhhhhhhhhhhhhhh
features
ja
collection
bloody
measure
##gment
##ini
unknown
proceed
trip
produced
pattern
burn
gfdl
##ura
compare
boys
dv
temp
massive
prepar
owner
violence
tacos
flo
holocaust
territory
##gl
##orted
submission
categor
statistics
##nnnnnnnnnnnnnnnn
##wk
##ود
##itled
maintain
semit
bc
jul
##fair
accusation
pronoun
noo
##ali
organizations
decline
bay
##ordin
showed
termin
nazis
98
ax
nik
toler
christmas
finish
creator
largely
genocide
ath
wizard
##lines
react
subsequ
clue
letting
follows
construct
typical
era
kam
tex
incorpor
41
vast
##note
##inger
attract
colour
accuracy
hurt
##rial
garb
tired
##45
2002
equival
cleanup
tools
dun
emb
watchlist
doctor
bow
##itz
animals
custom
##oty
onto
arrog
##lav
trade
reform
resolve
annoying
lose
od
##ees
rein
prev
parent
designed
##aud
##link
##atch
scope
sister
بر
portug
formatting
thorough
nuc
ron
##tained
coi
command
flow
mas
marked
aircraft
korean
gray
serve
charge
mistaken
replied
congrat
pack
##sey
newslet
worthy
products
##mann
contract
cheese
##ession
##usal
whereas
travel
documented
mang
##iest
reaction
mob
cooper
newcom
items
rubbish
##iful
violating
bib
##change
hel
accuse
commentary
cos
fiction
kr
pil
dismiss
##ifications
massac
democratic
parl
emot
##lan
relev
flight
describing
activities
substantial
59
inj
prod
wrest
corre
iranian
hmm
##oted
marriage
##bby
scientists
facebook
lede
disease
ali
letters
redund
raj
misin
##gggggggg
47
bh
##gi
flor
talks
registered
57
sux
ship
quant
param
fash
mary
contem
launch
supports
ec
##equ
##uate
chief
discour
appearance
officially
rang
wanna
transform
chapter
prince
relation
refs
operation
implies
garbage
##mo
tomm
professor
##olved
##nis
##bit
##rap
##icted
historic
magn
koso
##ties
sell
remark
hoax
expans
angry
sleep
##ita
surr
define
constantly
publications
##space
##dra
brazil
challenge
bosn
mike
unfair
attacked
gross
##holes
iron
constant
skills
##spacing
##icket
helloz
virgin
matches
candidate
dedic
sain
##atical
cod
hypoth
##cccccccc
machine
intellect
newsletter
gain
##osp
switch
cellspacing
assistance
fundamental
ips
calc
closely
uncivil
voting
ott
till
believed
cares
poorly
dutch
1st
##cement
unac
loss
punk
scale
exception
unlikely
fle
helped
temper
unw
deny
grounds
##eeeeeeeeeeeeeeee
##old
##off
aggress
##phan
meeting
trial
continuing
trivia
dare
vehic
esp
godd
volunte
papers
ray
##yers
phen
attempted
recorded
bug
##ona
accom
afgh
identified
radical
fly
sie
##fr
##entions
##aked
deliver
recognize
trivial
fashion
##ده
##edy
##laim
admitted
mont
smells
championship
socc
adult
ble
bog
##50
url
49
##bg
##itter
asia
elimin
profile
equally
mental
principle
corrupt
literally
dal
fer
##ami
wear
imper
##acity
movies
cha
poland
pointless
positions
96
sky
##17
alot
speculation
##خخ
heck
fack
scene
insulting
##cript
##phen
##hammad
unaccept
din
pm
toward
##lection
ongoing
alter
fuckers
blow
apparent
coupled
##30
oldid
vague
clarification
##ughter
##cious
##uine
##ibly
financial
##ville
standing
liar
greece
albums
circumst
risk
saturday
bye
homop
##aaaaaaaaaaaaaaaaaaaaaaaaaaaaaaaa
##onents
##illa
obs
element
mere
##mail
##bre
userbox
corresp
memory
hoping
soccer
cum
##iling
##aker
muse
mond
##ients
##post
##amas
##izer
apology
nationality
conventions
stone
gender
director
allows
ambig
correspond
tact
##ounding
spain
imply
##cyl
opportunity
tree
experts
egg
##gs
saf
flat
##erc
korea
unreliable
titt
explains
ancestry
##vio
ignoring
successful
sincerely
##cture
handle
technically
responding
cel
plat
fixing
crack
primarily
criticisms
licensed
cocksucker
yah
distingu
fails
sockpuppetry
serbian
##orthy
justification
proud
genuine
crimes
##ipped
arabic
##time
##isc
diag
determined
acknowled
palestinian
parliam
storm
teams
##uable
shock
chose
plant
critics
encyclopa
lacking
ignorance
pleas
##oni
asse
plag
freely
distinction
zeal
bananas
lady
chicken
titties
##sa
stuck
##iled
##ilty
chosen
train
resist
covers
assumed
conditions
medicine
didnt
absurd
discovered
3rd
##fort
stal
married
loopy
##etical
##structive
##iler
vandalized
directed
scholarly
merit
windows
##vi
##ican
##rey
noes
caught
describes
possibility
inserted
reputable
millions
82
mig
tiny
##یر
##itar
neigh
##ards
purs
elements
offered
dab
tony
##66
##stars
##abag
honor
greet
republican
##rh
consum
compos
bridge
defense
kindly
property
italy
mand
prohib
tele
survey
philippines
expansion
##names
price
moreover
entitled
summer
relatively
azer
bish
anyways
arms
failure
intelligent
##cs
advise
armenian
tommy
census
fict
mud
##taining
fraud
reviewing
definitions
racial
##ية
##lation
affair
heil
writers
publisher
essay
mixed
kiss
ran
##odox
happening
witness
##llocks
coast
##ographic
extent
##spam
reputation
rewritten
gib
commission
rofl
documentation
##min
##eds
teabag
defe
prominent
accompl
##pet
##aton
qualify
receive
celebr
parliament
##icide
brad
strateg
unacceptable
eight
##ils
merging
dogs
95
bure
km
ss
##can
##illy
greatly
fourth
artists
pas
##mon
##omy
secondly
gw
##ek
##zger
##uries
whenever
tells
douche
introduced
benefits
casual
##iy
prox
##ointed
equivalent
cd
##mark
##24
heb
intend
phone
consideration
greatest
directory
slav
300
##py
##bon
##lla
consult
tips
##asy
management
##ef
##hot
##jud
##room
informed
freezer
biz
von
orient
imo
999
climate
opened
credibility
breaking
newspapers
commented
incidents
transfer
addresses
texas
justified
invited
terrible
electron
constitutes
congratulations
desire
doesnt
expressed
mathman
##nam
fucksex
administration
bringing
louis
oly
tu
verb
nowhere
smaller
affili
##bbbbbbbb
afghan
gather
ts
##icated
##log
manip
##ffffffff
daniel
yourselfgo
blogs
bigger
distinct
training
square
pir
rod
##pa
##aking
highest
jackson
notices
sid
lee
firm
indicates
##eters
causes
archite
fyi
eh
##core
fred
starts
##90
loves
submitted
##1111111111111111
##uyuyuyuyuyuyuyuy
nuclear
##ju
titled
dim
fd
kkk
##igan
incons
organisation
methods
##alogalogalogalog
dialect
##aur
##oe
##acked
feelings
gotten
##lands
viet
csd
##word
inher
##perate
valuable
raise
voted
increase
anime
haha
believes
estim
disgusting
##wide
##oul
alert
##ounded
granted
archived
elections
hahahah
##tytytytytytytyty
gent
reser
misrep
pressure
victor
francis
##tion
##ika
##roll
##ached
embar
decent
humans
videos
disruption
51
forb
excess
classic
ske
nationalist
rog
ist
incred
hus
mol
pel
historian
amazing
bann
##inton
strike
highlight
##coming
balanced
macedonia
coordin
levels
snow
advertise
roycy
newcomers
aka
می
##ario
##tics
##ima
crow
metzger
leads
closer
##dden
spoken
flu
additionally
suff
adds
paris
186
violates
horrible
##inder
forg
moves
grav
economy
omfg
##bour
footnote
ethnicity
democracy
fascist
84
mate
pump
realized
seconds
bullet
farts
nas
theor
referencing
cites
78
##wor
##ها
frustr
##ounder
assholes
extensive
##rim
hadn
promise
assessment
gurdy
ring
##guy
##ffe
guilty
mainpage
download
variety
deliberately
dad
##fc
spa
dur
fab
gif
alive
abusive
upset
muhammad
orthodox
kat
##enis
independence
occupation
redundant
gur
##lad
cham
subt
##crapcrapcrapcrap
zion
generation
##anny
volume
stalking
gam
voc
##hen
andrew
##cher
sect
neo
overview
presence
unconstructive
pp
##wer
##ker
answered
quoting
##encies
joseph
##long
engaged
b00
isbn
##riend
##onds
questionable
cc
hidden
##las
feels
conclusions
relevance
olymp
ay
units
teh
reviewer
leaders
denial
mexico
dubious
ger
ry
sudden
frame
##iano
actor
offended
punish
sunday
bothered
institute
innocent
thurs
reed
##aste
rollback
ly
##83
##hab
sequ
orphan
origins
filled
92
earn
##kes
wasting
informative
loved
steve
authorities
requirements
thursday
bird
mit
pac
nominate
socialist
pedoph
minimum
cub
##vis
##aly
dc
sik
##00x
manuf
corn
hyper
pieces
plagiar
whil
owned
empt
internal
rough
cancer
parap
regarded
##don
##thew
regional
respected
##zzzzzzzzzzzzzzzzzzzzzzzzzzzzzzzz
acknowledge
victims
##ora
stock
committed
caption
occasion
preferred
condition
phenomen
hip
##hol
##alf
##ott
eval
holiday
procedure
manufact
##agan
concent
administrative
translated
planning
97
rose
##ند
province
occurred
satisfy
kur
door
branch
whilst
##iat
##kin
##esc
nob
perce
violated
hosp
##25
runs
buddh
application
museum
stalin
##pages
wont
creative
juda
promoting
billion
entertain
subse
libel
submit
##burg
az
##44
writes
##your
##uting
spin
blame
texts
testing
miles
hebrew
63
##ivers
##iders
guitar
acqu
sched
quotation
renamed
withdra
reasonably
classical
labour
circumstances
b00ll
##apa
founded
germans
passage
recognition
declined
fictional
roflspam
b00ll00x
shop
fucks
served
niggors
strik
assumption
tables
baseball
soldiers
inconsist
jos
##85
grant
refuse
##resents
steps
beautiful
##76
##essed
matt
sweet
dvd
camb
exchange
symp
similarly
shitty
goals
##ected
ownership
privile
censor
misrepresent
bod
##oron
##amin
##rugg
cris
performance
##uge
##oos
fell
depth
islands
iv
##kh
##jg
poly
autob
123
effective
translate
sockpuppets
turns
responses
oxford
audio
alright
unin
string
yellow
airport
vagin
willy
duck
ker
##70
infin
73
hil
##arm
##udes
femin
gaz
##rated
conference
herit
valign
terrorists
closing
facil
immig
dedicated
hart
##uch
arts
scotland
judgement
tip
##ista
contained
centre
approx
expression
henry
massacre
mainpagebg
trash
musical
untr
broadcast
bum
lit
supporters
turks
attribution
eric
ni
rus
##iently
##هم
suicide
##aks
##ogy
scum
problematic
monitor
cia
lake
##icial
haz
proph
soap
formed
150
moral
holding
contrast
##ridge
infer
abusing
managed
columb
##ocol
powerful
declared
resource
rejected
precisely
ic
samp
vac
##ras
##eno
imdb
amend
spect
analy
worthless
arabs
focused
81
##uh
factor
1999
##3333
##fuckfuckfuckfuckfuckfuckfuckfuck
intellectual
tommy2010
kidd
pc
##anic
##cking
teen
wanting
specifies
drag
##others
dance
rabb
stink
sev
##stit
copyvio
improvements
heavily
##pppppppppppppppp
94
##onent
##chen
chron
badly
narrow
ain
genetic
##ibal
threatening
represented
greetings
##rid
##spe
##uct
sum
##race
partis
speakers
##oh
##iac
legis
harry
albanian
contemporary
##ου
exerc
childish
greeks
announced
principles
herself
monarch
winning
gee
nasty
sig
tun
##rick
allowing
communication
##uan
##arre
trick
##athy
ends
broke
cree
nat
##eline
intr
interact
oblig
invite
subjective
emphasis
ros
yug
##ule
##irs
daughter
disappear
dangerous
weapons
tel
##ни
##orse
1995
connected
tort
notification
##ests
unh
##abig
lazy
merger
drama
doub
cze
##atics
suit
redirected
famil
cleaning
productive
insults
hint
rice
##aya
##ira
clinton
controlled
unrelated
convinced
arrogant
judaism
##ير
##pla
##arter
assad
nominations
idiotic
87
##kins
ing
spo
demonstrate
supreme
terminology
lor
##lom
##bed
##itarian
deem
doc
cher
##igger
##ologist
copyrights
isnt
blaa
raw
holes
oxym
62
luc
wise
##rot
##jk
##etics
##ila
heritage
hates
##pro
##ads
spring
header
passing
forums
##xxxxxxxx
flying
##jf
stars
##iah
attend
publishing
libert
declar
##60
feet
joined
syria
distance
accordingly
purely
buttholes
dynam
kosovo
horn
sland
##iro
adminship
typing
motor
representation
window
substantially
uh
wave
##rs
stan
abst
dishon
relating
##ratch
portion
route
distinguish
czech
adequ
##oslav
kinds
objects
suspected
increasing
challenged
alphab
bg
fest
##cat
##inent
disney
seeking
a7
##55
##alid
youi
schabig
croatian
nerd
atheist
oxymoron
breat
sack
##ღ♥
##bell
kinda
breed
searching
superior
reduce
93
هم
##unci
polite
scratch
##ava
##ova
humor
approved
lyr
morm
##sy
stupidity
##notes
behalf
programs
locked
invented
83
dj
scout
decisions
values
presumably
ffffff
sab
##gor
tea
represents
returned
buttse
##ergasm
bonergasm
founder
iii
##wed
inline
backed
defending
worldwide
strength
charges
bitchbot
cunts
singles
selected
macedonian
buttsecks
gro
ryan
##iments
fired
construction
khan
paraphr
pin
##otic
brow
reven
extended
argued
figured
picked
teacher
soul
pg
##lor
##etry
indicated
typically
bulg
tonight
donkeysex
##ღ♥ღ♥
ety
legend
officer
replaceable
sight
heat
deletions
remaining
scen
proves
singer
##aaaaaaaaab
florida
fresh
officials
portray
receiving
citizen
##wwwwwwwwwwwwwwwwwwwwwwwwwwwwwwww
semitic
##aaaaaaaaabaaaaaaaaab
nc
##oll
##aga
##iva
infring
plans
smok
dragon
weekend
institution
completed
noobs
##نا
##aded
##hjer
jizz
##ews
preser
introduce
electric
##iably
kim
rant
wolf
##rate
##tab
strugg
phck
copyed
disturb
mothjer
explanations
bastards
potentially
digital
drugs
##uated
recre
brothers
hearing
falls
ell
rise
##cel
chair
proved
niggas
argent
modified
calm
selecting
indefinitely
dies
عل
##band
interv
spamming
cricket
communism
collaboration
datab
79
contentious
upper
sty
insp
palestine
wtc
##وان
##lah
agency
##iley
##missions
victory
adopted
empty
etym
bs
fgg
##iser
realise
##whel
judgment
contested
blanking
destroyed
monday
89
rain
##tes
auto
checkuser
involving
##rad
##usively
talked
pray
viewed
centuries
favorite
solely
facilitate
das
dot
dave
##opher
##uls
whats
##ogue
repro
overwhel
default
monkey
الم
franklin
printed
##ua
##very
unus
##ighter
causing
rename
fggt
hook
scheme
concepts
88
iz
jel
notion
elabor
portugues
correction
youth
reception
1998
dealt
accurately
##po
##دم
##rol
##ches
leban
apple
significantly
initially
puppetry
mongol
fdffe
fdffe7
##32
conqu
ending
prompt
troops
fields
obscure
##mat
##asp
asdf
stable
sav
marx
denied
complaints
attributed
##usalem
encyclopaedia
jac
##utive
marks
urban
labor
reversion
gard
##ার
leaves
20th
profit
convince
profession
implic
options
##rrrrrrrr
dropped
bin
nin
##nel
##64
##وا
##lem
stress
##umin
vandalising
jerusalem
growing
senior
rarely
imperial
warming
trolls
mexicans
hous
##rich
##jew
##iced
shape
trent
offense
carried
barber
representative
straw
thousand
subsequent
va
##aka
myster
prejud
vandalizer
issued
##ello
eating
ku
##lywood
1997
socks
250
disagreement
promoted
intentions
anthony
##dddddddd
rush
testic
##soft
coinc
advent
advant
brian
##net
##inem
agf
joh
solve
conformance
vehicle
afghanistan
##rus
##nos
albert
adjust
##ounds
commenting
serbs
supply
wonderful
virtually
misunderstanding
pope
pending
##ustration
warrant
crash
godstars
##ipping
therap
diplom
enemy
lyrics
buck
hunt
kong
##gho
##pes
##ст
abortion
poster
capacity
##oxd
ukraine
prepared
##fan
##utt
neil
##iev
liked
layout
shooting
##iwan
decades
filed
universal
identical
skep
dishonest
fv
rud
##esy
bastered
crus
nationalism
accordance
diffs
occas
mongo
##bury
##itative
##aling
##chester
##iring
prin
twe
score
faggt
irc
stephen
supposedly
zealand
##uations
##cience
grade
factually
1967
towns
ot
##auc
##onian
hamm
wease
defam
filth
permitted
hr
comic
recon
politically
wwe
##nt
##sm
##ereign
boston
invalid
titoxd
##elliot
johnson
preference
yahoo
hospital
cucks
rm
orange
limits
practices
requirement
harassing
circumc
homosexuality
coward
jar
rick
dozen
shad
##aph
##orders
server
transport
effectively
mountain
rome
این
##gf
selling
chi
##ologists
##athan
1990
pretend
yugoslav
dil
ted
##rison
##ια
##order
stere
conven
##theless
speaks
##atted
las
tang
##ribe
substit
romanian
responsibility
comprehensive
portuguese
jimmy
domestic
sovereign
alexander
amazon
ukrainian
reedelliot
##ador
##iana
discip
taiwan
silver
eleph
cease
audience
ck
##aaa
descend
quotations
drawn
ages
instances
addressing
conflicts
essential
opposing
sarah
##nesday
acknowledged
entertainment
bulgarian
doug
dated
##يا
##jh
afgho
stats
meaningful
##formation
biographical
por
##mc
##87
##pass
store
coach
saved
sucking
surface
models
interviews
jr
m1
##ito
##icip
19th
extrem
operating
marketing
saint
afghooni
fed
jur
##hart
##enth
##irt
comedy
chuck
transpar
taught
visible
maxim
wednesday
77
##west
##isem
wikis
##una
##alled
regions
explo
farm
protecting
champion
scottish
temple
##kl
suc
comfort
sometime
entity
180
setting
updating
participants
unrefer
constitute
journalist
birthday
settled
gor
hub
tong
##mos
##mond
##ket
sha
placing
1994
speaker
phrases
5px
##rine
##hop
disreg
minded
inserting
combined
sarc
railway
swedish
platform
families
##rage
nevertheless
189
swear
derived
performed
pronunci
utterly
##bra
##oned
##alle
andy
##state
perpet
regime
instru
corrections
golden
bru
lud
pad
##alany
##rior
twist
charl
##host
tries
##jjjj
testicles
##ez
##fu
##anal
##isms
assass
bern
lg
##igen
##lets
plane
regularly
emo
morons
indication
duke
educational
raped
banner
vul
scandal
correcting
ideology
fantasy
jam
##elete
##call
##200
cho
##illing
gotta
replacing
participation
buddy
dictators
##iques
unreferenced
oce
##dp
commit
bollocks
1992
kevin
mode
buildings
encoun
expanding
reduced
eb
##ته
##48
##phere
refused
##retch
religions
visual
expertise
engineering
politician
fc
fought
##يد
pros
bits
niggerjew
avo
guidance
borrow
chemical
giant
رو
##mar
##ded
##اب
##och
##akh
cann
trim
discred
qualified
sorts
combat
sending
sitting
##iu
patent
##attle
multi
salt
renaming
alternate
stubs
consistency
licensing
permanent
bureauc
##bles
inqu
weather
indones
sym
watched
descriptions
physic
crisis
puppets
lew
##anger
##uding
##baij
ultimately
svg
weasel
disregard
400
nap
tan
##kt
timeline
planned
carol
1991
patri
meaningless
bully
amongst
darwin
philippineslong
lith
pink
rig
##lers
##ार
stations
newb
pert
harv
##onto
gallery
synthesis
ky
##αι
##olit
exhib
##she
depend
teaching
anarchist
aggressive
embarrass
tas
##911
rely
stamp
##ordan
serves
curps
endorse
ruled
integrity
georgia
mt
wol
##ifiable
knock
1000
complicated
meantime
screens
wheel
##yyyyyyyyyyyyyyyyyyyyyyyyyyyyyyyy
noun
tues
##35
##icient
serving
absence
malicious
devil
pissed
anthrop
wrestling
fvck
nine
##tp
whites
pref
invasion
encouraged
municip
forgive
avoided
61
anne
##oma
manager
##ache
copies
185
clearer
depending
persistent
strictly
barely
withdraw
##uz
##cha
outcome
reliability
##uuuuuuuuuuuuuuuuuuuuuuuuuuuuuuuu
azerbaij
ale
cnn
emer
120
organized
scientist
footnotes
akbar
demonstrated
navig
bosnia
assemb
dum
gab
kings
##char
##imp
##iveness
scream
##prot
pigs
economics
omg
dropdown
growth
squad
arrest
corporate
database
aid
remote
assault
workers
detect
cars
retrie
blacks
journals
kidding
tuesday
##mt
##apt
##لا
turning
merits
picking
microsoft
accomplish
kir
##rants
##aj
##oris
##tick
quiet
shits
101
plays
lawyer
depends
assertions
censored
investigations
surprise
bond
fuel
overt
tay
cheat
gayyour
ideal
retired
awful
prize
motion
occupied
##alalalalalalalal
##die
asp
puts
1993
unbi
replacement
##color
sweden
##raction
counts
restoring
edward
releases
paint
captain
undoing
4th
##rence
##thur
prostit
obtained
crown
continent
##lessly
proposing
flags
advertisement
overwhelming
unbiased
dna
##ulating
margin
ministry
advanced
elected
sanction
intervention
91
مي
##urg
hurric
cuz
orphaned
kann
tid
##ding
##zens
##uster
noting
seperate
myspace
##phone
meta
caste
cf
##yth
prep
gene
generic
130
complaining
cleaned
academy
amounts
simplified
##iiiiiiiiiiiiiiii
##eries
##ashing
##imb
##rier
verification
coff
insane
slut
slave
rapid
linguistic
tamil
kon
tib
vice
thin
##rack
differently
welsh
slim
harrass
headline
davis
navy
suddenly
mm
mort
tail
taste
##look
##uing
spelled
appropri
##ographical
logging
traffic
historically
magic
membership
naturally
competition
applicable
hypothesis
succeed
ae
hong
##رف
resort
comply
predict
ambiguous
iq
stance
comics
fran
proc
imho
tempor
personality
authent
presenting
threatened
croatia
ow
##uro
whit
belg
deeply
##mmmmmmmm
bolas
rating
tough
beck
overs
formula
monster
harder
antisem
camer
masturb
proxy
tall
##rum
##86
shith
actors
signs
temporary
110
satan
subsection
partisan
fits
loose
ping
##nlu
##edly
##anged
compat
corner
defence
greg
influenced
communicate
inspired
##ranted
andre
dozens
##ivility
spending
banning
mister
displayed
hypocrit
dh
sets
trop
##ра
owns
revisions
communities
##respect
purch
npa
holds
foolish
butthole
safety
untrue
##cal
##eda
##ilia
canv
##abled
##ogether
firstly
marc
ruling
vari
presidential
williams
guardian
lately
finds
revised
descent
recognise
apologise
budget
settle
oomp
rav
##bys
armed
haw
stream
selection
aband
entered
twitter
invitation
expos
cats
distribution
pleasure
bizarre
theme
insight
bulgar
oompapa
bite
nether
alien
assign
para
scar
##ressive
colors
governor
capable
recommended
briefly
territories
##vvvv
barbercall
barbercallum
ft
##hand
##agged
meg
parad
concise
sexy
cauc
deaths
petty
confirmation
cooperation
mes
wt
publicly
modify
boxes
floor
cambridge
bom
bbb
وال
##26
stretch
##etically
spoke
cuntnlu
studio
homeland
bapt
arsehole
vent
beach
##aman
alco
agent
bright
income
signpost
chronic
boring
substance
consistently
psychology
hungarian
etymology
finger
lind
nit
tup
wake
на
کن
##ει
sees
##iform
factors
signing
qualifies
edge
##tax
bgcolor
sic
##29
##inct
##ilater
##iffer
##ante
##rix
nose
device
forgotten
altogether
observation
allahu
ian
lion
mold
guar
engaging
filter
lacks
approval
reflects
mexican
unusual
cs
nich
tourn
تع
##vor
hay
dislike
indo
regist
meanwhile
187
drunk
importantly
validity
brack
affected
hanibal
jelaton
elev
##ni
##oric
anger
unjust
canon
pod
jokes
writings
classes
bodies
##house
##то
##arious
##agger
habit
likewise
agrees
singh
surprising
enforcement
pacific
plagiarism
hanibal911
fame
ive
kal
kyle
ric
riot
za
reverse
notew
unprot
knight
sail
minds
statistic
sadly
reprodu
pronunciation
1em
gil
sri
vision
##hl
##دا
##herent
##ptions
remained
degrees
orders
linux
codes
stereoty
bah
##gb
shah
##iry
negot
puta
##ologies
incivility
valley
slavery
liberty
tribes
throwing
advocate
scholarship
pelican
bunk
bums
drog
##jay
##ateful
lev
vandalise
taj
##oked
industrial
##kkkkkkkkkkkkkkkkkkkkkkkkkkkkkkkk
bought
boss
mp
##wick
##hd
offf
conce
##ooo
basket
evident
harsh
##rete
errone
incorrectly
interpretations
joining
exclusively
illustrate
gan
sag
##ici
alan
cler
corp
copying
patience
repeating
translations
increased
angeles
excessive
اين
##но
##34
dos
wealth
discography
##ansas
unsub
controversies
arbitrary
blatantly
romney
##olololol
hanibal911you
bun
balk
jordan
##84
##sell
##olly
coal
indians
attached
subc
clin
joint
concert
spiritual
incomplete
tactics
advantage
jail
nl
sadd
tight
##born
theat
##omer
shout
quarter
pride
infl
persec
practical
reword
hatred
lesb
fabric
pics
##ao
##ui
beer
##ckh
abd
uss
resign
brill
races
slang
covering
multip
sanctions
reversions
charts
circumcision
##lar
##stal
paralle
namely
##erman
roots
flood
improper
operations
documentary
immediate
astron
revealed
affairs
sikh
phenomenon
##hy
##loc
evening
##acon
root
sys
churches
privacy
heaven
nickname
wis
##sk
##fy
##oral
##uled
129
killer
clarified
driving
infringe
offfuck
dene
lone
pit
wo
wider
##uph
##ucyl
##road
##ams
laid
governments
threaten
educated
authentic
diet
##eg
##اه
##het
##aine
actress
cheap
charged
pair
bullying
proposals
courtesy
dictatorship
kil
ng
##iner
assure
recons
suppl
computers
##00000000
##ahahahahahahahahahahahahahahahah
duplicate
##nnnnnnnnnnnnnnnnnnnnnnnnnnnnnnnn
111
kan
##hist
##65
outright
crew
jobs
swyers
##gery
bored
moth
hostile
labeled
motivated
permanently
nikko
m1ckh
m1ckhacked
fet
rug
vom
##enus
ships
##urt
destruction
guns
challeng
kamado
##gers
shorter
chad
##elp
query
guest
listas
legally
fools
armenia
politicians
pseudos
incredibly
drogon
clock
chop
implying
strip
authoritative
breach
ordered
occasionally
perceived
gy
nad
##uther
prosec
formatted
losing
الع
slaves
pitch
##ran
##greg
##ables
confuse
analanal
##prus
winter
interpreted
ultimate
astro
exercise
deemed
reconsider
aus
##sis
##cho
fruit
##emon
impart
emper
falla
hyd
erase
##752
tie
witch
##hire
anus
##rel
coat
appearing
gods
userspace
barbar
infoboxes
cyprus
folk
dollars
sympath
noteworthy
bry
bass
##iography
##itzer
brings
lastly
patient
treaty
conducted
##tttttttttttttttt
bibli
##works
coffee
##master
##orge
sher
disorder
recover
##gger
diam
observed
fifth
netherlands
hiding
loud
هست
##vak
##89
##onia
##oration
dee
##pelled
justin
prest
clown
rhet
photographs
thoroughly
abstract
cere
ghost
mitt
rif
##car
##ener
sel
uniform
##cco
##ograp
##eek
assumptions
undid
failing
convicted
##bye
cycl
lucky
wilson
toronto
mobile
gi
##21
##bm
presentation
urge
updates
budd
exclusive
consequences
surrounding
dress
##night
##sef
dod
veget
smile
britann
glass
hollywood
##hobic
##llllllllllllllll
architecture
mormon
tibet
cake
fuc
wides
##nik
##real
hab
##uman
gospe
outd
corps
metro
protocol
contacted
syntax
babies
narrative
sensitive
cabal
arrived
volunteer
resistance
dor
vfd
adapt
clut
everyday
classification
cyber
camera
dynasty
##oooooooooooooooooooooooooooooooo
kelly
browser
ego
gut
по
youn
arc
sto
##imm
shel
##ulf
outline
overly
dram
participated
intentionally
disgrace
francisco
dump
ich
qur
sided
ti
##ented
arthur
alas
acted
followers
solar
studied
locations
216
breast
password
##uuuuu
burden
achieved
punishment
sust
##ront
clan
##gging
eliz
involves
replying
weapon
pronounced
##خخخخ
transparent
wm
##jan
##ো
##iti
chester
alumn
sexsex
defining
honk
##dfs
hamish
tupac
rip
yank
isol
##ckey
stad
##tery
##apenis
actively
grateful
partial
miscon
respective
ottoman
aer
thir
##sters
weigh
worries
infant
manif
##ansk
genres
considerable
##ashed
opera
##ihad
discovery
spokes
hurricane
homin
niger
##94
##pread
##ро
tower
enth
##ems
advised
situations
resulted
commonwe
girlf
unreason
enemies
##elet
##cur
regret
revol
carl
surname
212
indicating
##kkkkk
visited
unfortunate
##ccccc
vaginapenis
widespread
##td
##yal
##books
##icy
repost
boi
mainten
184
violent
sluts
##aneous
grey
negro
driven
cycle
executive
incorporated
diagram
electronic
ocean
icon
soph
tick
wang
##dan
##lder
##stone
##terp
109
handed
begins
1980
jersey
comparing
magazines
motivation
wwii
deneid
bath
dating
gained
shap
phase
transcl
researchers
credits
brah
rewriting
zeuph
incompet
citizenship
commonwealth
zeuphoris
mason
pon
##een
thumb
sep
uncom
unilater
##endo
intim
boot
refuge
144
pasted
creates
deriv
collaborative
costs
strategy
vietnam
mul
punch
uu
##hed
##rett
##elle
faq
plural
scan
colleg
penal
diego
opponents
answering
edgar
incidentally
vow
##links
##isa
inhab
##oln
shell
motives
developing
1989
paying
nam
paged
##roc
##eman
##uns
##ribly
warm
versus
##ripts
universities
clarity
lengthy
adopt
ordinary
##cccccccccccccccc
alcohol
kk
##asi
abc
##ours
##osh
##apore
108
medi
silence
offering
sufficiently
unpro
mathematics
##ssssssssssssssss
severe
bureaucrat
len
lil
##writ
amate
mole
peenus
conscious
spons
##acies
messing
exposed
hardcore
disagrees
winner
anglo
battles
dollar
fals
hd
ام
##cul
##ears
repet
handled
typo
judging
salv
preferences
1945
##hobia
condem
gnu
maintenance
dry
ff
jane
nuts
ul
vary
##lich
##liz
##تر
##ко
##edge
ont
adject
##ifer
##ertain
cathol
ranking
##honk
symbols
cosm
amendment
elaborate
##ographer
honkhonk
tank
مب
deals
relate
officers
devoted
allegation
wikilove
virginia
userboxes
8px
cash
##بر
##uv
##organ
##abeth
disrespect
##ogen
resem
thrown
geography
implied
tracks
summarize
columbia
lgbt
antisemit
fing
fro
##qq
##orum
##urance
unver
abra
abbre
resident
defines
hobby
maj
oldest
debates
processes
guessing
recognised
campus
circle
suprem
therapy
temporarily
hamish752
5em
caps
dust
fbi
convey
manchester
consent
##phy
goodbye
merc
organis
portions
introducing
romania
hotmail
progressive
mathematical
800
nag
##mi
##abe
worship
persu
afc
simon
noneth
leadership
singapore
legacy
ohio
sweep
promotes
italic
##الال
turkic
institutions
##iquette
##drome
faster
##hg
##36
##illed
containing
producer
142
denying
slowly
einstein
bogus
husband
canvass
ai
rates
sigh
##talk
rex
##aki
contra
confidence
bigot
recording
liver
compliance
exceptions
##mao
clubs
##aware
listening
senate
mirror
corporation
instrument
nonetheless
ross
##cd
thick
rela
chain
worded
boat
meanings
solved
nicely
princess
borrowed
##bysouth
hoo
##rt
##oen
##angel
##ensively
lawdy
##inson
calend
cutting
replies
theres
##lantic
kl
vand
##nb
##gon
forest
outrage
rolling
hij
decade
flash
##rator
raising
177
occurs
annual
ashamed
kenned
viewpoints
##alanyl
lithuan
pagedelete
zu
##itors
##tering
owners
##elled
medie
weekly
minorities
1988
syndrome
alternatively
egyptian
quantum
##place
caucas
mothers
catholics
hans
raz
##icing
##ourse
sac
offers
vandalised
209
continually
160
medal
medium
drawing
wearing
libertarian
hors
vik
##des
notrh
##olis
##irm
appointed
presents
archae
precedent
michigan
awarded
dialogue
moscow
##96t
lewis
basketball
pip
zone
مس
##iop
##pm
yous
stew
matthew
incon
cuntliz
popularity
##banof
sharing
deliberate
pseudo
##glut
bibl
sample
##bysouthbanof
medieval
notrhbysouthbanof
kent
vig
##nie
##ku
##orious
unaware
##udge
robot
syd
141
identifying
russians
villages
doctrine
fascism
albania
enforce
pulled
##aaaaaaaaaaaaaaaaaaaaaaaaaaaaaaaaaaaaaaaaaaaaaaaaaaaaaaaaaaaaaaaa
smoking
aqu
gill
lun
##vs
reck
proving
##ela
undert
smack
patrick
falsely
arrested
tribe
celeb
procedures
alpha
kurds
celtic
douchebag
##uyuyuyuyuyuyuyuyuyuyuyuyuyuyuyuy
bout
##uce
##alous
##aba
sax
spi
acce
generated
functions
headed
openly
yep
tennis
armenians
wheels
##gggggggggggggggg
defeat
privileges
festival
younger
##95
##وم
angle
##isd
inev
##ceb
##http
##udi
bots
specul
characteristics
##steve
sensible
environmental
##hhhhhhhhhhhhhhhhhhhhhhhhhhhhhhhh
misinformation
temperature
slavic
gaza
tournament
britannica
dash
wins
##sen
sue
114
210
patients
equip
avoiding
difficulty
secretary
palestinians
neighbor
##tytytytytytytytytytytytytytytyty
dynamic
borders
owe
pier
sought
##لي
##ige
##olas
spur
##eeper
confident
cawk
liqu
erased
socialism
combination
applications
cocksucking
reserve
kin
naked
##iary
##eer
##zo
##ли
##شه
##atell
neck
assy
phon
##ordon
##anka
probability
128
##insert
epic
conclude
alternatives
adams
pursue
styles
##96t96t
pd
##gas
##pal
##leman
rez
##entious
uned
abused
##ection
sucked
classified
174
000000
techniques
circus
beatles
murdered
flawed
wikilink
accidentally
manga
casualties
##alogalogalogalogalogalogalogalog
tongue
##sheet
##inity
isles
overla
twenty
joy
questioned
107
advis
173
meetup
participating
exclude
etiquette
relationships
routine
approximately
impartial
##ceb92
cp
d0
fceb92
oreg
tons
است
##esth
bytes
hisp
##apse
findings
confront
miscell
passion
ethics
uncle
1986
percentage
emotional
alumni
jihad
في
##rent
##cers
##´s
##ader
##ppy
moz
residents
explos
penises
fulf
crystal
suspicious
praise
misinterp
shadow
harvard
taylor
elizabeth
cad
cous
nancy
##mir
##ва
##inations
rect
bee
wikib
interaction
##acle
secular
hockey
##annon
apost
movements
technique
##iterate
automated
electr
sexuality
hungary
virtual
infinite
intimid
pag
##ும
##isters
enlight
pregn
preview
concur
posit
146
declare
divided
fundamentally
tommy2010f
slander
emperor
ct
ds
mood
nt
sne
##news
##ington
##agers
##unction
offend
unsu
1984
##ymonds
##harth
ancestors
colonial
pilot
delivered
##0ver
##mit
##dog
##hurdy
pool
discusses
partly
##erto
colspan
endless
stays
junk
grace
hindi
gravity
gurdyhurdy
zionist
inconsistent
rugby
hog
##ye
poison
go0ver
perception
permissions
الا
civilians
lands
hotel
puzz
##rimination
##crapcrapcrapcrapcrapcrapcrapcrap
argentina
go0verment
eats
jed
##arr
##adel
suge
atlantic
pok
112
176
broader
hairy
homopeters
roger
uninv
lesbian
girlfriend
cm
jason
oro
tm
tied
##fire
##atures
anna
seed
##pec
subsc
partner
suppress
questioning
maintained
##ahaha
retire
restaur
resulting
finn
disagreements
experiences
restrictions
roughly
lebanon
houses
kennedy
ghob
kash
lam
wire
##lined
##bul
reign
reliably
grown
207
biology
caution
archiving
168
austria
driver
nyt
arrange
albanians
subsequently
eliminate
affiliated
buddhism
tropical
brilliant
outdated
fi
pants
sd
sale
xxx
yu
##ре
##fare
##adi
moore
considers
biological
##beit
numer
headings
solutions
keiffer
sooner
insulted
##burgh
##eeeeeeeeeeeeeeeeeeeeeeeeeeeeeeee
parallel
ghobrial
cents
dw
kansas
yog
##01
##கக
asc
##stant
leon
subs
aven
##ovic
lesson
representing
motherfuckerdie
scrut
hypocrite
converted
cv
dread
tap
vit
##hal
##را
##fly
##या
##oro
revel
hav
##chi
shr
unex
inclined
hier
musicians
scientology
communications
cartoon
corruption
bishop
assembly
homopetersymonds
linc
mamas
ride
uuuuuu
مو
##np
##ের
##oux
todd
##anta
prices
maria
experiments
concrete
variation
depict
undone
licks
philip
mentally
treas
blanked
painting
immature
spreading
duty
danger
##bbbbbbbbbbbbbbbb
alphabet
vomit
cinem
##ti
##کن
##allow
coin
grasp
seemingly
proportion
##addy
grew
suspic
kitt
lyn
ov
rival
##rous
notified
##ete
adher
sacr
partially
welcom
irrit
103
trace
histories
palin
jean
accessible
protests
frustrated
adequate
struggle
retrieved
cccccc
lmao
vect
##rin
##gay
##jab
toe
alf
worried
lean
ourselves
smoke
tempt
struck
courts
untagged
merry
erroneous
aa
hl
wine
##gets
##with
##bro
anat
doom
talkback
spite
paran
genesis
expires
105
##rators
metaph
##nny
183
testim
stronger
malhot
1982
breaks
teachers
contradiction
constitutional
kurdish
victoria
bruce
unreasonable
sydney
cav
md
rag
veter
##wall
##oys
##ান
##asa
chile
discrimination
subpage
recip
marsh
messed
steal
##balls
mrs
jackass
journalists
satisfied
bbb23
stadium
oregon
ome
##mont
##nu
##uity
##pool
##جه
##alo
stood
##etta
seal
newly
asses
##active
genius
marg
smo
transc
retain
anton
analogy
uncited
criminalwar
bearing
acceler
jen
kkkkkk
ml
mild
satell
tat
wet
##ronym
##له
##27
##arians
anderson
##omic
##llah
##etime
chess
##ucker
##rians
alliance
emerg
webpage
researched
knowledgeable
1970
academics
discouraged
witnesses
unhelp
chirop
bunksteve
lincoln
bak
zh
##pie
##rec
##roph
fried
uno
amusing
##arts
relat
belen
marine
counting
104
125
emailed
programming
macedonians
spaces
legisl
enthus
5th
nig
pap
ucking
##hes
##uating
syrian
carbon
superf
literary
##heads
settlement
atheism
##11111111111111111111111111111111
nobel
hilarious
azerbaijan
appropriately
abraham
biblical
uninvolved
bent
eag
fles
##mus
##ania
chhet
fuckfuck
teah
serial
mario
nationalistic
##ylvan
punct
returning
reflected
precious
philosophical
rebels
principal
indefinite
3d
nope
rv
anyhow
counted
burning
divers
reaching
##awa
lift
pertinent
cute
ties
##horn
##28
##ρα
##´t
sean
output
##ensity
##ahh
recru
clever
waters
memorial
170
castle
pleased
pretending
mechanism
restricted
prevail
volunteers
crowd
olympic
neiln
teahouse
fighter
mb
oops
##rig
##یش
##anity
##lee
shakes
yourselves
##ensed
##george
indigen
relates
plants
signal
countless
##bec
flick
evidently
drum
sword
##aaaaaaaaaaaa
derog
initi
lifted
optim
chemistry
pasht
hominem
jet
jere
lied
nd
pul
##case
notify
atl
##law
formally
presume
communists
slip
slop
studying
steel
220
cultures
losers
automatic
seasons
##hammed
hahaha
kicked
earned
inferior
occasions
amateur
unhelpful
##56
frag
applying
clause
accepting
logs
barack
portra
germanic
tendency
premier
santa
prophet
guarant
calendar
ki
rd
##father
##து
##otes
ford
ster
stinks
##ched
##oli
adolf
##ardo
intu
needing
impressed
##apstick
nominating
contacting
1987
synonym
bothering
pushed
convincing
##ffffffffffffffff
##guyen
soapbox
600
zo
شده
##cies
beast
##ilation
exceed
##ensions
loyal
##owned
install
encycloped
aviation
extend
awk
yea
##ucated
expressing
martial
sharp
##181
##اده
misunderstood
architect
breath
maximum
newbie
tb
tense
##sch
##anth
fork
sevent
unint
exha
enh
##grade
##athers
behave
wishing
catal
europeans
collaps
connections
literal
selective
pakistani
tolerated
prejudice
kho
osc
wy
##km
##atri
##alia
marcol
properties
republicans
conversion
measures
employee
suffering
kelapstick
goddam
strikes
##oosing
youssef
wick
##worth
##zi
##uer
##eria
##arl
##ithm
##emp
underm
##phem
loving
##azi
populations
140
uran
junior
##chez
##feld
nicht
estimates
harte
equipment
chiropract
exhaust
gap
gaming
vend
##на
##osis
poles
attorn
mars
afterwards
instant
insign
maintaining
188
122
##ricks
winners
funding
bust
gest
های
##life
##jac
##agues
chances
##orem
verse
##ulture
obst
brig
organs
christopher
awa
geographical
الت
enjoyed
concluded
activist
liberals
successfully
escape
cookie
guru
stinky
sympt
cave
drew
ee
vital
##enger
seat
heh
bless
##teen
begun
util
psychiat
schedule
revenge
cheatsheet
pseudoscience
beng
wip
##pedia
##uters
##iri
##ifier
lect
attended
wright
buff
passes
criticized
emails
treating
dismissed
##olitan
##dfsdfs
##ylvania
aiv
luther
##rimin
##ри
##isp
##ando
triple
plate
survive
graphic
sequence
proclaim
hypocritical
marcolfuck
ytm
##mamas
##jv
##itals
toss
##leus
havent
stol
##istol
##pton
searches
miller
deserved
keyboard
shares
scrot
observations
celebrity
organisations
mall
عن
toi
facto
admir
possess
138
circu
boymamas
falling
hopi
visitors
threads
hamas
mythology
berlin
transformer
pedophile
doubts
ytmnd
cul
gate
##kind
##isons
##pelling
trained
pee
offence
commander
scared
159
134
133
##retion
keen
originated
returns
ambass
manufactur
horny
yugoslavia
comfortable
gospel
bach
kw
pound
tends
##zco
##onen
##rive
##untc
##osition
##enses
##ggers
believing
elig
monten
##elling
definitive
extension
145
147
estimate
camps
frequency
employed
batman
rumors
aimed
reactions
launched
genuinely
uneducated
coug
dual
fusion
uc
##uj
##bel
reass
##lyn
cance
allies
goss
agric
accent
saving
client
confeder
provin
118
moro
149
166
collapse
sticking
protestant
employees
targeted
bombing
mccain
indigenous
aol
bid
cot
gand
sons
وا
shannon
albeit
##ango
accomp
singing
humanity
uncertain
credited
malays
salute
civilian
contradictory
puerto
hazel
cameron
gary
jess
xen
##nigger
##gent
##عد
##ller
stab
seman
acronym
wikiqu
entities
understandable
transition
##nni
highway
unsupp
##ammer
##iami
freaking
escal
lorena
coincidence
orozco
kol
nah
roles
##yt
##ید
##fia
##oto
##ipedia
exagger
##abel
disaster
quack
upcoming
resc
newton
indirect
rephr
beings
impose
##ologically
currency
metrop
115
sitush
sorting
jeho
influences
mountains
dictator
examine
achievements
rangers
declaration
indonesia
auf
tack
umm
ved
wes
ها
##ान
seattle
chill
pole
contention
queries
obtain
wherever
acid
blast
expired
extensively
arguably
unfree
cells
intentional
dropping
jurisd
wisdom
derogatory
ما
##full
youre
asks
##roit
franch
overlook
ipod
complained
##loyd
splitting
rankings
jonathan
vocal
ussr
shakespe
awkward
##untcuntc
dd
gear
tc
مع
##رد
thesis
##anes
antic
toy
##rets
##ioned
##irl
faced
##keys
##shire
banks
debt
separated
slap
libr
grammatical
iraqi
semitism
frustrating
russell
manifest
horses
gossip
carn
rab
tiger
##ski
##inter
shift
algor
spr
grat
backing
smear
swift
164
139
searched
musician
circles
divor
trees
journalism
visiting
allegedly
defamatory
sysop
scrotum
digg
til
yam
##date
##var
##ido
conced
##uri
wasted
##weg
wrongly
179
whitew
unfounded
1975
grave
attribute
congrats
ratings
hypocris
suffered
masters
hmmm
##33333333
malhotra
bb
bil
gb
mck
##ки
##agn
stro
succ
unambig
##logy
brut
brid
##group
provoc
reviewers
106
124
larry
distort
distract
swiss
nationalists
162
geographic
251
worthwhile
punjab
societ
influential
observer
ratio
bosnian
prohibited
sidharth
legislation
##aaaaaaaaabaaaaaaaaabaaaaaaaaabaaaaaaaaab
على
implications
hood
miami
##cont
##ري
##bow
##usible
allen
disabled
plz
obma
supporter
explore
unsure
surgery
finland
illness
roads
lifetime
##fuckfuckfuckfuckfuckfuckfuckfuckfuckfuckfuckfuckfuckfuckfuckfuck
6th
ace
bund
cfd
dol
ek
pent
pity
##mun
##fas
##aria
wikia
cloth
scare
demands
lesser
traditions
investigate
minimal
parameter
radicalnigger
tasks
bibliography
edgar181
cougar
bm
edd
pour
##met
aryan
##opath
atmos
newer
mather
stopping
formation
dispro
156
172
markets
losses
labels
practically
liek
ultra
democrats
##4080
disappointed
incorporate
transferred
assassination
lod
oak
qa
ruth
xx
##mes
##mad
reinsert
reuters
##omet
beating
mock
reminder
brains
ceo
084080
boards
crying
walking
novels
carrying
jacob
infringement
dane
jav
mouse
murd
##esty
wikic
unen
##abad
##inkle
##hero
howard
204
scores
scroll
curs
agreeing
patrol
tape
dennis
equation
1944
baseless
doctors
bugs
##cription
obsessed
misterwiki
hypocrisy
dq
kum
stir
##opic
shim
chip
##udd
outs
consists
polar
assigned
cloud
redirecting
devices
tablo
confirms
##formed
minecraft
priority
boundaries
slovak
portugal
##ღ♥ღ♥ღ♥ღ♥
atmosphere
aar
hann
rated
##sons
##oop
##ument
##pot
##fox
##asia
##ikes
##adam
##cht
##ationally
frustration
##umes
trend
preach
guer
clim
certific
##jorative
137
ruin
descriptive
catalog
civilization
harmful
torture
punctuation
shakespeare
mile
pix
ward
##itis
abide
##ishing
brun
minnes
appearances
ironic
102
restr
keith
disagreed
wasnt
operate
sonic
frequent
featuring
advocacy
estimated
ludic
misinterpret
bise
hug
اص
##54
##gra
##oi
##تی
##inet
##agen
discretion
phd
genetics
121
depression
goog
ethiop
uncont
1979
psychological
captured
eliminated
forbidden
##رب
##fall
##erable
##see
##igar
segment
tradem
engines
mini
acceptance
misuse
researching
248
racing
credential
establishment
announce
jumping
fantastic
hunter
inherently
garden
minnesota
bub
lem
pile
##vic
##لی
##bd
##fh
theology
disclaim
##weight
mainspace
18th
produces
misc
liars
approve
expecting
fighters
trevor
vanity
adoption
conventional
sailor
neighborhood
dying
foul
roo
vel
را
##mouth
##ка
arist
frat
unic
editions
byz
prote
appe
removes
gays
laug
esper
delhi
benny
excluded
##rogen
predomin
elephants
ontario
billy
kor
pt
session
tanks
wah
##74
##73
##ικ
##orph
ark
sheep
noble
spy
##gray
inspir
dispar
bald
virus
federation
##trs
graduate
brazilian
descendants
transcluded
##pricks
##reak
##ieves
evangel
inco
extract
humour
wikiprojects
maples
teachings
karl
insisting
rajput
nasa
lonely
dia
fgt
hiv
hated
nail
##jd
##fack
##iga
enorm
faces
underlying
decides
deciding
detroit
retract
singular
respectfully
unfam
annivers
##hehe
censoring
corresponding
subtle
##pppppppppppppppppppppppppppppppp
fingers
unoffic
##prickspricks
ei
hou
kra
tin
##rest
##oz
##та
##ilers
##ahn
bron
thankyou
generations
textbook
fewer
unblocking
composition
johnny
bulgaria
theatre
spokesman
dere
vista
##wl
therm
##oning
##usc
##ticism
ads
mayor
208
fairness
##fuckity
switzer
226
##spot
identification
asserted
neglect
1974
1976
flagged
samo
soldier
##hua
disappoint
parameters
defeated
adventure
encountered
compatible
fm
jag
pand
##god
##wich
##fish
##enna
##ication
isp
connot
##opedia
spare
mature
scat
curse
longest
norris
127
handling
trave
artific
homes
volt
essence
performing
542
adults
rabbit
oversight
unsupported
bisexual
laughing
211
7th
bart
bong
cn
kfuckity
##mies
##east
##vc
##tle
##si
##fir
##██
##anoy
##itudes
hem
##qual
##ribed
##iously
maur
endors
cuntbag
sciences
namespace
supertr
associate
norman
hopes
destroying
securityfuck
serbiafack
consequence
bleach
chairman
unencyclop
unfamiliar
कर
##0ll
##di
##wing
##hra
##கள
##ла
thro
discrimin
imposed
realised
holl
simpson
##hhh
sentiment
ballz
lightg
1985
focusing
gunner
enterpr
senator
collective
cards
rhine
columns
jefferson
ronald
goddned
remotely
unsubstant
guarantee
aint
kle
sond
torn
xbox
##town
##worthy
##مان
##αν
##isch
##stated
oral
wikitable
##akers
poem
mohammed
deletes
vegg
overr
brd
herald
154
178
sorted
wondered
buried
divisions
##ije
hammer
belgium
supplied
inconven
byzant
cord
mask
nint
sper
पर
##roly
##thanks
butter
une
##emen
noise
mann
attach
impressive
refusing
##ocracy
priest
1980s
billboard
1973
phrasing
activists
formerly
demonstrates
loaded
linguistics
disturbing
screenshot
cbs
og
pale
اس
##mind
##vision
##wp
##watch
##hem
##js
##onomy
##ori
##asant
anytime
warfare
genital
newsroom
kills
legs
lawyers
175
delanoy
ruining
absent
honour
periods
bulk
quebec
raping
pornography
trusted
##inois
lawsuit
contradicts
hanging
suffice
canvassing
liquid
switzerland
supertr0ll
bans
js
oi
ub
##course
##ben
##ثر
ine
wholly
shif
##ieved
manually
blues
definite
steam
terribly
135
barry
##oids
universally
illumin
austrian
afford
silent
rotten
crucial
screwed
implemented
birds
fallacy
attorney
ded
sque
##fi
##ில
##eral
##inating
beef
##uto
##etary
nel
##ogical
1920
crappy
este
streets
rebel
graphics
fortun
cherry
municipal
brackets
sloppy
ludicrous
dent
rit
ramp
##rane
##98
##کی
theorem
##alus
mega
reson
##aah
wayne
##xture
insurance
tits
steven
240
variant
horr
boyf
polls
##waii
talent
dissent
hunting
vehicles
gwen
orientation
dialects
sarcastic
rhetoric
unsubstantiated
fate
gulf
ivan
pi
py
sz
##كم
shove
wash
exter
evolved
205
206
presently
refuses
penns
norweg
judges
calvin
illinois
divine
earliest
investment
##iju
troubles
grandfather
collaborate
reversed
stalker
constructed
cuba
spectrum
increasingly
discredit
kashmir
vector
chiropractic
hm
lag
sed
ull
##atim
##sts
teeth
##ensible
indis
scored
blunt
neutr
217
equations
airlines
##engers
queer
randomly
bella
scrub
fleet
incredible
olympics
mystery
cinema
eve
kab
ltd
mik
rc
##ле
thy
youbo
bears
notably
trading
lover
blond
viewing
founding
drv
estate
illustration
pete
##heart
operated
excluding
homosexuals
beauty
youbollocks
ave
mamm
nih
oz
ue
yang
##gj
##لام
##از
##رو
##ancing
##leucyl
##eto
##etch
sugar
##aby
##ource
warren
brows
proto
119
demograph
staying
comparable
assessed
announcement
districts
survived
sincere
shocked
neighbour
filthy
abbrev
intuitive
lightgrey
a1
gordon
ib
lump
mfd
اما
##wat
##water
##те
##atar
##anim
forcing
##rod
shir
themes
reporter
listings
##adequ
##rued
courage
norway
171
ballsballs
programme
##world
##ladesh
flickr
anniversary
2c
heter
nur
##1t
##wan
##zami
##uits
##یین
##fn
inadequ
hawaii
stack
shield
##estyle
contempt
lecture
##udf
##osa
disclos
saudi
backlog
phill
flame
filip
objected
213
patro
dawn
debating
respectively
clarifying
horiz
conservatives
axis
adjective
stolen
credentials
sondra
ges
hipp
kay
mick
pard
pitt
ranks
دار
##vah
##kar
##ugg
##τη
##ching
alger
peak
lovers
##bean
10th
lawrence
229
patron
sandy
##ambling
##ietales
labelled
ga1
healthy
extraord
channels
coordinates
autobiography
veggietales
pennsylvania
aq
eug
gol
nix
yield
##eous
##sky
##bling
tow
stor
abol
ups
accred
indu
##verty
phoen
critique
metric
161
lovely
concernthanks
similarities
1969
filling
cruel
mutual
تعیین
incompetent
assyrian
testimony
8th
gmt
jour
uber
فى
##vn
##oly
##atly
##artic
wholes
##amy
poetry
##pel
##orts
pervert
personnel
belt
charity
producing
116
tested
##aneously
debut
254
males
initiated
samuel
colours
ambiguity
##namese
scheduled
scenes
statistical
fw
gg
ns
sansk
vas
yor
##93
##لك
##zing
##eded
inad
notation
orb
orch
choosing
##aint
trump
composed
##ensns
guilt
matrix
##ups
standings
funds
153
handful
131
brook
unbel
moderator
africans
destructive
venue
hinduism
##bourne
dramatic
sustain
finnish
kaz
##ml
##wik
##oqu
chin
##illion
exempt
##umps
amp
interven
stops
irr
raid
solo
227
renew
voters
entering
##ductive
measured
alexand
unwilling
adequately
carolina
navigation
spurious
kos
kenn
lip
otrs
vid
تو
##لم
##fro
##ता
##atable
##arthe
stake
##rov
poverty
trains
pejorative
repair
twel
cleans
afterno
invention
generate
ende
memo
155
opponent
milk
petition
representatives
physically
nyc
criminals
msn
juice
##huh
surviv
ancestryfuck
verbatim
vietnamese
shopping
autoblock
##وانین
speculative
metropolitan
incoherent
700
bw
cogn
nz
ves
بال
##rill
##nic
##bu
inex
reward
sham
##ieve
thereby
##arta
##plate
appoint
grab
copper
laur
counties
182
photographer
255
malleus
radiation
synops
creationism
legitim
mechanics
drinking
##dddddddddddddddd
rifle
##adelph
portrait
toilet
sanskrit
lanc
piano
tt
vacc
مر
##ean
##vol
##pri
##press
inner
##aring
notorious
wiktion
chand
moot
becu
##berts
##ultural
harris
skill
racists
damned
analog
preferable
motherfuckers
engineer
illustrates
jazz
admittedly
obsess
paraphrase
paradox
welcomed
aired
bce
df
nan
не
##ril
##cop
##bla
##aled
rebe
stores
deuts
shots
##ilton
agents
grass
apoll
242
222
absor
stayed
purple
1970s
capitalization
resolving
satisfies
licker
substitute
variations
abandoned
supremac
nintendo
tert
ws
##yo
##alt
##arth
##cker
asap
adhere
expensive
##iii
messagebox
antagon
132
glance
ethical
alongside
specialist
##force
propagand
##burn
freakin
condesc
customers
implication
extremist
prefix
satellite
encyclopedias
demographics
wiktionary
dre
danny
echo
hills
nhr
##43
##onna
toxic
aspx
##sect
shi
unim
##aky
mys
facing
agencies
##cile
backwards
worlds
##anne
sexually
producers
cleared
wikipedias
separately
1981
rocks
walter
1960
capitalized
hurra
tendentious
captions
evolutionary
ranked
annoyed
laughable
rumor
execution
homophobic
preserve
miscellany
jeremy
rhinehart
cun
wre
پیش
##num
##power
##во
amort
relatives
##eller
carr
1800
raul
passport
licence
1978
stubborn
benj
1948
taxes
dipshit
emotion
sieg
##celona
dilig
outrageous
unofficial
extraordinary
afternoon
flex
hating
vic
اخ
##گی
##aro
##ares
img
component
grind
pls
warranted
##actory
publicity
163
223
equality
nonsens
halo
philadelph
apparition
1983
punished
hosted
baggy
favourite
bangladesh
theoretical
monitoring
choices
baptist
relax
trademark
houston
dic
lanka
tens
tale
##rint
##aid
##track
##enz
stead
wikid
##dity
una
##mentioned
quo
##ivism
verbal
pertaining
##eee
desired
##grad
slur
controls
freem
kezami
nominator
##ylalanyl
thorpe
sweat
misunderstand
mathematic
molest
immigration
##jfas
fvckers
shithead
bunny
liverpool
becuase
ald
cable
jama
mk
xd
つam
##dor
##gal
##يم
##го
##orical
##ename
##ingo
stem
abilities
##lace
##odn
comma
desert
203
lobby
##duya
defended
revis
elvis
irony
killings
113
barcelona
shorts
objectivity
rocket
snip
##othy
naval
jumped
revolutionary
elementary
bradbury
holidays
chronology
##sydf
penalty
avenue
emergency
goddamn
symptoms
nhrhs
つameno
dys
herm
nh
wii
##да
##agjfas
##idfas
shed
unwar
adsydf
hass
truck
outstanding
##inews
guild
readable
gayer
gothic
carib
carries
117
colorado
16th
denomin
hye
burned
nazism
jealous
danish
##iusagjfas
crossed
touched
tolerate
injury
##giudf
persecution
hispanic
rescue
amortias
##duyaidfas
adsydfiusagjfas
##duyaidfasgiudf
crop
hinn
nfl
خود
قوانین
##hard
##pic
##το
orang
##irable
##angle
hereby
politely
goodness
gran
clip
warrior
misgu
researcher
surve
barb
craig
sounding
aims
dunno
##alalalalalalalalalalalalalalalal
##iciency
inflamm
nhrhs2010
adsydfiusagjfasfs
fas
foss
hick
ost
##vid
##penis
rever
##adays
##ulus
persians
preval
imperson
obl
regulations
marry
metres
awb
244
criticize
232
##sels
developments
masses
sanchez
beside
structures
encouraging
conversations
myths
patterns
##donald
kurt
reconst
napole
deeper
scrutiny
philadelphia
adsydfiusagjfasfsduyaidfasgiudf
aesth
dm
ears
elder
jas
lunch
masc
nj
ooooooooo
##gate
##hin
toky
reorgan
chor
atle
frigg
##leton
##arters
spark
elite
exped
guides
weezer
165
damaging
##appy
##ompson
gloss
mailing
motherfucking
1950
buddhist
pion
شما
##اح
##yd
##yas
##jb
tho
##erpt
##uty
##ctory
##ophobia
als
abu
subur
roster
##boys
config
carter
215
214
radius
potter
firefox
targets
beneficial
mosque
scenario
##rrrrrrrrrrrrrrrr
##yyyyyyyyyyyyyyyyyyyyyyyyyyyyyyyyyyyyyyyyyyyyyyyyyyyyyyyyyyyyyyyy
clinical
overlap
circuit
irrational
hugh
vin
##dam
##100
##که
thompson
##atus
anch
##areness
##aser
##opathy
shirt
wikinews
##ucky
##endum
##ques
griff
simult
##ahahah
misread
##enez
networks
naw
360
luke
dominant
advocates
jonas
arrogance
obligation
suspicion
enormous
norwegian
lav
nord
##zbo
##poke
##εν
##isk
arrow
delic
##ules
donald
infr
underground
##arek
##avia
autism
laz
##atherine
##archy
publishers
glor
hyphen
independently
afds
continuous
hindus
innov
panel
hahahahello
tajik
inhabit
antisemitism
restaurant
gandhi
franchise
endeav
apparition11
cer
eur
nf
تح
##gments
##fk
##oubt
##reb
beth
##igo
conj
dean
pock
##cca
usernames
overse
plausible
requiring
suckern
##ratic
##ructure
169
testament
21st
passages
delight
iranians
##warrior
inaccuracies
romans
disappeared
defamation
discipline
sarcasm
diamond
enthusias
suckernguyen
bone
cyn
cigar
nato
rising
umb
##ea
##cru
##pers
tha
thx
reich
##ulu
resur
##quest
intact
righteous
servers
formats
delta
mods
madyou
demonst
1939
turkeyfuck
premise
auch
wikilinks
demanding
sloven
categorization
pronounce
constructively
vaginas
preserved
##jjjjjjjj
vulgar
annex
refugees
cousin
subsid
bri
bread
dop
daddy
erect
ppl
بعد
##eb
##gie
##pat
##atis
##usa
##etr
confer
deleg
chal
resume
nowadays
afa
readily
informal
specifics
##neath
ruined
##umbled
denmark
practition
blogspot
madrid
capture
laden
appealing
meatp
surrender
delivery
pirates
evaluation
copyediting
unjustified
chadwick
fen
hag
jury
kb
pomp
rach
sang
tl
##بت
##ло
bele
conve
##chem
sox
##outs
##mented
feud
coc
underneath
offending
cheer
shitfuck
ideological
##faction
skull
passive
undelet
huura
conflicting
excerpt
omitted
imagination
integral
scrota
chaos
chronological
registration
saget
smooth
hyehuh
dac
##nv
##lings
##79
thru
##anza
##iden
##istle
##ouri
##pters
##berry
compens
##ictions
desperate
202
considerably
crank
proponents
debated
respectable
235
transliter
establishing
continuously
closest
1968
centralist
submitting
reveals
blindly
heroes
spellings
montreal
consumer
oriented
copyedit
rapidly
riots
thirty
ullmann
nonsensical
unwarranted
bnp
fg
gt
gmail
woo
και
ار
##cia
##ти
##قت
##reen
##chang
##stupid
unn
##unes
##unge
disk
discrep
beta
roc
monop
ipa
offices
1990s
promised
awareness
225
enjoys
walt
honesty
dictionaries
executed
affiliation
framework
monarchy
municipality
daneil
unencyclopedic
5h
gains
gdp
honey
jd
vatic
##nc
##b1
##τα
thou
thai
##rell
##eta
encom
##ulty
incap
concensus
carlos
demol
hardware
136
undoubt
exceptional
introductory
circular
horror
dancing
liking
machines
simpler
emphasize
gnaa
chapters
continental
balkan
isolated
paranoid
misguided
baker
nie
wc
##i7
##eed
##eba
##cles
##سان
##ना
##ிய
ree
##agh
##unct
##enders
wells
joking
##issance
secure
restoration
trials
faggotgay
buying
lolz
winds
##123
902
odds
employer
georgian
diagnos
concentration
charlie
pokemon
flesh
ritual
##frozen
aww
ih
jenn
mw
wisc
##zed
##πο
conject
usur
teleg
fee
spacing
reluct
twinkle
realm
crush
placement
reflection
mafia
argues
meth
directors
swango
143
humble
variable
typed
experimental
campbell
capitalism
observe
spotted
pedophilia
icons
##wwwwwwwwwwwwwwwwwwwwwwwwwwwwwwwwwwwwwwwwwwwwwwwwwwwwwwwwwwwwwwww
lebanese
occasional
twisted
restriction
wholesale
vatican
jake
mant
pupp
rt
##low
##pc
##ть
##antic
##vet
aster
alge
##osaur
desist
admits
genus
confess
##tsand
##hai
borderline
disrupting
1972
closure
retards
brave
substantive
lux
cardinal
sixt
saints
dinner
obsession
crusade
shithole
freemason
hut
tant
##eing
##vens
##tar
##kb
##zh
##72
##ری
##but
##block
##fv
##ль
##ims
neuro
chocol
goat
##alling
spider
clash
clark
fold
admission
##gged
geneal
roberts
##veland
reporters
tyr
geo
motive
homework
arabia
essjay
##ija
designation
cuis
voices
##foot
noob
telephone
bureau
creek
diversity
boyfriend
9000
aj
auss
sich
tes
tire
vamp
vtsand
wie
##rising
##gov
##де
thieves
##orous
ingr
prol
trigger
mans
spade
afro
191
clients
recur
scor
cream
revise
internationally
##asha
photography
childhood
moderate
collins
constitu
queens
graham
madonna
succession
basement
funded
pulling
discourse
mtv
insignific
disclaimer
journey
synopsis
jak
oo
vind
##تم
##ρο
inability
aston
##thre
sued
##estamp
##ulong
outlets
outlined
1900
offline
pharm
twin
##acted
rightly
cleveland
decre
158
trix
morris
14th
static
247
218
##oking
clicked
educate
excuses
confirming
preventing
philosopher
##iosity
loads
magnetic
feminist
interactions
convenient
sanctioned
harrassment
unbeliev
centraliststupid
0px
rings
sink
تا
##iya
##mother
##div
##cular
##gun
##kan
##68
##ви
theft
##arus
notifying
encyl
fuckshit
reserv
1918
attitudes
pledge
belive
##onduct
##ressing
defensive
##onsin
bash
schem
presidents
refusal
##shot
aparthe
181
swallow
compliment
diverse
hamilton
fascinating
julian
remarkable
ironically
oxymoron83
recreate
marxist
kannada
buddha
consciousness
enlighten
eagle
enhance
certificate
inflammatory
tokyo
apartheid
bert
diac
gad
golf
hitting
mitch
piet
sib
tir
ticket
vicious
venez
το
##rise
##away
##اف
##uously
##part
##ाल
##eday
inch
##ctic
stu
##olo
##ople
##rah
pruss
inflation
afore
marvel
memor
efficient
morgan
unspec
paed
devote
1977
italics
##ecd
footballer
embed
reinstate
gentle
chamber
revenue
##uuuuuuuuuuuuuuuuuuuuuuuuuuuuuuuuuuuuuuuuuuuuuuuuuuuuuuuuuuuuuuuu
nigeria
sacred
uranus
societies
tertiary
encompass
wisconsin
telegraph
diacrit
awhile
bones
liv
mh
mack
mund
nrh
rivers
sq
wann
##math
##egr
##hill
##hel
##bing
##കക
rebell
##uset
abund
verd
##itto
refres
insuff
thres
merch
157
mediawiki
228
skew
##nya
divide
naive
excited
liberation
hurts
catching
suspended
cookies
vacation
geek
exposure
saddam
challenging
ambassador
clothes
tabloid
tube
zomb
##rating
##nox
##itle
##reting
##othing
seats
##olar
##urn
ate
amended
sahar
relief
idol
##ceptions
defender
##versial
realistic
versa
rapper
restate
pasting
craft
identifies
affirm
boxing
planets
anglic
##forward
reduction
displays
premature
illustrated
athle
accomplished
ryulong
##xxxxxxxxxxxxxxxx
professionals
elephant
stewart
omega
relativity
##music
##horny
aaron
artificial
##pokepoke
hh
pony
voy
yup
τη
##tim
##kim
##obs
##enter
asht
##iko
styl
##igm
nepal
abroad
poet
##osit
monkeys
slash
directions
17th
projectors
deploy
profound
ignores
cuts
difficulties
castro
reducing
perspectives
integrated
reserved
hrv
jargon
variants
quran
colleges
celebrit
hornyhorny
orchest
apollo
benjamin
aur
dwar
dimin
gem
hs
lan
sony
ufc
##02
##mal
##lay
##یت
##ingen
toc
##arin
##idel
##ulary
allied
##elly
interwiki
scots
someday
mighty
understands
retained
swim
shortened
230
motha
الح
homepage
asserting
animation
croats
digest
juicy
fifa
strategic
manipulation
concentrate
privilege
purchase
##vvvvvvvv
unilaterally
digging
enterprise
bacon
ci
gong
tear
tub
ust
وی
##iq
##vy
##aq
##uq
##ouche
inject
##owa
##igs
##assy
clay
opens
bitter
blur
metall
badge
construed
252
colloqu
professors
1960s
hoped
determining
facilities
7492
fyrom
prisoners
gamal
feminism
misconception
##threony
gore
oc
ogg
tum
yay
اون
##tard
##bas
##ذا
thier
##itas
##oming
intol
##icking
foster
bios
entr
foundations
helloe
certified
disputing
creature
##ammy
##max
workshop
fights
##iji
tracking
approaches
sixth
oxy
slightest
rolls
plainly
walls
unnecessarily
##969
diseases
tolerance
marginal
scrotumcan
inadequate
bind
td
yad
##mend
##roux
##wit
##bast
##onom
sta
stim
##roe
##isto
welf
chase
abuses
interrupt
informing
parks
margar
sucker
refute
centr
cockeba
##ontin
daed
massach
fancy
cathed
hearts
audit
linear
##bags
parenth
dalton
bishonen
sector
attendance
franco
hijack
atlanta
eligible
aforementioned
celebrities
cockebaums
fs
gd
gs
java
lane
pyr
##mn
##يت
##jar
thug
##org
anem
##itary
##sea
stole
exile
##abilities
traged
intense
indul
goods
idio
explor
##ighth
rulers
promo
224
systematic
qualification
preferably
proposition
determination
faculty
implicit
comparisons
labeling
collected
##virgin
melbourne
unple
anarchism
bowl
injured
switched
##kkkkkkkkkkkkkkkkkkkkkkkkkkkkkkkkkkkkkkkkkkkkkkkkkkkkkkkkkkkkkkkk
##nnnnnnnnnnnnnnnnnnnnnnnnnnnnnnnnnnnnnnnnnnnnnnnnnnnnnnnnnnnnnnnn
kitten
cuisine
hp
ksh
lap
mn
mama
pedia
yer
##human
##ede
##esar
chan
choo
alike
wikipe
peac
outing
##ussion
spar
obnox
scand
marath
##zza
instruction
##beat
checks
expose
charter
12th
buzz
baron
fixes
motto
murray
##owski
##ueless
dirt
atheists
prominence
reminded
reinstated
##front
eggs
spoiler
diplomatic
encounter
embarrassing
unsuccess
brigade
shimgray
fratern
venezuel
welfare
dio
hond
rss
اثر
को
##wy
##ди
##asive
##igation
suited
shite
unlic
evol
consol
refering
blurb
biases
monument
flower
detract
centric
modification
ern
moronic
landing
globe
akin
rebutt
nerds
arrive
consumption
forbes
bernard
masturbation
unprotect
neutrally
##i7i7
insignificant
cass
rally
tast
wipe
##gister
##نی
##pher
##once
##orig
##isen
##ometry
meh
atroc
usable
eny
##rac
##uma
feces
assured
maker
courses
##iov
existent
missouri
ruleset
skip
unbal
remembered
contextual
illy
1940
designer
designated
catholicism
dutroux
implementation
باش
paraphrasing
antonio
nrhp
##usetts
unlicensed
b2
fanny
sap
viable
##bos
##far
##fast
##46
##നന
##شون
##idency
##amous
warri
loan
scam
putin
curt
mao
insin
logically
151
profanity
wax
ahmed
disagreeing
moments
palace
trek
straightforward
tribute
walker
kidna
boundary
galax
escap
distributed
axe
cluebot
acquired
josh
electricity
prepare
assignment
algorithm
qaeda
uncontro
algebra
unspecified
threshold
gamaliel
dign
gift
kud
pounds
اي
##gly
##wr
##zt
##bh
##isive
##lean
inactive
weed
fraction
##lproly
desper
robb
viewers
refact
carrier
objectively
urdu
ahmad
characteristic
computing
colleagues
##ommod
arbitr
dreams
duplicated
championships
phenomena
perceive
conquest
slimvirgin
succeeded
challenges
wikibreak
cancelled
anticip
massachusetts
dall
darn
ef
falk
fond
gale
mend
tent
vil
wag
wra
waves
او
##اس
##hat
##uum
tooth
##alike
fores
##ulk
mankind
betray
brick
marie
posters
schm
welcoming
correctness
drmies
##ashi
traits
uploader
appreciation
231
hybr
snake
rework
essays
naught
candy
##fgi
affects
examination
consequently
jayjg
grossly
coding
encyclopaedic
slavs
highlighted
immigrants
prospect
negoti
astrology
wmf
fwiw
twelve
condescending
idiocy
cj
dian
g1
kom
sf
yr
##crew
##inate
inches
ish
orbit
nem
neolog
chink
##abl
##arded
residence
cody
compound
parish
plug
plastic
##ggle
scripts
everytime
bases
hoe
insists
simpsons
thrust
leftist
221
##print
angels
##ungi
drivers
nearby
conservation
branches
disturbed
sovereignty
screaming
mediator
unverifiable
pregnant
murders
bt
bou
fib
kak
null
ou
sbs
vib
vlad
##rough
##kd
##jn
##rection
##roid
##isted
wikist
##osing
specially
spends
##cii
corro
textbooks
##clopedia
memories
11th
##ovan
249
238
malik
moderators
mentor
lowest
scientifically
1965
combine
##7777
disgu
flaws
hypothetical
raymond
tricky
##olololololololol
bridges
##ijuana
pardon
undoubtedly
cathedral
obnoxious
hers
kap
pes
حق
##53
##iom
##bly
##fag
##ες
##enet
##sett
sudan
##irc
##ulent
##pert
interior
boiler
curiosity
webster
descended
penn
productions
logos
headqu
167
mediter
finance
locate
translating
##ylglut
apologized
females
harassed
satisfaction
enforced
voluntary
reminds
mechanical
emotions
quantity
proxies
gathered
douglas
clerk
proclaimed
overlooked
phoenix
inadvert
chocolate
daedalus
cure
mest
rw
sna
tah
με
ای
##watt
tol
##isi
##ico
ina
##owed
chel
##ivals
theirs
##assion
aftermath
postings
boom
sheer
basics
provider
drastic
trail
terry
governing
الش
judicial
contexts
separat
characterization
possibilities
rationales
1971
continuity
##101
baiting
rapist
authorship
summarized
cabinet
libelous
misrepresentation
skeptical
inevitable
revelation
voltage
##firmed
nelson
incapable
warriors
jp
kas
kun
ling
pam
rah
rhod
sind
اع
##mans
##rations
##cj
##cut
##مل
##قع
##esian
##alism
##agin
##aders
##ipher
tricks
cole
accommod
paras
factory
##acular
differing
##anking
easter
milan
sucksgeorge
الس
judged
##heim
opposes
painful
prevented
mixing
motorcy
patriot
dp
lac
muss
pere
tfd
за
##gv
##يل
##oons
##ouver
anecd
##isole
forec
##tha
unch
canton
thereof
manners
##ubmit
subset
clueless
postal
redlink
happily
sexist
filing
verses
headsd
handy
noticing
similarity
volumes
snap
italians
casting
centered
hosting
hostility
peaceful
fascists
brainw
weakness
robinson
comprehend
distinguished
gibral
caucasian
appeals
infrast
unpleasant
headsdick
bail
gel
lah
lds
##lj
##kill
##не
##bitch
threw
abh
allum
donating
##elt
amer
disco
interface
grain
cluster
ours
valent
raises
clearing
stepped
241
creatures
hufgi
الب
truthful
austin
belonging
baba
licenses
insisted
advocating
permit
woods
customer
pirate
rico
##خخخخخخخخ
yankees
lithuanian
positively
initiative
jurisdiction
anemone
allumungi
2px
b4
fathers
vet
vian
##aic
##تي
##42
##ொ
##ही
itn
ariz
##ayan
chest
atomic
fuckheads
manning
components
admitting
brush
crude
penins
##nnis
meme
login
219
##amma
glen
234
developer
tabtab
economist
jerry
##strong
substantiate
increases
tourism
dominated
##otype
striking
savage
bombs
vowel
malaysia
concede
inspiration
byzantine
##ranean
pitts
##black
simultaneously
900
ding
lak
rib
##ais
reagan
whores
##sta
helic
exit
enable
noone
timing
##ormal
indent
autoc
deter
slam
separation
electoral
fallen
nerve
graduated
clutter
collapsed
jessica
storage
cleansing
caribbean
a3
berg
baha
ditto
gust
garn
het
ik
lest
nw
nach
rural
sisters
wool
##mons
##zes
##uorum
##bard
##67
##جود
##பப
##isition
converse
unlock
##abis
##empl
ama
knob
subhead
backs
believers
elit
fled
headers
organize
sketch
##text
##ophile
##ylon
participant
investigated
parker
navbox
recommendation
harmon
dialog
romance
angela
unfairly
unhappy
مسي
##employ
wikiquette
sperm
ape
bonds
density
frog
rants
wi
بین
का
##mony
##hite
##pen
##ισ
##oner
##icate
##igious
##sto
unemploy
knee
discount
assim
##bob
sheet
transm
tyler
126
fatuorum
lights
churchill
drives
##check
cypri
totalitarian
1941
##jaja
crossing
oliver
lucas
inquiry
##mmmmmmmmmmmmmmmm
alaska
mercury
##uyuyuyuyuyuyuyuyuyuyuyuyuyuyuyuyuyuyuyuyuyuyuyuyuyuyuyuyuyuyuyuy
tempted
cocaine
kshatri
bury
dah
ew
eager
gla
ji
kg
sop
مت
##rote
##aids
##وب
##──
##agic
butch
##abi
evans
spit
spong
reasoned
##ceptive
invis
##ugu
##web
terminal
ideally
retail
miserable
148
236
homer
fatal
developers
northwest
islamist
synonymous
academia
omn
hurry
sharon
printing
ladies
walked
shameful
motivations
measurement
helen
ranges
pleasant
celebrate
gathering
##zzzzzzzzzzzzzzzzzzzzzzzzzzzzzzzzzzzzzzzzzzzzzzzzzzzzzzzzzzzzzzzz
vacuum
promptly
indonesian
dependent
reworded
##ahahahahahahahahahahahahahahahahahaha
##tytytytytytytytytytytytytytytytytytytytytytytytytytytytytytytyty
evangelical
napoleon
inhabitants
conjecture
bench
css
hend
kate
nurs
pne
vanc
لا
কর
পর
##tin
##ων
isis
##entric
##rose
compelling
trout
perry
##aac
relies
belated
warrants
obso
regiment
##ords
irs
harrison
swing
entirety
patents
237
technologies
susan
1966
bailey
immense
juan
egyptians
attracted
tactic
composer
gibson
parliamentary
joshua
commitment
کنش
nicholas
coalition
unilateral
##الالالال
retirement
morocco
pompous
apt
jude
mj
mim
nest
ridd
sak
uz
κα
##62
##டு
##onn
anom
##utable
suits
##opes
melo
alab
enqu
veloc
backward
marijuana
colomb
elim
instantly
##aze
minus
morph
##atural
qualifications
illiterate
erasing
semen
enjoying
expectations
focuses
momentum
indiana
broadly
murderer
exclusion
campaigns
sharealike
competing
railroad
recreated
unprotected
vegetarian
atleast
embedded
dak
lenn
mish
nb
pagan
rj
ras
soooo
کش
##82
##qa
##يه
##lty
##anhero
##itably
belo
whis
stern
##sten
dood
chau
lex
uphold
##class
infact
desirable
penet
##tythew
accounting
13th
blacklist
246
urgent
occured
conviction
earthqu
animated
dublin
robin
pilots
vocab
cuban
prostitute
##iiiiiiiiiiiiiiiiiiiiiiiiiiiiiiii
subcateg
lenin
electrical
caval
unambiguous
bleachanhero
fortunately
##gistered
corrobor
vancouver
obsolete
777
dale
hk
ibn
kit
nac
oath
ral
sg
sore
vinc
##sed
##نای
##তে
##47
##ित
##طر
##ве
##گه
theological
consec
##chy
heated
aber
vern
compiled
interfer
subway
scul
##ails
pubmed
installed
##ella
transit
stealing
markup
planes
unregistered
1963
gladly
willingness
assistant
kingdoms
rebu
dominion
delayed
prevents
gravit
trimmed
##tttttttttttttttttttttttttttttttt
varying
unverified
owein
organsi
oxygen
tragedy
اثرات
enyclopedia
arbitrarily
##tythewhite
huff
lamb
mumb
njg
pbs
rage
rash
की
##03
##mand
##vals
##cott
##tv
##97
##wi
##zu
##যে
##ιν
##λλ
##alam
##omon
beware
##uter
ascii
##think
##ainted
##ifice
quad
##ivan
addiction
sphere
vegas
1912
grading
scary
##zzy
watson
distorted
245
243
systematically
damaged
glam
typos
holden
empir
1947
beaten
aidsaids
karma
crypt
supers
rejection
routes
congressional
iceland
wedding
magnitude
gamerg
evaluate
bigotry
jehovah
throat
heterosexual
insufficient
bj
cz
ect
fk
mop
nr
roth
tad
tiss
##gel
##اع
##blah
##function
theater
##onka
##oting
##chs
atm
##abs
##iffs
gob
##sole
remed
bobby
incivil
##avez
##ysen
americas
chrom
15th
easiest
##ammit
sounded
الان
##ylan
programm
rewrote
cyrus
finals
randy
capitalist
1949
interviewed
hillary
proceedings
sleeping
##ulsion
johann
derivative
##96t96t96t96t
##crapcrapcrapcrapcrapcrapcrapcrapcrapcrapcrapcrapcrapcrapcrapcrap
indirectly
brutal
galaxy
dallas
forecast
arizona
njgw
c0
nathan
tune
vile
wu
مح
##mart
##vest
##gary
##bf
##bach
##anz
##ethe
##adv
##imal
alice
##ounce
disorders
trends
prad
persia
interchange
attraction
idf
refere
raf
152
medals
authoritarian
complies
malay
##uka
##ahahahahahah
insertion
mentality
expressions
facility
battleground
1958
encourages
midnight
mislead
touching
recommendations
darkness
juven
hungry
guards
##words
hahahahaha
stereotypes
##cccccccccccccccccccccccccccccccc
disrespectful
##alogalogalogalogalogalogalogalogalogalogalogalogalogalogalogalog
seventh
libraries
divorce
scandin
vianello
9th
dl
ease
lamp
miley
να
بود
##05
##rik
##din
##pan
##কে
##دن
##icon
relying
whining
sunni
unst
##ulum
##lose
##uda
##oda
climb
##aco
scumb
##avian
##issions
syll
nevermind
mainland
caring
keys
respectful
glory
criticizing
equals
airpl
##appa
derka
deceased
shutup
pissing
demonstrating
occurring
insistence
flaw
rotation
survival
fantas
govt
kosova
miguel
inherent
mormons
housing
convenience
shouting
sympathetic
sponsored
condemn
oscar
provinces
accompan
nixon
unbalanced
scumbag
bd
bp
bis
bja
hired
iam
iphone
mens
pom
pyth
sas
vp
مق
##riment
##aver
##81
##kah
##zs
##jr
##bled
##xy
##μα
##தத
thorn
thunder
##escent
arise
sticks
##urally
expelled
exempl
##pell
disingen
leo
knife
infamous
coherent
intercourse
obit
colony
curve
legion
trap
euphem
falsehood
meetings
##cover
doubtful
counsel
sambo
splc
narc
bonus
1930
luis
nomine
massacres
switching
duration
sympathy
samples
tunnel
padam
abandon
venture
##llllllllllllllllllllllllllllllll
illuminati
supremacist
peacock
bjaodn
b5
gates
lips
lisa
ooo
osw
wounded
##week
##fol
##ذه
reop
##uta
##chw
shat
hast
peers
outer
##acles
##issa
blown
##atively
flip
turd
caul
controlling
numbered
trailer
passengers
modifications
soundtrack
monthly
glenn
superman
illogical
wouldnt
barnstars
investigating
psycho
traditionally
berry
tales
achievement
embassy
migration
azeri
cannabis
kyiv
balkans
prestigious
vigil
veteran
misconduct
chooses
mediterranean
infrastructure
bars
dank
dylan
ecc
eternal
jh
mg
pace
wings
да
ماده
##iens
##dia
##via
##lik
##lih
##اء
##ებ
##rella
##otal
asians
stom
##sted
hears
chavez
uneth
polem
fein
##ussed
##iggy
forming
singers
demo
solicit
businesses
##ijing
buttons
precision
##cientific
shoes
innings
collecting
examined
ww2
reinfor
mistakenly
assets
rudeness
endorsement
ceremony
marshall
chhetri
pocket
restatement
uncontroversial
hybrid
daedalus969
##wattwatt
cw
ion
lub
pwn
wich
zoo
##iology
##aire
##f2
##fere
##itated
##itious
##icable
reh
hawk
stones
shy
unm
verifying
readability
hadith
informations
overcome
brus
mariah
incarn
generals
messy
particle
bitchmat
##hoi
kindness
killers
populated
surge
armstrong
footage
billions
romantic
sara
battery
liberalism
##borough
firmly
withdrawn
inconsistency
prayer
prostitution
saxon
lynch
anatol
wiped
##timore
alabama
bitchmattythewhite
fist
rere
wage
wir
##ois
##zon
##zel
##یم
##base
beijing
whine
##uten
##owen
##chet
##child
hezbo
nev
unanim
##andi
dish
fucken
amanda
##izza
##berish
subdiv
belarus
##ibilities
eminem
bitchbitch
transcript
meters
centers
raja
behaving
studios
colored
terr
statue
prix
lineage
artistic
edwards
pressing
mentored
##portant
duties
lifestyle
msg
tonnes
##8888
objectionable
kurdistan
conquered
paintings
shaped
##writer
vendetta
protein
overseas
rebellion
cem
f1
lend
nth
nba
oed
pipe
pimp
rih
sizes
uw
yaaaa
zuck
##08
##iere
##mare
##matic
##dale
##pop
##وع
##leans
##othe
whale
ard
arsen
deck
chun
choc
noah
##acks
##ende
reprint
parody
##tte
clothing
worker
penny
lasted
definately
objecting
recordings
##attan
homeopathy
baltimore
ethnically
##bridge
settings
rubber
illegit
corporations
duplication
montana
dimension
fluid
kerry
belgian
catalan
esperanza
indiscr
legitimacy
dwarf
peninsula
hezbollah
cgi
lloyd
nomen
zen
zucker
اح
##lie
##anbul
##icut
##utor
arent
##illery
##ppe
sof
##unity
##ounced
disin
donations
spart
##ictive
emig
signatures
detriment
differentiate
1500
systemic
qualifier
##haw
operator
blanket
structured
degener
photoshop
compete
competent
territorial
canadians
functional
slee
customs
attractive
subsections
discredited
acceleration
ample
fossil
pittsburgh
helicop
vocabulary
gamergate
b3
dow
gj
hud
klan
lance
tally
vor
ко
جه
##mac
##kal
##ны
##bus
##fit
##6a
##िर
##ைய
##در
##esia
ank
##leave
##amation
doors
neat
##anto
##elf
##izable
discontin
grip
partners
defect
presidency
##bey
retal
opinionated
larouche
##ripadam
friendship
falun
differs
hyster
bloom
accessed
potato
1964
1950s
industries
draws
occupy
heights
revealing
discourage
azerbaijani
tibetan
chhetripadam
beleive
unbelievable
intoler
gibraltar
2f
bump
jk
kad
kitch
loo
دول
##gut
##keep
##pur
##كر
##τε
##ரு
toll
##imir
adress
leap
tran
amy
knox
##apedia
refered
impress
scra
genes
redne
britney
assumes
creators
armies
epith
denies
mills
diver
petro
baltic
shouldnt
associations
creationist
blahblah
optional
complexity
mirr
demanded
preparing
calculation
shocking
columbus
tedious
##egro
bryan
manufacturer
umbrella
margaret
elimination
bore
bact
ea
fern
hod
lb
omission
sut
ud
yard
yall
نم
نی
##icity
inert
##owitz
sult
orleans
gosh
somalia
blamed
refuted
propri
definit
urls
huggle
israelis
##ieth
strongest
purported
riding
asserts
duh
arranged
displaying
wikilaw
talib
##respons
istanbul
cornish
declaring
kirk
repetition
alfred
##1111111111111111111111111111111111111111111111111111111111111111
montenegro
ipods
bongwarrior
inconvenience
consolid
atrocities
accompanied
indiscrimin
dild
gng
gaga
hos
jaw
nm
nay
nuk
nbc
pont
pistol
ri
rent
yaaa
اش
##vd
##care
##keeper
##31
##ला
##inated
forty
arno
##iker
stumbled
##rock
hehe
##istss
comnu
##iller
editting
enabled
infect
needless
intermedi
interfere
##aca
##ailand
revoked
invaded
lapt
##ships
classify
geometry
debatable
cultiv
##serv
southeast
methodology
lengths
attributes
rhyth
mahar
arrival
mixture
maryland
cyclone
uncomfort
lithuania
holland
pyram
boilerplate
sculpt
rihanna
##istsscrew
comnuistsscrew
cking
cache
dive
eld
gm
nis
nerv
pct
tx
tension
vc
wack
##rina
##ght
##اش
##bone
##69
##38
##ோ
thailand
sung
dodo
unified
trigg
prelim
putabel
suckers
hellen
decor
ruler
socking
medrs
finite
profiles
selfish
privately
##33ers
1956
engineers
pedro
networking
colonies
aggression
bizn
zionism
##lahoma
mysterious
hawking
nl33ers
uncommon
##ahhahahah
agriculture
eugen
meatpuppet
rachel
##isoleucyl
caulfield
##lihood
unethical
putabelen
duk
wan
اج
##rand
##gard
##فت
##atio
##utation
degr
cheek
dism
##lett
aged
uprising
##ivo
pearl
##cio
subpages
overd
phi
admire
smarter
throne
personalities
proport
vio
slide
freud
calgary
semite
peters
breakdown
payment
grandmother
structural
grammatically
competitive
osama
virtue
aliens
neighb
prompted
jamie
astronom
recovery
##aaaaaaaaaaaaaaaaaaaaaaaaaaaaaaaaaaaaaaaaaaaaaaaaaaaaaaaaaaaaaaaaaaaaaaaaaaaaaaaaaaaaaaaaaaaaaaaaaaaaaaaaaaaaaaaaaaaaaaaaaaaaaaaa
dwyer
ethiopia
derek
disappointing
endorsed
filipino
unimportant
nfcc
lolzblack
naughty
invisible
arnold
lope
sill
##nan
##nut
##kom
##uates
##ptic
##61
anx
##icht
##aru
##ikh
##amine
shin
shes
chim
aborig
trin
##iality
remedy
commentators
elonka
redlinks
expense
oklahoma
evidenced
##anya
##oster
menu
palm
socialists
militant
rfar
nightmare
painted
1955
commerce
costa
cocksuckers
surviving
coul
opportunities
package
krish
siege
partisans
astronomy
protocols
infantry
routinely
superflu
recruit
##dfsdfsdfsdfs
demonstration
uncomfortable
80s
ayn
bour
lk
nash
zap
کی
##eon
##nj
##fess
##िन
##atism
##otion
bever
asper
hail
haahhahahah
console
##peg
##emic
##umber
##eland
##00z
curry
basque
refr
penispenis
mispla
demographic
swast
britt
organised
artillery
governmental
##apped
portland
الى
supern
illusion
##seryl
southwest
breakfast
##sterdam
tremend
##ascar
imaginary
martyr
companion
tourist
kao
categorized
gibberish
alphabetical
settlements
gilbert
##ssssssssssssssssssssssssssssssss
kentucky
wireless
unexpl
hierarchy
irritating
chorus
afaik
practitioners
diacritics
pradesh
disingenuous
b1
cis
dense
foo
gp
gum
mam
nak
puff
sess
tig
##cm
##ply
##fund
##onts
##atz
##isional
##idae
stored
##chr
exod
trinity
##cci
remix
manh
compuls
##ggy
##bold
webpages
smelly
monetary
antiqu
identities
characterized
interestingly
lightning
operational
castes
bottle
predicted
royalty
fagsgod
flights
calculated
prohibits
coordinator
sikhs
misrepresenting
immigrant
resignation
hydrogen
whitewash
oakland
colloquial
unsuccessful
juvenile
biznitch
aysen
duly
tier
ugh
کار
##mud
##cor
##woman
##يع
##lia
##bv
##ма
##τι
##यो
toys
toba
##alv
youleave
##otte
itunes
##entive
##etz
##storm
fract
alias
##aku
##ulator
disse
amsterdam
evasion
overha
regulation
blu
blink
##athelet
signals
strings
##ocation
flaming
thoughtful
carb
effic
popul
boris
##commun
253
##ophren
##obos
libya
archive1
1962
allegiance
##uffer
hatnote
targeting
##abbed
accidental
egreg
cheesei
fundamentalist
flew
cornwall
adjusted
gyps
inevitably
pashtuns
yadav
velocity
lopez
bav
dich
hj
madd
nort
pup
rou
tp
xxxxxxxxx
##nen
##walk
##kov
##him
##zilla
##ме
##دار
##anmar
token
##arine
##agua
dele
shank
neur
adoles
##unting
dongs
outlines
coins
##irection
1910
backst
serge
shepher
hollow
bothers
lasting
export
drinks
commonname
borough
##scribe
visits
##valyl
##uki
fanatic
omit
madison
reflecting
fisher
layer
sensational
goddess
homophobia
diagn
consulting
bullets
manufacturing
spoilers
portrayed
argentine
wikisource
farmers
raven
##history
##gregation
##oooooooooooooooooooooooooooooooooooooooooooooooooooooooooooooooo
##curry
مبنای
##gggggggggggggggggggggggggggggggg
nigggers
eddie
lodge
patrolling
doodle
4chan
binary
cull
catherine
dass
ia
kern
nate
rio
tou
tires
##07
##eus
##nom
##bank
##ци
##enh
##idal
hap
##sexual
stability
strive
##uration
freder
##ulates
bypass
##elic
evade
resent
coined
##lphen
guine
vegan
1915
referendum
##odies
imprison
bras
somal
defunct
makers
##anner
priests
##cule
necessity
primitive
##ieties
rena
precedence
michelle
##ancies
pedantic
satisfactory
employment
belliger
##colm
prominently
newcomer
manipulate
rogue
severely
creepy
stanford
shawn
bulgarians
chronicle
##currie
antisemitic
rexcurry
undermine
rabbitowen
obsessive
##arthy
wreck
anchor
mitchell
verdict
##threonyl
wikistalk
headquarters
misplaced
exodus
rabbitowenx
dz
gus
gag
gig
jee
nil
ufo
##mh
##riel
##yering
ana
##asg
rearr
##ikhoi
stages
##ados
##ols
chode
atom
##ppers
soil
whois
##arted
seeks
marines
confl
decency
mining
povs
missions
geoc
##atti
falcon
respects
eps
233
airline
camel
compliant
الق
##undi
##ippi
edin
hitch
snipp
neglig
hater
philosophers
enforcing
innocence
bleed
louisiana
institutional
dishonesty
stereotype
abdul
fulfill
arrangement
##bbbbbbbbbbbbbbbbbbbbbbbbbbbbbbbb
sacrifice
tornado
abbreviation
vincent
zuckerberg
kitchen
renaissance
dull
dann
duff
ig
mma
nim
niet
pw
تش
##lly
##kg
##big
##37
##че
##inum
thee
##atra
tomb
##icle
deaf
dose
shia
##isting
myanmar
thanx
##iche
prc
##ccc
##pling
##ensen
offical
parano
committing
registry
strang
ministers
probable
carey
funn
slant
deputy
breeds
bros
practiced
ballo
connecting
connecticut
bills
slaughter
birming
releasing
successor
contradicted
risks
screwing
injuries
unwanted
mandate
gentlty
gerard
teenage
teenagers
rabbi
tidy
bracket
corpse
unsubscribe
buddies
yoga
awaiting
manufacturers
montenegr
##aaaaaaaaabaaaaaaaaabaaaaaaaaabaaaaaaaaabaaaaaaaaabaaaaaaaaabaaaaaaaaabaaaaaaaaab
bubble
roof
predominantly
##cruft
diagnosis
##onomous
chelsea
superfluous
fow
fuss
fert
hull
lp
lens
nun
nhl
##vian
##cz
##wolf
##39
##كون
anonym
##asse
reun
shaw
poz
agnos
moss
peru
suburb
brend
bristol
simmons
rolled
##iba
considerations
##version
happiness
##velt
funk
distant
uploads
lessons
goof
loses
malcolm
burma
dias
##dfg
jesse
ridiculously
anonymously
combining
##afi
arguement
departure
350
harmony
##wauk
hallow
kenya
hacked
philippine
husse
highlights
stanley
rainbow
purchased
surprisingly
hydro
persuade
buffalo
##qualified
neologism
mumbai
oswald
nomencl
birmingham
bie
eine
fare
nes
ness
rode
sj
void
viva
کر
##mble
##del
##pol
##person
##ോ
##ωlin
##ωiki
iso
seper
unnot
##andrus
cans
##letes
##elin
amuse
whichever
##apolis
##bery
accum
attending
commie
deletionist
supplement
crist
continuation
smash
strat
fluff
irrespons
apoc
probation
vii
turner
cape
extinct
cockuser
demean
unsalv
mindless
mississ
organic
organiz
lololol
processing
erik
belonged
##obile
sanct
naωlin
queue
murphy
1942
departments
amazed
agendas
ancestor
aux
hacking
pseudonym
vastly
krist
altering
consuming
mandatory
mandarin
legendary
maliciously
hawai
stretched
##0000000000000000
prosecution
inhabited
reckon
khoikhoi
stroke
aristot
chocobos
naωlinωiki
ahh
cο
cog
eleg
hounding
jy
ks
kub
roose
tud
##count
##oks
##ᅡᆫ
##icles
whack
##amo
condom
sega
##imon
##ophobic
wikit
don´t
onepage
reset
rescu
coz
compilation
inclusive
##acht
boeing
inviting
retro
mercy
posed
bigoted
stepping
deprec
marking
sidebar
explanatory
affix
norms
declining
nights
conception
utah
##afat
1953
digit
warsaw
contradicting
revisionist
##gender
fortune
fifteen
measurements
broadcasting
intrig
rawat
overwhelmingly
rivalry
metaphys
##untcuntcuntcuntc
googling
diligence
griffin
aussie
recurring
explorer
sponge
beloved
preliminary
##fessional
##waukee
cοck
fis
gul
gast
iar
kot
lis
lung
rvv
sce
sway
tet
اب
نه
چون
گرف
##iets
##نده
##ystem
##bound
##inos
##esco
##iculous
insec
stri
chzz
polling
##kshire
##ivist
outlook
##anski
cliff
phy
twins
scal
bris
sinn
secrets
orgasm
founders
peni
avatar
careless
slice
drn
nationalities
stefan
craw
##scape
blofeld
destiny
interpreting
accuses
1961
hopeless
tender
initiate
rsn
listened
hosts
approaching
communicating
sensit
panic
integrate
scripture
comprehension
limitations
struggling
predictions
improperly
pregnancy
leaning
legislative
rajputs
transliteration
5000
bend
diab
etern
fp
fda
lm
och
rim
tna
zak
мо
اق
আম
##mund
##dc
##cano
##wo
##oft
##hots
##zx
##ми
##خص
thief
##inen
##onal
rear
aspir
faction
amn
1911
commend
mug
cheating
bitco
provision
provoke
supportive
irving
cared
carrot
displa
terri
depicted
milwaukee
bullies
effectiveness
homeless
pressed
operates
landed
treats
pussies
designs
koji
dyke
competence
macro
audi
cruft
roma
hacker
misrepresented
humorous
scouts
coaching
symph
barbara
multic
lunatic
عنوان
disclosure
deutsch
jennifer
wannabe
wikipeida
chauvin
earthquake
tobacco
70s
azz
aaaaaaaaaaaaa
dud
dhe
ix
muth
pine
sine
sane
هاي
##mate
##new
##kie
##oj
##मा
##inction
##only
beet
stfu
conver
defer
shake
enlar
contend
imbe
##isha
resigned
saves
compounds
gren
firms
##mmm
furn
hateful
triangle
humili
stevens
varieties
profits
239
operators
proofs
1943
1930s
forgetting
wheat
rendered
wwi
vocals
breeding
screenshots
eleven
habits
explosion
##rophe
semantic
travelling
esteem
rebuttal
##glycyl
desperately
negotiations
unsalvage
978
aaaaaaaaaaaaaaaaa
dk
dug
divid
ibm
kike
mab
pork
sans
wade
zur
हो
##nx
##jes
##bane
##ায
##وت
##वा
##aran
reiterate
##ente
stunt
##stan
##this
##olley
supr
doi
##uru
pose
worm
prag
timestamp
managers
##ensional
spher
clips
partn
heres
basing
symm
mai
agreements
pengu
unto
caut
funeral
misqu
famine
antandrus
missile
0000
storyline
malt
civilized
ps3
electro
fishing
observers
registering
pushers
compromised
osset
worrying
incompat
athens
correlation
correspondence
litigation
instruments
prosper
physicist
moldova
pierre
##prickspricksprickspricks
connotations
towers
expedition
monopoly
reluctant
##advant
stomach
unexplained
paranoia
3000
fitting
ferg
iirc
jain
liz
lup
rambling
مش
وان
##plete
##jam
##ffer
##icus
##arity
##omorph
beats
##idy
arafat
stif
##stalk
##imo
comed
unions
evading
resubmit
spelt
interim
##lished
issuing
blaming
schiz
smiling
decap
thrash
titanic
jewmax
mush
legends
harold
barrier
barrel
milton
##ophiles
boost
phrased
inappropri
beyonce
soviets
feeding
koreans
rounds
protesters
fansite
##rehensible
drove
olive
flowers
injustice
correl
dalmat
witnessed
alberta
condemned
razor
viking
##eeeeeeeeeeeeeeeeeeeeeeeeeeeeeeeeeeeeeeeeeeeeeeeeeeeeeeeeeeeeeeee
treasure
uefa
prevalent
illegitimate
intermediate
g11
guts
karn
lous
liable
ned
rp
rider
soup
wink
то
تر
کرد
##52
##ele
##rade
##1a
##lash
##ked
##uder
##ᅳᆫ
##ின
##ｄｄ
theolog
##oria
ans
reilly
hamp
dept
dob
##illes
sodom
##abil
##riv
##umer
leaf
co2
submissions
plato
desys
partition
##achi
speculations
particles
##odynam
transmission
caus
accepts
distortion
promises
individually
##lux
dogma
derp
derby
unreal
battal
##ughters
beneath
cros
##after
1938
1937
tribal
functioning
cartoons
finishing
storms
dimensions
nobility
sabot
anthropology
accomplishments
cameras
unprofessional
semantics
provocative
slovakia
kenneth
##changes
ralph
nthep
sultan
egregious
c3
cet
dhar
floyd
kang
natives
rats
soo
sized
tk
vince
بد
##04
##rics
##aan
##oot
##hit
##jm
##jas
##وز
##நத
##हा
##online
##eni
reloc
beam
begging
it´s
##roy
##americ
##iak
##opard
doe
hein
fright
unity
##andy
##rium
aggreg
upgr
##osity
cox
cohen
##enson
undergrad
clums
firing
warner
lobb
furry
certainty
headlines
freply
authorized
wished
geology
broch
##spang
debunk
renowned
semin
palmer
maths
jerks
richmond
1959
moses
foreigners
rejecting
illegally
torah
ashley
permitting
floating
athletes
electronics
ayden
telugu
hints
fabricated
thumbn
repetitive
unexpect
##ღ♥ღ♥ღ♥ღ♥ღ♥ღ♥ღ♥ღ♥
unicode
survivors
freemasonry
roosevelt
partnership
freplyspang
aja
dru
pf
pizza
wend
ware
yell
##09
##media
##nas
##lis
##pin
##bin
##free
theod
tod
##isse
##omed
##olous
como
##peak
##emu
node
disadvant
##elps
amph
quinn
prone
shoulder
##asts
coon
grows
obt
suppressed
laure
titan
untill
slanted
hardy
swat
buses
surnames
authored
patently
undes
ordering
sandwich
modest
waited
avoids
radar
household
##iables
##الم
murderers
favorable
reduces
hahahahahah
senses
nicknames
casp
gradually
##blue
voiced
mutually
converting
bhag
calculations
coordinate
pedophiles
recreation
transportation
substituted
emerged
franz
breasts
sophistic
archaeological
puzzled
wicked
reassess
rephrase
##fuckfuckfuckfuckfuckfuckfuckfuckfuckfuckfuckfuckfuckfuckfuckfuckfuckfuckfuckfuckfuckfuckfuckfuckfuckfuckfuckfuckfuckfuckfuckfuck
neglected
blonde
accreditation
دولت
rhythm
edinburgh
nomenclature
bick
gaining
giano
horm
jus
kath
malk
pav
qw
rust
vested
yak
كل
مج
##06
##mod
##eas
##vios
##tions
##gart
##will
##ني
##kel
##اص
##hm
##hur
##мо
##کر
toes
whistle
forens
asset
##vern
healing
shak
##ilo
nec
chee
chula
##oneone
##ogram
removals
spat
scrib
downtown
meter
metac
extr
violators
slurs
trium
organizing
filmography
qualities
epid
halft
gauge
thirdly
arbitrators
glob
suspects
shoe
settlers
harmless
oddly
drafted
melan
regulars
##blance
jeffrey
paraphrased
cowardly
ebay
exhibition
libertarianism
synonyms
lectures
induced
aesthetic
##ository
venezuela
desysop
bink
cinc
cena
gps
hire
mines
nast
ole
pant
sb
sve
sier
sits
tears
wond
და
##mill
##top
##nell
##lon
##bee
##ില
##ско
##തത
##ono
##encer
##icia
##arms
##idad
arama
stressed
artical
shang
atlas
##ourt
##ieu
allmusic
worn
leeds
##ouses
##quin
1914
pointers
##verted
regimes
colin
llama
smug
maint
##shell
valued
harper
##ription
##park
undelete
dawk
learnt
futile
capability
الج
catgut
##ophy
electrom
nao
nair
blps
entertaining
prede
foods
fastest
cruz
fears
apartment
mechanisms
nutrit
safely
preparation
mangina
##break
platinum
theoretically
dragged
physician
overtur
masonic
derivation
advisory
exaggerated
steady
stuart
entrance
frederick
mississippi
unsalvageably
gop
jj
rol
wif
wives
zoe
αν
##58
##eo
##cot
##uay
##سی
##xc
##이
##enos
##enberg
##enstein
##iton
##itance
isaac
arctic
##lda
stark
##iph
##dition
unequ
socially
myx
moh
##ishes
manson
##quer
grudge
##acion
scoring
herb
revival
messenger
##anni
tito
flop
fairy
norse
comeplete
blair
cafe
efficiency
buk
##faces
skim
skilled
unden
hype
الد
truths
magical
practicing
snide
colleague
fanboy
exciting
anthem
baghd
integration
##222
nicar
rumour
rumours
mccarthy
fifty
hoaxes
fraudulent
##holm
##aminyl
scouting
browse
newbies
wolves
reproduce
##hhhhhhhhhhhhhhhhhhhhhhhhhhhhhhhhhhhhhhhhhhhhhhhhhhhhhhhhhhhhhhhh
unintention
##isputed
bmw
discretionary
usurp
ingred
binding
laptop
bf
bere
ecl
gym
punt
rl
wound
xp
yale
zimb
نش
और
कि
##vable
##49
##ति
##ın
##eses
##omor
##iku
##urer
##ilib
unused
usenet
##abwe
##riages
apples
appalling
grid
##actic
contributes
bashing
autonomous
mete
extending
hari
keyn
daw
gameplay
millenn
uncalled
connolley
receives
destination
irrelev
performances
metalcore
##ونه
##777
banking
ordin
laughed
simplest
venom
##ورد
skinned
obscene
ecw
##ktor
prostitutes
##εις
clowns
diagrams
vowels
archaeology
electrons
##withstanding
confederate
accompany
succinct
rebekah
hughes
nawlin
delicious
discrepancy
puppy
swimming
arsenal
predecess
bamb
eighth
kie
ses
vap
про
صح
##mates
##dg
##lord
##kers
##urop
##وي
##info
##anche
##stor
##station
wikify
alumin
##ema
dong
whoops
manch
1919
recieved
twent
sins
cops
chech
##avi
schw
entre
crest
presley
bitching
transgender
carp
##ovsky
directing
surf
##paragin
passenger
greens
contacts
characterize
arena
specialists
wallace
activism
hurting
mcdonald
tribun
##ettes
##innati
parenthes
ottawa
temperatures
blowing
mudd
obliged
exhibit
prefers
reproduction
regretfully
##cules
مباح
bengal
cunning
revisit
suburban
tesla
schemes
zombie
ویژ
dignity
taliban
cautious
triumph
fier
gc
gim
gav
jm
keeper
namb
pensns
tj
tfa
vish
ка
فر
##mination
##rates
##vp
##tra
##hc
##লে
##bomb
##تى
##াদ
##چه
##ᅡᆼ
##ombo
##utical
##olith
heir
##ilio
friv
frick
canal
therein
ima
someones
##arte
##inda
##uba
interference
phuq
incest
starters
syl
reflist
pennnis
possession
##ographies
varies
deport
daughters
unbl
glaring
الك
judgments
dravid
diary
eyed
michel
battlefield
lucy
flav
nicer
launching
pursuing
gentleman
suffix
natal
##uzel
emerging
nitp
molecular
##nniensns
gratuit
##3333333333333333
kumar
bruno
##dorf
enthusiasm
fraternity
pneis
کشور
overhaul
hawaiian
caspian
مباحث
pensnsnniensns
pensnsnniensnsn
bard
fog
gf
iber
kicks
nish
pian
sip
во
ра
وم
##nist
##hum
##uar
##jack
##جب
ink
##lli
##usional
##owing
ariel
stall
##adic
seash
deception
heath
shark
choms
unread
adverse
##emike
therefuck
##umen
leak
moi
prank
##ivoc
##ongs
interval
userpages
relay
parade
phar
##acts
believer
faggeorge
monsters
playground
muscle
setup
detailing
variables
ski
artif
eurovision
الله
bullied
closet
translates
##heard
##انه
circulation
landmark
horribly
deserving
consisted
sunrise
1946
utility
pusher
dominate
dictate
kicking
##encia
forthcoming
hunger
burnt
reserves
katrina
uninformed
approxim
dragons
adventures
vulner
patriotic
linda
disprove
scattered
mascul
unnamed
##lprolyl
nervous
swastika
aaaaaaaaaaaaaaaa
aaaaaaaaaaaaaaaaaaaaaaaaaaaaa
cincinnati
dawkins
zimbabwe
cattle
dorm
dup
hir
lig
mf
ming
oy
zach
بط
##0r
##mens
##mins
##gk
##فر
##bred
##fil
##onder
##ications
notwithstanding
##ayer
##irv
wikified
##ilated
##oool
fry
unres
sod
poems
hasty
appla
gras
twil
provisional
stripped
downright
solving
traced
stephan
##fax
pastor
estonia
filming
denver
##ahahahahah
lightly
romanians
republics
rapes
bolded
pornographic
approached
doctr
conducting
railpage
summarizing
transformation
espn
telefund
tipto
ninth
descendant
gregory
exposing
multiples
tickets
##ffffffffffffffffffffffffffffffff
gesture
dolph
cursory
maurit
encylopedia
anglican
hrvats
honda
gravitational
airplane
hearsay
dildo
parentheses
bike
cough
dressed
ez
fn
fad
gly
kah
kett
rms
tread
vain
zer
زمان
هر
يک
जा
##199
##gence
##gio
##zone
##jad
##fting
ange
##rea
##lys
##oline
chola
frowned
ally
adrian
##abo
mocking
upgrade
##pless
inflict
intending
disclose
commentator
belle
itsuck
joan
curation
provisions
realy
goth
extinction
morality
ballot
modifying
capac
blogger
malta
burns
validate
eventual
##ylum
volcano
snakes
ceased
australians
graff
tennes
teaches
garage
sporting
faulty
synthes
munich
athlete
relevent
##criptions
vaguely
##یری
prohibit
rodrig
forbid
analysts
grove
bucket
skeptic
laser
embarrassment
tackle
emotionally
tireless
metallica
cavalry
unstable
reread
##6aew
manhattan
spongebob
schizophren
lousy
halftime
twilight
bip
joss
kane
mint
nable
pend
tg
tul
tamp
tract
vla
wic
yemen
اول
##mr
##ezy
##vine
##aired
##len
##pse
##bat
##री
##ον
##ார
##صر
##ᅡᄅ
##ᅧᆼ
bett
##lll
##utz
ary
##chair
sebast
##estone
wikif
##ifug
pointer
moan
outcom
veracity
guests
grief
phelps
speculate
2016
olds
certification
racially
##ovo
antiv
handic
bigfoot
##inski
fuller
armor
qualifying
denig
artwork
##queen
legality
tenure
cooling
negatively
1957
familiarize
gonz
healthcare
##etti
affecting
cruise
faults
prevention
redundancy
gwern
suffers
##ние
mongols
squadron
marcus
canonical
persecuted
bureaucrats
treasury
provincial
##watson
horizont
mestiz
kshatriya
hussein
inappropriately
clumsy
seashell
678
90s
980
igor
iowa
lj
nk
nude
rises
zip
جم
##ienced
##nf
##يش
##2me
##jer
##jim
##ру
##bird
##रा
##ος
##orate
inference
##omes
thatcher
arvan
stig
##olph
##url
mein
chips
##akt
nova
##elcome
fucktard
prud
##ouge
##asters
##fff
spots
##ciation
1923
##asser
plas
scrap
claud
formulation
generating
maiden
messiah
stranger
farming
vienna
pops
europ
bandw
culturally
waldorf
##baugh
jamesb
karen
walks
rotating
zeit
colonel
venues
persistently
spells
rendering
ranging
eliminating
bishops
manipulated
hahahaha
sequel
kerala
gazette
loosely
moldovan
wealthy
rhetorical
sweeping
agricultural
guerr
extermin
vaccine
surveys
nordic
compensation
skewed
halloween
ویژگی
unblanking
chomsky
dung
kite
oder
rosen
sarek
wart
womb
xy
ви
اد
بل
حال
##mith
##rust
##قي
##fight
##டட
##არ
##atan
##alore
anders
notions
##etto
dell
deceptive
shud
unification
abdu
soc
##people
##riers
impe
disbel
##umi
##cling
infection
maya
consens
complement
1917
recy
backup
phones
loading
brag
##boot
joel
webc
hoff
##cyclopedia
jewel
existance
disprop
promising
statute
shorten
marker
airing
الذ
usefulness
holders
holmes
##obia
eaten
grawp
matching
ili
1954
taxonomy
circumvent
##امل
freaks
brotherhood
##abbing
saturn
intellectually
pursuit
kissing
coastal
downloaded
manufactured
skeptics
dummy
gabriel
mp3
incompetence
abbrevi
sneaky
nytimes
distracting
connotation
yorkshire
carrots
reconstruction
friggen
inadvertently
unchanged
مسيول
mirrors
irresponsible
nableezy
jamesbwatson
3f
aunt
bhar
hin
luk
lakes
sreb
tis
uv
ادم
یک
##oa
##کل
anach
##otive
##idently
astr
hai
haunt
##section
sting
##that
alison
soll
##ifa
poke
##rav
##umble
amen
##ianism
##uez
spears
coe
cob
sai
spont
parrot
plac
herbert
botany
instig
sentiments
harvey
ante
swain
meditation
purge
delusional
pairs
criticised
jungle
limiting
momma
peta
specialized
absolut
deadly
circa
slapped
reaches
sociology
farted
villain
selectively
mouths
bollywood
bombings
ramd
linguist
برای
acknowledging
composers
consulted
##logical
concentrated
ranting
rewording
fabrication
salvador
reckless
celebration
misinterpreted
##pppppppppppppppppppppppppppppppppppppppppppppppppppppppppppppppp
resonance
browsing
inexper
##alalalalalalalalalalalalalalalalalalalalalalalalalalalalalalalal
jasen
delighted
vampire
kudos
indiscriminate
aristotle
bitcoin
brochure
outcomes
fot
fug
jw
lur
nsa
pond
piggy
για
του
بخ
فع
##mag
##rist
##green
##jdf
##job
##سم
##گر
##се
##сь
##inth
##atting
##orable
##itan
##itating
##ische
##armed
##chin
##sty
##stern
hex
shore
compelled
neph
chu
chol
enigm
##unc
nos
justifies
modu
##oshi
pear
sao
commas
obey
admi
thankfully
blas
provoked
bien
realms
maz
flc
ideals
retros
sworn
geograph
patch
powered
faithful
capitals
##renica
diat
apologist
deadline
##backs
creationists
constituted
treatments
bened
disambiguate
fundra
##9999
achieving
lords
gangs
##holder
novice
praised
prisoner
categorize
blew
honorary
oriental
airports
slanderous
ricky
retrieve
whitman
knights
armeniaaaaa
frozen
smackdown
cotton
override
brooklyn
vindictive
fantasies
diaspor
hampshire
tennessee
bicy
gaps
gamb
hmmmm
jest
kem
pans
sends
saga
uy
vod
تن
##ely
##say
##بد
##يات
##last
##uke
##سي
##যা
##до
##argin
##reet
hamb
##chron
shal
##iland
chains
frances
##emost
donate
likelihood
leaked
pecul
outlet
timothy
tezza
coh
newest
needlessly
spree
spray
imposing
recol
overth
scanned
##avis
copyvios
##onscious
confuses
bihar
generous
insurg
antar
locals
undisputed
armour
brock
##spring
equate
mommy
snark
readership
bait
##bras
ukrainians
voluntarily
galile
ferry
dimensional
sectarian
guitarist
syriac
breathing
ncaa
ninja
authenticity
fetish
revolt
supremacy
metaphor
lennon
tissue
supernatural
گرفته
sierra
bac
cac
elo
ejac
hed
kell
lions
ramb
vu
viv
##mel
##elo
##upt
##pi
##bett
##िक
##ше
insect
##asis
##users
##ady
seized
seeds
chunk
##raf
mohammad
##ccan
coord
spammer
mater
maturity
##itters
beforehand
blessed
viewer
##ropy
##111
latino
caesar
seth
##spin
goose
##oku
gaelic
radi
invested
irreg
babel
spani
##aux
1952
bolsh
talmud
illustrations
inventor
completing
embra
dedication
##olds
embarass
banners
theorists
diesel
mongolia
platforms
cannon
nouns
owen
tajin
##qqqq
confronted
unsuitable
bachel
##opathic
bronze
perverted
intervene
pione
empirical
##service
baghdad
nawlinwiki
frivolous
srebrenica
anachron
ls
lighter
utf
yen
না
##vm
##vb
##lk
##yb
##бо
##же
##ლი
##onies
##orized
##ischen
##leum
##asht
android
##llor
##utors
foremost
arose
##aye
##roach
sull
doo
heaton
chasing
alg
##abling
##ifiers
leagues
##lave
outr
infected
tek
intensity
conson
conscience
##ribes
compr
spout
repository
relent
subspe
cline
suppression
hiya
##keit
flour
flames
##ernal
detected
drake
mediate
historiography
geoff
daiki
glorious
capit
trophy
janet
recognizes
angles
jez
rockets
availability
rfd
babylon
reportedly
journalistic
##hrer
immune
pissfuck
protestants
##hjhj
cruc
nicole
kenny
reminding
slogan
##456
contracts
traveling
wrestler
##ospher
victorian
highlighting
kuru
monarchs
tortured
superiority
coincident
swearing
bureaucracy
sikhism
giants
cousins
restaurants
architectural
uncertainty
##grav
hemis
attachment
مردم
jamaica
glossary
foreskin
redneck
tiresome
battalion
ajax
aramaic
bion
hale
hedge
jpeg
kut
kaf
nsw
pact
snot
uck
wur
zam
##iors
##rans
##dj
##aved
##cill
##q6aew
##نگ
##lies
##kit
##فع
##hook
##uo
##قل
##ிற
##anese
tok
inane
##ctor
##idi
haar
stun
seals
##opy
chir
unav
sob
advers
##ortal
##eli
fucka
##ishi
##iven
spencer
underway
fires
##acious
phant
brands
topical
revising
redirection
blade
gayfrozen
subjected
flies
viii
typh
watts
restruct
oppression
##ashire
generalized
steph
glitch
criticise
guessed
edie
ethan
quicker
cyrill
##ommand
##ihu
hugely
traded
substantiated
plea
batch
shameless
bags
freakbos
suspension
براي
dismissing
prohibition
##minster
cherok
liberties
advantages
charlotte
harrassing
masturbating
adapted
resembles
hijacked
veterans
psychiatry
wesley
browsers
phillips
lancashire
تحت
##helm
melod
detrimental
wikilawyering
pyramid
reassessment
kettle
module
retrospect
hemisphere
freakbosisto
1rr
3a
8hi
ced
dammit
hank
jc
jah
kod
lank
litter
vh
zy
τα
та
خوا
##ei
##vich
##gam
##lus
##pyr
##fied
##كن
##га
##oust
##ician
whim
whales
##amyl
##chn
##thread
suk
sums
hee
##urities
nostr
talk2me
##eling
howdy
##oslo
evan
##endra
append
coven
precl
##otherap
sincer
biting
owning
colbert
colombo
acup
minist
dispos
swan
surreal
goverment
depiction
banana
##atto
honored
motors
##oka
erm
ergo
psy
vaginal
rocky
associates
potd
##ascal
youngest
uguuuu
haters
discoveries
distinctions
conditional
1935
lawsuits
##guard
disappro
tamils
presumed
converts
encouragement
implementing
reacted
dunge
flyer
bradley
teenager
intrusive
skepticism
anatomy
admiral
##████
##osaurs
sniper
reconstruct
conjunction
orchestra
colombia
chromos
coulter
sessions
guinea
anonymity
ossetia
sophisticated
meteor
tribunal
disproportion
peculiar
cherokee
diana
gadd
jfk
rpg
tard
wander
##city
##qw
##lat
##has
##uld
##pub
##jen
##jet
##journ
##راي
##bad
##ான
##си
##شر
##oras
recept
##olig
chlor
##rived
disability
tram
##plan
discern
induct
##ahu
griev
##oding
clad
scales
marco
##bek
minut
flux
restrain
harbor
solomon
dealer
damages
catast
##ophilia
responds
oneself
documenting
cycles
despicable
baff
excludes
karab
digits
rubin
weaker
revisionism
advocated
rooms
##castle
linguists
##fjfj
nominal
surrounded
celebrated
inherited
hospitals
feminine
adjustments
physicists
detective
resorting
chronicles
bureaucratic
sneak
numerical
psychiatric
##ometric
dedu
renewed
survivor
##yyyyyyyyyyyyyyyyyyyyyyyyyyyyyyyyyyyyyyyyyyyyyyyyyyyyyyyyyyyyyyyyyyyyyyyyyyyyyyyyyyyyyyyyyyyyyyyyyyyyyyyyyyyyyyyyyyyyyyyyyyyyyyyy
prussia
parenthetical
##stoots
consecutive
benedict
diaspora
5uck
ebon
jin
jat
jug
lv
mash
midd
plo
rene
viz
wore
ده
دو
سيا
غیر
##59
##mu
##eu
##cester
##zie
##pow
##pical
##fin
##ερ
##وه
##ती
##пе
##αρ
##onne
##alds
bees
##chman
unquest
##essa
##ulz
enrich
feas
accidents
perv
##sson
commands
obf
mull
postp
gayfag
presc
monte
expire
sentenced
archaic
indicator
##amba
futur
millen
eds
lacked
burial
affir
##limited
arabian
landscape
halfway
boycott
drivel
shuttle
##ascript
cropped
comparative
layers
conservatism
mcm
protesting
reversing
lifting
bankrupt
boliv
duncan
travels
rogers
##bourg
lynn
distinguishing
laboratory
diplomat
withdrawal
andrea
ceremon
##uddin
unicorn
pioneer
motorcycle
cantonese
vernacular
python
mutha
penguin
thumbnail
tiptoety
irregular
60s
bord
cage
cyl
cows
hath
hulk
kla
mia
nn
ngo
pn
rg
rin
sss
sida
се
لل
##aus
##cro
##tor
##topic
##girl
##lists
##kant
##িক
##esa
##itus
##iso
##arc
bean
notifications
##idt
stems
##verb
dole
shaba
##esting
alarm
unix
##ulative
worsh
leh
##sos
##plus
feather
##ussions
##ookie
coy
compact
indie
grump
plots
mates
genetically
autof
bih
instinct
insanity
propog
##ools
drift
numbering
politcal
##eney
cults
loloool
urine
occult
aligned
respecting
fatty
bullsh
bordering
expectation
winston
recognizing
##hey
eyew
northeast
duch
arbitrator
determin
##brand
grande
khal
midwest
lowercase
collections
premium
premiere
brandon
unpop
anarcho
dreamguy
tamper
cooperative
##franks
brady
excessively
cornell
marxism
conveniently
##enthal
mormonism
isolation
adjectives
miscellaneous
suspicions
sacrific
unintended
##articles
mathematicians
hassan
windsor
athletic
ashton
cypriots
dakota
petroleum
brisbane
##eastern
enigmaman
subspecies
cyrillic
cus
dag
dart
fj
fb1
kamp
lt
pause
sask
tz
witt
تغ
هذه
##marks
##rons
##corn
##1ght
##kam
##zd
##yu
##বে
thi
##inging
##itness
andhra
##sely
stip
##iman
shan
moons
##ongo
safer
spics
preten
grunge
##odes
##odia
obese
regrett
ops
##zzo
blows
autonomy
signify
##avel
transcription
highways
cuntfranks
##ovich
publishes
eachother
organisms
sands
الن
الخ
jung
limbaugh
##انی
##oba
satanic
pays
firearms
paths
mails
ako
##apel
rejects
tours
cowards
direktor
talented
permits
procedural
babywhat
##boro
hangon
##weller
exams
incorporating
spawn
conquer
extremists
podcast
cosmic
instrumental
vandil
##nbkj
##lemania
d0wn
poisoning
transcripts
superficial
prevailing
await
rabid
javascript
phillip
horizon
algeria
undeletion
5hut
5h1t
stylistic
باشد
c0pyr
brussels
shepherd
eternity
decapitate
wonders
abbreviations
5uck5
obfusc
c0pyr1ght
ces
cort
couch
dres
dana
fence
gat
gle
jab
kant
muck
mard
oj
rope
ripped
sot
s1t
tatt
vad
wak
waa
yelling
مخ
مث
##ecy
##eenth
##rag
##lol
##lier
##hf
##িন
##وش
##ᅳᆯ
##ολ
##ாக
##ση
##□□
##isim
##asparagin
reper
isot
wht
aswell
##thal
shitt
shops
##urai
meyer
atro
adela
imma
justifying
tragic
aggrav
managing
wrist
backlash
##acter
marriages
sheesh
##beck
maine
lasts
farce
##yyy
esot
improves
varied
yeh
tau
failures
troop
##oken
repeats
translator
uncover
lighting
connor
emplo
couples
fancruft
taboo
destinations
voter
investors
performers
luckily
garcia
squir
imagined
wikimania
array
mcg
competitions
1936
drafts
assessing
wildlife
altitude
1905
##holders
henri
santos
dinosaur
crackpot
distinctive
##roller
creep
elliot
crashed
navigate
geneva
cycling
ponder
##ogenic
intimidate
subscribe
recipient
catalogue
announcements
squeak
rampant
##article
sustainable
msnbc
cognitive
##dddddddddddddddddddddddddddddddd
absorbed
suburbs
tajiks
##pokepokepokepoke
deployed
ernest
silliness
bickering
##ilibrium
bolshev
karabakh
s1t35
7e
bk
cb
cma
dork
ged
lama
nje
oss
pist
rouge
tink
zoro
при
تم
##iub
##nar
##know
##zg
##zig
##ضا
##دي
##atal
##itant
##usche
##ithms
neon
abram
##uli
##riends
worms
disservice
ampl
agu
##allows
outbreak
perc
vein
1922
grades
subgen
clone
wellington
wrt
overre
betac
adminst
##bole
specifying
##issy
rede
shower
wikih
laura
##athe
curric
##hhew
stupidest
protagon
demi
traff
stef
stein
##uffle
barrett
depressed
airways
humanitarian
bulldo
burst
empires
tabs
davies
walmart
starring
virg
babe
##linary
shallow
##airs
resolutions
birthplace
broadway
couldnt
measuring
occurrence
prediction
macdonald
licking
summarise
##john
##kjbn
proceeded
magnet
sells
acknowledges
casualty
1867
gerald
inconsistencies
hazara
##ния
styled
##riche
tangential
bomber
recovered
assyrians
puzzle
tapes
whitewashing
unambiguously
hannah
hugo
mathematician
configuration
afrocent
pietriche
athletics
sbs6
polemic
cemet
disinformation
retaliation
aboriginal
diagnosed
agnostic
amnesty
incompatible
unreadable
##ospheric
ebonics
elf
gigg
hid
io
ooh
papa
uf
vg
wathelet
yum
yel
ybm
zum
zzzzzzzzzzzzzzzzzzzzzzzzzzzzzzzzzzzzzzzzzzzzzzzzzzzzzzzzzzzzzzzzz
до
из
रा
##map
##rab
##wind
##kog
##71
##yar
##سب
##bid
##bol
##bug
##63
##ски
##eny
##ione
reint
onus
##utic
##agi
##igi
##etric
##adors
##stuff
wears
##iran
therefor
##unth
##love
##elia
leic
trillion
verry
vermont
newcastle
compassion
vehe
grants
clique
mathhew
commited
warred
idle
muz
inclination
somer
marit
##upiter
cork
exploration
emblem
invading
realizing
hoc
hobb
inscriptions
farms
evidences
constrain
swine
christina
locom
tao
honours
complains
superpower
visually
##ophys
ridge
servant
derive
horrid
barney
closes
deceit
madness
troubled
frontier
remainder
behaviors
assisted
msm
انها
thomson
adopting
pollution
symbolic
appealed
inventions
wildly
categorisation
pilgr
wrestlemania
contempor
sigma
tunis
tweak
##anteed
bryant
gospels
misconceptions
refugee
passionate
##کنه
adherents
pashtun
wikiquote
jurisdictions
shifted
enthusiastic
resurrect
conferences
prolific
huffington
hudson
astronomical
nietzs
balloon
obtuse
صحبت
##olithic
consensual
فعال
vehement
dit
dame
dots
fidel
gta
iw
kop
mcl
ocd
picks
rican
wb
نظ
##wig
##wald
##41
##eson
##isy
##amus
deity
##opl
heap
##urf
##ershire
##ilkins
meal
chen
chalk
frames
unqualified
adul
##raj
disqual
donated
##ichi
tril
ammun
evac
##quis
##berger
##ickers
accents
##ensis
spino
attain
##reating
##xton
mugh
##boat
specious
revamp
confined
emily
laund
webmaster
decay
insider
inspect
farmer
standpoint
aviv
distances
trav
trait
brew
unders
daft
##ammers
visa
burke
##ungen
devast
synd
punitive
##oxox
nairs
lieuten
trustworthy
martine
##flow
souls
sarf
intentioned
judgements
dari
##affe
robots
latinus
scriptures
##door
fuzzy
anarchy
celest
consumers
evaluating
obligations
festivals
cannibal
embarrassed
guaranteed
##ahahahahahahahahahahahahahahahahahahahahahahahahahahahahahahahah
##writing
cosmology
hoover
explosive
exhausted
pixels
klein
appointment
sweaty
##nvh
tyranny
gentlemen
tastes
brainwashed
nursing
obituary
unanimous
proportional
krishna
tremendous
##lphenylalanyl
geocities
lobbying
maintains
betacommand
cemetery
nietzsche
cind
ech
eco
fay
hinder
miz
ols
piot
ria
sabb
tf
tasty
u2
urug
wot
wand
xud
بگ
چه
##maker
##eys
##dar
##tu
##nick
##2000
##yon
##ثير
##icol
##ref
betty
##agiri
asi
##ayou
##ayne
##amundi
##adin
##stra
shorth
##urate
weld
##akan
##hte
lexic
tru
quasi
##apo
##izers
covert
##into
relied
brass
sheff
emissions
autistic
generator
maher
proponent
##ledon
transp
guided
grouping
backgrounds
##parents
wikipedi
denote
waff
figuring
burg
clarifications
originate
conclusive
walsh
conceptual
fooled
hopkins
traders
##baum
garrison
##cientist
crosses
1951
submarine
extrapol
ensuring
tourists
instructed
strangely
1929
ranger
##ilingual
prophecy
dynamics
strawman
##сто
insights
dumped
sustained
##desk
mlb
divorced
##agnetic
orbital
cigarette
centrifug
##i7i7i7i7
kidnapped
haplo
apocaly
sensitivity
maltese
undergraduate
forensic
extraneous
jossi
9807
ammunition
2d
bret
i´
luna
mice
meng
munch
pall
rut
rite
rack
tand
tide
wk
wom
wield
yada
yards
اير
دي
ساز
لان
پر
##rical
##card
##nal
##lə
##lest
##اخ
##obox
##تب
##تح
##found
##ים
##inas
##orously
##icas
whip
asylum
stocks
##olite
suite
##ilon
atoms
##usters
poker
addict
##pler
##endent
##izon
verge
##ribution
underw
1933
##acher
corbett
botan
specim
speculated
acous
policing
confession
redef
invar
##weh
continents
##velope
##azy
##azar
monroe
##shine
##ahahaha
##yya
prototype
misn
singled
advances
##sworth
morally
missiles
technocracy
##uca
empower
romani
sanity
barnes
jackamundi
consisting
yorker
hesper
hostage
attributing
wilhelm
conservapedia
vanish
competitors
darker
macar
انچه
dominican
minimize
unpub
engagement
cooking
coldplay
1921
disgusted
safav
analyze
kuwa
exploitation
aeros
impartiality
rectify
subscription
enthusi
jehochman
bwilkins
analogous
##osaurus
την
escaped
unemployed
narciss
chunks
wikistalking
lolololol
deprecated
twentieth
chechnya
graffiti
gwernol
blasphem
dome
ditch
fand
hg
hurd
jong
mare
n00
nacon
oun
puffer
rast
rama
sings
wen
wimb
го
ма
##mila
##vu
##cong
##91
##qs
##pants
##xd
##زي
##ateness
##enburg
##itic
##isers
inequ
wha
whome
##agne
arises
##rodu
##aments
segments
##stock
##through
suic
shred
shane
weig
##oof
chime
abn
prolong
soy
talkpages
leb
leather
##anga
acclaim
##asses
offender
belgrade
desires
herring
deform
boomer
joker
invade
hover
termed
follower
##keley
monty
retaining
slot
logan
barred
barring
runner
recentism
semites
devils
treason
purposely
behavioral
frankf
##ihih
capitalize
facs
##hhhhhhhhhhhh
sams
nearest
fitness
##اري
انسان
werden
contradictions
instructor
maxwell
nipples
miracle
1925
commanders
cooperate
misinformed
princeton
calculus
montg
hahahahayou
durham
hyperlink
acquire
bathroom
leonard
paranormal
##کیل
abolished
accredited
obliv
##jjjjjjjjjjjjjjjj
luxury
siblings
paedophile
saharan
##nnnnnnnnnnnnnnnnnnnnnnnnnnnnnnnnnnnnnnnnnnnnnnnnnnnnnnnnnnnnnnnnnnnnnnnnnnnnnnnnnnnnnnnnnnnnnnnnnnnnnnnnnnnnnnnnnnnnnnnnnnnnnnnn
accommodate
autocon
euphemism
epithet
تشکیل
aryans
##sternet
gaddafi
centrifugal
420
dt
dion
fisc
gk
gambling
h2
higg
ij
lr
mmm
nol
nets
nascar
tart
vr
wenn
zag
اور
##nm
##hw
##pent
##pac
##jord
##bull
##bio
##تون
##াল
##f1
##كل
##ся
##മാ
##ην
##■■
thur
annot
toby
##ipse
##opot
##irth
washed
chern
unrest
##abf
##ouncing
##ighty
talkin
trips
aggr
infilt
##ffect
apps
sayin
verizon
newman
spill
indies
gull
pled
factions
factbook
overnight
##ualtions
decisive
refutation
##erner
filmm
playoff
playstation
transf
##orno
essex
merri
slick
##result
swap
archbish
shortcut
npr
junction
multitude
##ophone
separating
fanatics
beginners
graves
economists
##tw0000000000000000
tomato
1940s
drops
squares
felix
tendencies
senators
##امه
fellows
##losed
cowboys
nerves
simplify
graduation
incomprehensible
bounds
ghetto
proceeding
aggressively
##posterous
##market
inheritance
fluent
chambers
zionists
prophets
geez
scandals
trimming
rigid
quietly
masturbate
tallest
supplies
cluttered
lunar
scrutin
fragment
moroccan
algorithms
provocation
genitalia
mammals
eugene
flexible
chaluk
enlightenment
refresh
merchant
wrapped
rebuild
nominee
nevada
جهت
bacteria
proprietary
bieber
azzholes
unexpected
shanghai
overturned
millennium
inexperienced
##kantari
somerset
xudaya
ايران
naconkantari
wimbledon
911
cg
cds
dap
e0
fb
hooks
jstor
jupiter
lug
mih
rb
rigg
wig
woe
wqa
xi
zad
ми
كان
نتی
هي
##mia
##dot
##8000
##kata
##اق
##had
##yard
##وف
##по
##को
##λε
##ᆼᄀ
##해
##inine
##atter
##isance
releg
onwards
##ayana
##iks
stiff
##iao
orton
hep
shtm
melt
unite
uncyclopedia
abbot
##aboo
##mental
enzy
disallow
hash
##lava
amused
##ishment
peas
remem
manuel
fever
saus
permiss
##cible
pretext
preposterous
afl
guise
gujar
plague
commem
whereby
biog
incite
lax
holla
decree
throws
accountable
##hoven
muster
constr
dispatch
demons
classics
morrison
misses
misspelling
depos
governed
governance
crawl
yepes
ruins
westminster
salam
boxer
clarke
operative
establishes
periodic
devi
gracious
censors
payments
koch
karate
darth
alexa
drawings
1932
defenders
condensed
heavyweight
presumpt
presumption
dvds
nucle
bhut
##moz
##lady
hyperbole
autobi
##ста
disciples
transparency
rigorous
paradise
prestige
dodge
numerals
shrink
doomed
omeone
bengali
incarnation
helicopter
unnoticed
elegant
unequivoc
covenant
eyewitness
unpopular
adelaide
bats
ctr
e2
g4
kd
kv
kul
kany
lash
nguyen
nije
panda
هو
##51
##57
##mic
##mount
##m222
##non
##بل
##lib
##oit
##jah
##وی
##وق
##ouds
##ataka
reinc
isa
##omi
bef
beard
##utzer
habs
##iste
alp
adj
##uncture
noch
justifiable
tramp
##iances
outta
peripher
indict
##aahh
veiled
refern
grin
gram
grim
clif
pointy
scoop
##erton
thanking
##aven
reddit
redacted
blanch
incub
incidence
schwar
decimal
strain
monob
ideologies
##1185
metals
cargo
1899
1200
drums
mindset
surpass
aws
misspelled
skate
##conn
processor
stuffed
ahahahahahahahahahahahahahahahahahahaha
##apping
capabilities
##oko
##lington
massively
bloc
drafting
clarifies
favonian
militia
proofread
##zek
benon
energ
midst
nationally
layman
inputs
collaborators
luv
berkeley
##ennial
percentages
feared
zepp
councils
richards
liner
anarchists
##joe
باشه
##fold
reforms
calculate
fashioned
corrupted
ferdin
corresponds
manipulating
fluor
aye
intrins
mongolian
diplomacy
tweaks
bosniaks
detection
owl
andreas
levy
diameter
dramatically
battleship
gilles
jedi
misinterpretation
ethiopian
shirts
cynical
undeleted
genealogy
sahara
valentine
subcategories
interfering
triggered
montenegrin
scep
vulnerable
unresolved
doctrines
jasenm222
sullivan
esoteric
lieutenant
shorthand
sheffield
unpublished
##tw0000000000000000tw0000000000000000
نتیجه
shtml
4ever
bitt
gigan
kc
kau
kiw
kinder
kiev
peder
rr
vie
vouch
wired
wounds
zinc
عم
يع
सा
##vention
##gage
##kid
##bet
##وص
##زار
##inness
iter
heed
shipping
##irer
##ilian
mead
neu
chant
##dite
fruits
alta
unesco
unlimited
exe
exchanges
thereafter
##oung
nod
goin
mog
pricks
prague
upt
accol
elses
reds
##mma
blake
formul
reflex
##sha
apa
farther
endlessly
misused
lara
headache
antio
classed
bigots
projection
creativity
taunt
equilibrium
superb
##hair
salary
burton
recognizable
originating
capitalisation
facist
designers
naruto
sharap
counterp
stalkers
flavor
domination
zeus
dynast
aiming
dissident
srb
julia
coloured
bulletin
theorist
sects
acquisition
علي
hayes
erroneously
medioc
unproductive
residential
caucasus
drummer
##contrib
preaching
neighborhoods
municipalities
indisput
dysfunction
##wwwwwwwwwwwwwwwwwwwwwwwwwwwwwwwwwwwwwwwwwwwwwwwwwwwwwwwwwwwwwwwwwwwwwwwwwwwwwwwwwwwwwwwwwwwwwwwwwwwwwwwwwwwwwwwwwwwwwwwwwwwwwwww
reservations
implicitly
##kkkkkkkkkkkkkkkkkkkkkkkkkkkkkkkkkkkkkkkkkkkkkkkkkkkkkkkkkkkkkkkkkkkkkkkkkkkkkkkkkkkkkkkkkkkkkkkkkkkkkkkkkkkkkkkkkkkkkkkkkkkkkkkk
evolve
separatist
conversely
elitist
anxiety
jeez
symphony
binksternet
ramdasia
##oslovak
##lərin
hesperian
ferdinand
bung
dik
hatt
kappa
lal
mph
mps
ore
pb
sene
siber
vine
yooo
zar
zel
са
تک
##rism
##drew
##wd
##wad
##pad
##jun
##fen
##ങങ
##ছে
thu
##aty
##anica
##isan
##arios
belf
##agle
##idia
##etly
##rooms
##stad
shiv
shack
shitting
choke
##ako
envy
##ucket
alloc
##uni
willie
trots
##ivable
##osc
teens
manus
##bern
##icken
1913
##acs
overkill
brat
thankful
boast
##ewan
hiro
incoming
smugg
thingy
##shad
flows
downplay
concord
filmed
extant
specification
slipped
##loaded
demise
swamp
arche
brett
brooks
unban
sortable
30th
introduces
salon
ers
winn
derives
dumbest
sniff
islamophobia
programmer
##strom
mailed
legitimately
centralized
1934
mythological
casino
rhy
functionality
robust
simplistic
pretentious
photographers
dissert
venus
santorum
temples
julius
commandments
quantities
contempl
hypotheses
bogdan
dinosaurs
circumstance
greeting
##spamspam
spinning
breathe
##poop
tasman
emerge
##historic
iconic
intimidation
vitamin
depicting
mildly
fragments
kolkata
arkansas
samoa
resurrection
disguise
belligerent
fowler
multicultural
enlarge
مسيولين
acupuncture
unquestion
sharapova
aik
coss
dx
fink
git
hbo
kand
kung
lc
lpg
moo
nop
nause
ply
pik
pest
utm
wier
που
от
فق
एक
##mil
##يب
##hog
##uha
##bes
##3d
##λα
##ის
##eri
##erved
##inally
##inian
##rels
rey
isle
##llo
standal
stale
seoul
sul
##irk
##iries
meow
chak
prog
adl
usc
##about
##river
dischar
whoa
##india
resum
infants
##iza
interstate
##gee
spoon
##cias
attested
pars
obtaining
genome
redes
critiques
incumb
lao
continual
preserv
minne
ipcc
playboy
carpet
handbook
distaste
awfully
patric
##teous
ukip
indicative
denier
25th
superc
superhero
techno
convictions
labelling
facet
moms
validation
##held
preceded
expressly
romanization
perfection
treaties
jackie
responsibilities
arrse
nationwide
laying
hamlet
folkl
reversal
1931
speeches
secretly
locking
bellamy
branding
graphs
summarizes
synthetic
srps
##atchewan
mobil
gerry
rickk
shadows
coaches
cfm
subculture
##borne
breaches
sheriff
alcoholism
ulster
wikilinked
##piece
legislature
soapboxing
uranium
ambassadors
eligibility
malaysian
toyota
endeavor
slovenia
delegates
scorp
##uuuuuuuuuuuuuuuuuuuuuuuuuuuuuuuuuuuuuuuuuuuuuuuuuuuuuuuuuuuuuuuuuuuuuuuuuuuuuuuuuuuuuuuuuuuuuuuuuuuuuuuuuuuuuuuuuuuuuuuuuuuuuuuu
illyrian
vladimir
##uyuyuyuyuyuyuyuyuyuyuyuyuyuyuyuyuyuyuyuyuyuyuyuyuyuyuyuyuyuyuyuyuyuyuyuyuyuyuyuyuyuyuyuyuyuyuyuyuyuyuyuyuyuyuyuyuyuyuyuyuyuyuyuy
##tytytytytytytytytytytytytytytytytytytytytytytytytytytytytytytytytytytytytytytytytytytytytytytytytytytytytytytytytytytytytytytyty
crypto
programmes
##keeping
neighbors
stifle
wendy
globally
sebastian
saskatchewan
dresden
atrocious
martinez
##congrat
merriam
archbishop
standalone
aaa
baz
dope
dsm
gamma
hc
jfor
jumps
kits
kitty
mons
nina
ranch
sann
tucker
yan
со
بن
##iert
##eh
##cin
##nett
##gans
##giving
##wright
##lr
##سط
##ിയ
##तर
##ως
##♥♥
thw
##inis
##onso
anons
##isal
##reated
reyn
##owboy
##idian
##eterm
neh
unatt
enumer
##riz
quint
knowingly
##ogene
outbur
verte
intimate
disconn
##ensored
##ensitive
spiel
guit
clans
clouds
wrath
regul
deletionists
serbo
creed
deficit
bohem
redo
##ologue
basin
smiles
inspe
monitors
fuckingabf
##arna
misery
##alsa
cockroach
drain
advancing
administered
buchar
##tsin
delusion
milhist
absur
waving
honors
gregor
troy
technological
edison
bloggers
automobile
##oooooooooooo
lowlife
boldly
taxobox
mcdon
collaborated
counterpart
##apeutic
dominance
1906
1903
completion
1928
##wker
reformed
alteration
honorable
ciao
##proof
preserving
professionally
pertains
wolver
##لاح
reproduced
clinic
nadu
offenders
depicts
jenkins
lutheran
culp
springs
thermal
lancaster
##number
prevalence
annexed
conveys
clashes
ponyo
##vvvvvvvvvvvvvvvv
curtis
subdivisions
bongwarriorcongrat
##asgow
amusement
dividing
karnataka
electromagnetic
dravidian
carrots→
geographically
bicycle
sidaway
yeltsin
reintrodu
autoconfirmed
##lərinə
jforget
bongwarriorcongratualtions
aph
bing
cfs
d1
eul
fonts
ging
giov
ht
jf
nlp
ppp
pab
rays
wird
δεν
εχ
επ
مد
وي
##lot
##knot
##obe
##uments
##াই
thum
##aters
##aren
##otent
reapp
rehab
bei
##sets
stur
sein
shade
##irus
wikpedia
chicks
cheney
chapel
unle
abort
##ulse
cancel
usd
usages
##iffe
allan
dissc
lebed
##lair
truman
truce
quan
knees
##ianic
##club
infall
timed
##rys
spun
prehistoric
plates
commo
##acan
warcraft
idiom
sina
optical
herze
##ibst
speculating
acres
maked
polices
rediculous
invaders
##wey
smiley
refined
stray
speeds
langan
untitled
retention
summarily
misog
restart
violin
drown
##archive
directs
barr
brits
##iddish
objectives
standardized
glasgow
deniers
equipped
##sonian
##sonthew
identifiable
greedy
superstar
supervis
judy
edl
edges
footnot
spacecraft
councill
boyd
literate
pigsonthew
strait
##awi
danie
404
##hran
disambiguated
ultim
##ateral
reblock
hairs
##rosyl
hanged
nuke
examining
1907
venice
distribute
julie
paramount
tactical
distinctly
alerts
gravitation
andrews
acknowledgement
polyg
infinity
##stitution
czechoslovak
princes
gorilla
##2006
chemicals
predictable
hypocrites
sophie
resemble
suppressing
adherence
recipients
##groups
punjabi
bundes
thermodynam
inept
gesch
mickey
##rrrrrrrrrrrrrrrrrrrrrrrrrrrrrrrr
##govina
##xxxxxxxxxxxxxxxxxxxxxxxxxxxxxxxx
atmospheric
referee
syllable
shankbone
bleeding
rodeo
fischer
audiences
نشات
comprised
##otherapy
puffery
fiscal
bucharest
pigsonthewing
2x
9enter
cube
erit
gund
jol
kj
lore
lbs
nip
pou
rn
sooo
vous
wages
zimm
لم
ना
##most
##eel
##rn
##rg
##rub
##cake
##qi
##gd
##oir
##zyn
##رار
##bod
##ля
##alist
youse
reid
beans
stv
stav
suz
shun
weiss
wikith
mecca
##oute
enabling
goats
amid
amir
knowled
addicted
consort
##icker
perth
compile
spike
persona
##aho
##ahan
clit
##acowboy
admon
muahahahahahahahahahahahahahahahahahaha
seeming
##aches
##ibus
redist
citable
critically
smiled
##ocratic
monica
minors
##shi
##kka
imported
aval
bitchass
untouch
controller
popped
situated
traces
travis
steer
freestyle
geog
##insky
estonian
sandstein
dealers
denotes
aha
##ippers
convol
halt
hallo
renomin
volley
periodical
##epedia
expresses
27s
satir
privat
pillar
benutzer
ridiculed
determines
township
troubling
awardhttp
felon
moslem
kara
taxon
touches
philosophies
bolton
desktop
illustrative
1908
##hammer
##izzle
helm
dismissal
otters
alterations
migrated
nasal
chamar
##productive
portrayal
infringing
##aspart
hubbard
disregarded
resemblance
speculator
advisor
moody
arrangements
التى
caveat
outsider
disparaging
ineffect
denomination
cigarettes
sapiens
##olololololololololololololololol
garner
##crapcrapcrapcrapcrapcrapcrapcrapcrapcrapcrapcrapcrapcrapcrapcrapcrapcrapcrapcrapcrapcrapcrapcrapcrapcrapcrapcrapcrapcrapcrapcrap
degenerate
eugenics
efficacy
sabotage
nicaragua
fierce
antivman
bachelor
maritime
uruguay
frankfurt
monobook
gigantic
minneapolis
folklore
bree
cbc
iy
jal
kip
kob
ld
nal
pets
qe
qing
rak
sdf
tarn
teng
vuv
wary
yiddish
ذلك
##mg
##rer
##nant
##nost
##loo
##pas
##blo
##তি
##ால
##নে
##กา
##ยว
##ㅋㅋ
##edi
##enko
##leep
##arak
rept
##ags
##idas
##cef2
stup
##rolled
##imi
deeds
shik
fries
abo
exert
##elines
amal
quer
##dern
predic
##allen
##uev
##soc
pepper
coke
##geist
sps
##phal
offspring
informational
scans
brained
corners
boiling
joey
confessed
eman
realism
##ilyn
##lication
##beam
shitonly
apes
stupidly
badass
cairo
popping
bugger
stealth
##ontinent
freeman
seriousness
locally
deluded
urself
processed
##adds
judas
##haus
cater
cataly
widened
malice
salvio
cleaner
##ungs
collateral
##ijk
##ughtered
sociological
omitting
demonstrably
counterproductive
pushes
amazingly
450
lifes
tribune
##liest
cowboy
wedge
##otypes
ecos
transformed
unwield
unwelcome
strategies
cdc
##escape
striker
analyst
rosa
intervals
gabs
mortal
beckjord
negotiate
conceal
fallacious
barbaro
nigerian
majesty
apostrophe
wickets
escalate
shifting
prefixes
denominations
demolition
crushed
queensland
affirmative
cjcurrie
##77777777
drastically
anatolia
somaliland
aggregate
undeniable
accompanying
horizontal
lankan
dous
dile
ej
fang
jg
kre
kry
keller
sanger
vass
wigg
zod
αυ
απο
ва
اك
ولا
وجود
##dal
##cion
##cunt
##tail
##gem
##wal
##يف
##likes
##لب
##occ
##hk
##pit
##jit
##bear
##تق
##fb
##fart
##كى
##रम
##েশ
##οι
##ிர
##का
##ನನ
##ות
##atas
##esn
##orf
##inga
##lege
##cet
cong
condu
##chat
##stru
deities
demented
megan
neoc
friction
abbas
##ulo
##ifting
donation
goa
fax
fuckwit
quart
##ksh
knot
##iani
##osophy
pean
hiss
mania
##arya
themself
perl
##cius
vec
impat
makecat
parking
copenh
optics
wordy
marin
afterward
invoke
schism
entit
casey
mais
mins
##erness
careers
grouped
highland
badger
extends
slower
harr
noticeable
swallows
surg
neutron
testified
borg
##faced
watches
indications
alignment
equity
unfold
labs
##dev
credence
erotic
sanit
ridicule
##lining
croc
hinds
alleging
spirits
batter
msu
jugg
illustrating
spotting
nuisance
medication
hanover
huns
museums
proudly
advertisements
plagiarize
approximate
naturop
prejudices
##сти
tweaking
disciplines
ceasefire
combatants
patriarch
darwinism
taller
mesopot
elevation
sysops
coatrack
dodgy
shaping
gilliam
xxxx
jenny
friedrich
ddcef2
librarian
pentagon
reinserted
maurice
##heartedly
vessel
friggin
annexation
ernst
wagner
anecdotal
whisper
scandinavia
eccentric
hysteria
antiquity
dissemin
organizational
fergus
kangar
phantom
whomever
preservation
inspection
misogyn
cly
g2
jets
kt
korn
pkk
rall
sage
tung
tenth
vt
ειν
μα
دی
سر
مورد
کے
এক
##rar
##run
##due
##vie
##nor
##nim
##git
##worm
##ple
##pod
##وس
##டி
##دی
##தது
##شت
##ან
##aterial
tosh
todo
##leased
forgery
##image
##olk
##olini
sud
dela
##opia
shem
##ilis
neb
##anded
procl
socr
editwar
##usted
dislikes
##lover
##loeme
haste
##icho
shoulders
fees
perp
compass
spor
offends
subordin
##acao
overlink
cope
thanked
rox
oprah
marino
herd
claus
els
##fts
bestfrozen
flam
sexism
transsexual
retreat
rao
summit
slope
behaved
popups
mores
##tech
##addle
##okes
almighty
bulls
illust
##server
eras
substances
##انات
collision
sniffs
ceiling
devoid
slaughtered
businessman
jeske
matched
jerome
chancellor
murdering
sharmila
innu
rounded
collaborating
progression
costume
rebut
750
crimea
##guide
zelda
##fielder
smithsonian
unconfirmed
bangalore
missionary
mangal
orthodoxy
evaluated
untruth
interactive
ingles
breeders
ncbi
taiwanese
disregarding
mortality
conceived
flooding
preston
arcade
shelf
intimidating
revelations
موجود
##eteenth
sterling
tbloeme
rephrasing
1920s
dissenting
yields
vessels
thugs
penetration
##wattwattwattwatt
hawkinghttp
kernel
##uzelas
gratuitous
mestizo
ادمی
بخش
shabazz
laundry
sarfatti
n00b
sannse
vuvuzelas
gabsadds
mesopotam
a2
a4
auck
aub
bain
cue
casc
eph
fiber
huss
katherine
tus
vip
wrap
zones
что
مم
##rc
##rak
##cap
##tlas
##nk
##gc
##lkj
##2k
##pam
##jt
##bay
##па
##েল
##다
##eren
##atum
##itur
##lez
##lements
youll
ofcourse
##asso
reiter
whas
asleep
seld
orwell
doin
docs
withdrew
sht
##istent
##illance
unse
unab
sober
adri
##uling
##abot
enacted
##ikel
##orting
quarters
upside
##osia
##oga
##ogs
##oglu
##inejad
manor
pero
intersection
reprim
guinness
reliance
1916
##ahe
impolite
makeup
clues
clitor
belly
overze
phara
idios
##ieder
defic
##ibe
##avan
emir
eminent
provoking
happend
presby
generates
##ysis
wrongdo
##aceutical
10px
avi
clears
mercil
dispers
internally
swag
dicked
fourteen
wholeheartedly
24th
earhart
senseless
pawn
wikipedophiles
maggot
halu
semester
receiver
north8000
rfpp
27th
satire
##forum
ilk
crock
hotels
grandson
observing
psychopath
forwarded
campaigning
sickening
dares
predates
pedest
unneeded
rhym
torch
bells
powder
##ایی
photographic
galleries
oliv
wooden
heroin
jeffro
einer
nutshell
##fjs
##follow
mixt
customary
transformers
unworthy
azeris
affiliations
amendments
##ουν
geeks
ellis
databases
tweet
exhibited
scarce
haben
adaptation
stoop
italicized
dashes
phonetic
hispan
satellites
zhang
abrahamic
rephrased
mockery
wikicup
dental
exemption
propagandists
robertson
decrease
refactor
immensely
johannes
##96t96t96t96t96t96t96t96t
pwned
intolerant
roland
rodriguez
bionicles
feasible
constraints
fandom
weighing
dynasties
manuscript
herzegovina
zimmerman
dough
dmoz
fou
lily
lime
vint
vann
wiser
yun
zim
zora
بين
##mor
##liness
##pre
##ಲಲ
##ба
##ще
##erie
##enne
##iture
##leen
##icz
rethink
##omo
##ometer
##agar
asinine
arithm
stomp
##etown
##adh
##imer
orn
heel
shen
shoud
shining
shiva
##este
neill
framed
unter
##andro
##andez
abbey
##antan
##riad
##lette
##ardi
trench
prat
##anging
##plant
outwe
intends
persists
timely
sauce
perse
compose
thanksgiving
##arez
recap
##acial
copern
wordpress
incase
crum
messianic
turb
turtle
versed
merges
posing
constell
swami
unscientific
finest
runescape
markers
modes
pais
urg
epist
magically
humanities
prima
songwriter
derry
accessdate
billj
socio
performer
recommends
imagery
frequencies
dubbed
railways
auction
ordinal
nicosia
impacts
cables
1927
congressman
arriving
chriso
bowling
reformation
##یرات
##monkey
frederic
katy
doubled
twisting
stamps
tails
satanism
nlm
pitiful
woot
actresses
weighed
pipes
undertaken
smacks
swords
installation
confederation
acronyms
distorting
pixel
googled
extracted
rebecca
unauth
surveillance
subsidiary
constituent
memorable
diminish
subheading
subcategory
vigilant
definitively
insecure
nutrition
predecessor
##irvana
##bootstoots
overthrow
lolooolbootstoots
duchess
blanchard
dissertation
guitars
absurdity
convoluted
copenhagen
ειναι
merciless
buu
dg
gases
hound
ioc
jing
jade
kee
kup
lulz
pim
psp
pascal
sow
serm
sidd
tn
utt
wv
yuk
προ
هذا
দি
##iating
##iago
##mers
##dain
##vk
##vag
##cie
##cry
##cock
##9f
##wave
##نه
##his
##uber
##pay
##ер
##تع
##قة
##ᅮᆫ
##λη
thon
##inic
##onk
antics
##leys
youve
ars
stee
staged
congo
##iae
##iavo
seph
segregation
##style
deusche
shine
nek
butts
##dits
franks
unbe
byr
##rach
noel
##arda
lever
quarre
thinkers
coch
coleman
##intosh
##ributed
##ahl
attest
paraps
clam
recipe
phases
##ondo
genitals
cretin
defame
boats
booth
##zzle
redact
blend
cram
crip
crick
worldview
monuments
expulsion
carlo
okina
misd
misch
anto
breth
superv
calib
visitor
massage
silesia
promotions
actionable
fanboys
synag
nonex
cyril
280
viral
domains
hesitant
grandparents
birthdate
freedoms
psychotic
psychologists
immoral
hindust
nickel
berlet
compromises
collectively
assessments
fellowship
commercials
sufyan
custody
unpre
colonization
nudity
1904
editorializing
distributions
arrives
helmet
krs
florence
remarkably
alerted
bulleted
gamer
granting
hilton
rabbis
therapies
circumcised
dougweller
patriots
knocked
##character
overturn
compatibility
lindsay
clergy
rifles
##immons
brahmins
confidential
cpu
استف
pulse
exhaustive
stabil
escalating
koran
##hehehehe
troublesome
hippie
reorganization
innovative
prussian
zombies
unemployment
##alogalogalogalogalogalogalogalogalogalogalogalogalogalogalogalogalogalogalogalogalogalogalogalogalogalogalogalogalogalogalogalog
##chwitz
impressions
compulsive
metaphysical
imbecile
aluminum
schizophrenia
plasma
nephew
restructuring
grumpy
whtat
curriculum
reincarn
trotsky
overzealous
deuschebags
bam
coo
durch
ducks
een
ecu
fide
gimm
glee
ict
klux
lust
mism
nccc
ots
pid
pains
qi
roses
rivals
yar
zan
πα
σε
συ
اگه
بي
عمل
مک
सम
##dn
##िस
youuha
rejo
##omans
##idth
##idences
arn
##igt
##etes
concess
hew
shag
shiny
chav
##illo
fram
excel
##ustion
poets
enlist
imam
##logo
##umm
peel
peice
##ritic
timber
##apes
##apur
spear
##veda
phahahahahah
somali
serer
herod
coron
defends
llc
##zzi
autumn
schiavo
enters
crunch
happier
signified
securities
reffer
expon
possessed
lotus
latitude
fury
waterm
retraction
misapp
slate
pictured
trio
truely
##rington
##oya
##alez
blackpe
esta
jpgordon
dai
##atta
modi
criticising
remembering
fatig
argumentation
##ucid
unfriend
##deon
##xx0r
unconscious
malign
##atorial
psi
jeanne
eduardo
booobs
501
militar
diva
billcj
brawl
painfully
tracked
greenhouse
##سته
prints
rebbe
conforms
therapeutic
inaccuracy
ashken
excellence
bombed
stafford
kambo
krak
consultation
louisville
tsar
katie
manufacture
##iversity
cambodia
##khaz
feminists
imperialist
disciplinary
inquisition
bosniak
omgzx
indoor
spirituality
jailed
saddle
parallels
sponsor
undertake
confrontational
explosives
friedman
eagles
اصل
horrend
innovation
abundance
profoundly
parenthesis
ahmadinejad
mussolini
##خخخخخخخخخخخخخخخخ
##────
remedies
##cccccccccccccccccccccccccccccccccccccccccccccccccccccccccccccccc
reopen
norton
adolescent
upgraded
ingredients
nambla
antarct
dungeons
zoroast
فعالیت
trilogy
giovanni
socrates
auckland
youuhaxx0r
omgzxor
bn
bik
cries
dill
hw
kook
piv
pts
rous
sont
ure
ummmm
zw
zay
θα
وع
کال
##mitt
##vas
##code
##tz
##lc
##lass
##hall
##jok
##رم
##bie
##fect
##िय
##ერ
theway
##allah
##report
##otomy
ism
bew
##agram
##rova
conrad
seiz
sulf
##ipt
deed
##opop
heal
##atel
##urable
wikile
chet
fraser
##anders
abrupt
abkhaz
##antis
##antia
##asem
##lov
##umar
goce
goku
fuckhead
quin
eva
reside
timor
discrete
sahib
compression
indist
##assed
##phys
pare
twain
mupp
rightfully
chews
rove
boots
acorn
decon
insure
##lando
##lectric
farmb
transnist
furious
##hobe
chrome
rapt
protective
undisc
goofy
dealings
airlin
capita
visibility
303
translators
threatens
limped
silk
riders
##اني
ballet
##obot
##ync
libtard
sunshine
toolserver
rfcs
psychologist
candidacy
immun
paulo
##122
taxi
demonstrations
hahahahahahahahahah
extraction
collaborator
mythical
robbery
mounted
symbolism
hackking
mathematically
louise
recalled
gangsta
gasoline
##ipei
fortress
mastcell
congratulate
ecology
chiefs
sellers
espan
pmid
mudk
commissioner
commissioned
tsk
hipoc
joshu
declares
portraying
prejudiced
crusades
##statement
exposition
drunken
clerks
lesbians
auschwitz
disgraceful
unproven
salvation
##liche
undertaker
numeral
welcomes
enhanced
obstruct
symptom
exaggeration
bundle
##falls
nurse
propagandist
mascot
scorers
pharmaceutical
ashtons
##bastard
interrupted
indulge
dioces
inaug
##dfsdfsdfsdfsdfsdfsdfsdfs
dalmatia
gavin
haaretz
squeakbox
kanye
schwarz
mangalagiri
parapsych
aerial
dn
fud
gist
hats
jt
kro
kart
kost
lut
lemon
nou
rha
svo
vv
vest
wien
вы
وه
##rens
##vt
##caster
##gone
##hail
##project
##jy
##bj
##breed
##blog
##fgh
##मी
##би
##는
##atile
notor
notting
##erem
##amount
##adan
shill
chenna
wikipage
adjac
##abh
ency
##raved
nofollow
disdain
faile
tray
fuckbags
quib
moe
##001
addendum
##ussing
consp
sah
userfy
##ounters
recount
recreating
bred
rooted
marilyn
corrie
eli
autograph
##uga
longstanding
realization
##yson
refine
##beh
monk
monit
##untu
wrongs
exports
avant
carson
retiring
morals
distress
generalization
unsatis
##oooooo
germane
medd
##idding
profane
brev
ahem
porto
portals
guesses
saliva
##health
servants
collage
solidarity
boolean
favors
representations
militants
synchron
cyde
gracias
jacket
flagship
##fficient
trades
hott
rapists
precip
imagin
marty
##kien
audacity
batista
panor
انا
annoyance
premises
venge
vojv
chickens
planetary
completly
ghana
heroic
prav
pronouns
tolerant
attracts
packages
contracted
historicity
fundamentalists
coordinated
gifts
acquaint
uninter
bummer
hazard
##rasment
intellectuals
narrowly
interacting
doubles
wolfowitz
inspire
1967fan
perpetual
perpetuate
oceans
##olitical
kirby
assignments
elevator
kanji
glasses
mulatto
salvage
contraven
confrontation
kittens
sacrament
papal
loyalty
stirring
outsiders
horrific
misunderstandings
orangemike
brien
jakarta
tirade
detractors
reworked
##prints
transmitted
##jajajaja
trouted
nacional
surgeon
malke
eloqu
spaniards
preclude
propoganda
تغی
misnomer
inequality
accolades
plymouth
incumbent
ecosystem
unwieldy
hispanics
outweigh
brethren
استفاده
unfriendly
failepic
a9
ache
cah
krug
litt
mith
noms
ola
sard
tended
tones
tainted
wmc
yur
пре
ре
वि
사ᄅ
요
##cape
##876
##games
##su
##sbs
##بات
##لو
##zan
##bang
##fic
##xe
##वर
##за
##گاه
##เข
##ᅢᄒ
##inqu
##editor
ons
##cki
stabbed
##igate
##etamine
##ampton
seg
##stating
##olin
dock
heating
shear
##iras
##ilar
##ilver
nef
ala
abe
prodd
##mente
env
envelope
noon
diseng
moist
kno
hows
outnumber
resorted
appell
cove
saul
spouse
guang
assange
goodday
pluto
recourse
phony
brent
##www
sino
roach
##boi
redempt
critis
daylight
##atha
inscription
##ocentric
monaster
##fucking
irred
differential
avid
buenos
1600
milky
develops
alma
divert
lighten
documentaries
favored
encounters
concluding
pills
##dsfd
bauder
births
psychic
immortal
streak
greenland
wikimed
mcd
destroyer
collector
affection
micron
slept
rewrites
hungarians
branded
persistence
cooked
financially
microsc
reactor
dalai
pursued
honorific
obligated
strengthen
hooker
teddy
substitution
perpetrators
physicians
anthropological
appropriateness
paradigm
bombers
baptism
concerts
reposting
falsified
fulfilled
##ககு
reciproc
yamla
societal
##ικη
inconvenient
اسلام
##wikipedia
astonishing
evolving
deterior
subheadings
نیز
##11111111111111111111111111111111111111111111111111111111111111111111111111111111111111111111111111111111111111111111111111111111
elders
tigers
eclipse
kiehl
mauritius
##braska
tandem
zeppelin
wierd
patricia
zodiac
innuendo
ashtonsimmons
vojvod
3o
dgg
eso
gri
gook
gord
hides
lsd
nure
ober
qut
tch
upp
xin
yyour
это
يا
नही
বি
মা
##iad
##rika
##von
##vier
##cos
##qc
##was
##write
##kat
##yah
##butt
##fle
##ികക
##ιο
##جاد
##বা
##ογ
##شم
##atin
##esp
##orld
inhib
reuse
##omery
##llers
##agu
##ikan
##igkeit
##chus
seas
##thora
deer
##opp
dogg
##ilate
mew
nebraska
butler
fra
undu
unacc
myriad
##abar
poetic
poking
byte
dislik
facial
trucks
##kson
prun
pears
##astri
##earth
##quet
coher
compiler
interject
spammers
undergoing
vex
asspie
phobia
twit
herr
defint
lethal
curb
blitz
biod
webcom
crescent
secession
maori
textbig
pencil
irl
irrespect
couriano
courteous
charging
templat
##ategate
latvia
##white
newsworthy
guiding
summed
slit
surplus
teri
freel
presentations
##retarded
delusions
broom
debun
debian
taipei
greed
الي
emailing
##heit
originates
action2
dogmatic
derail
sync
slack
advertised
##boarding
ethnicities
cooler
lieu
tracklist
pauline
##flag
nickelo
satisfying
casually
touring
ancestral
toned
graduates
unconstitution
##borg
emphasized
##789
1924
materialscientist
missionaries
embrace
masse
rajas
surround
compositions
earnings
privileged
spectacular
disappearance
slandering
jacques
gardens
gorge
megal
niche
tournaments
statistically
levant
abdel
brahmin
bootleg
molecules
ff0000
phonology
collapsible
##jacob
vedas
succes
scrolls
retracted
algerian
abolition
nhc
misreading
practitioner
excerpts
encompasses
kako
tolkien
patriotism
abhor
amerind
omnip
malayalam
scandinavian
falsehoods
discontinued
inertia
consolidated
##िनद
gilberto
demeaning
rescued
jainism
cunningham
disproportionate
dartmouth
redeem
spinoff
celestial
montgomery
ctrl
mediocre
reynolds
czechoslovakia
hindsight
antarctica
farmbrough
notoriety
chennai
adjacent
4000
d3
dans
euth
gian
gew
hague
jaff
pj
pang
pals
rds
rica
sama
vise
wether
xv
yi
اه
اپ
دست
ਪਰ
##eur
##rice
##rists
##dif
##wen
##اطر
##oso
##رت
##b8
##fm
##서
##orus
##alla
oft
##rev
req
##enta
arth
##ldr
steep
##tice
seb
##st1
##imeter
weil
wikepedia
##ilot
comun
alk
allev
abt
##akov
pogr
##anti
whatnot
talkcontrib
gogo
amin
whos
##osph
##endium
##izan
inters
prey
indus
everton
##ahua
##phones
##odon
plut
commentaries
##igga
wherein
##ailable
sims
roast
acids
confine
providers
entren
messes
miner
##tyrosyl
sentance
morbid
distraction
##gnb
rulings
eucl
unde
##adda
denis
futures
portfol
figur
##italic
avoidance
enjoyable
jeopard
balancing
hola
cement
unrec
contesting
sockpuppeting
viruses
fooling
royals
omar
##اله
sticky
combinations
villa
destroys
##اری
##اره
familiarity
##myc
yawn
plethora
##jevo
retardedour
retardedretarded
pedo
bonn
conspiracies
container
analyses
opted
fukin
##daily
dictates
swept
1901
initials
restrictive
bedroom
obscen
categorizing
nikola
reacting
equivalence
ottomans
espion
chapl
bradford
##aurus
dragging
##wwwwwwwwwwwwwwwwwwwwwwwwwwwwwwwwwwwwwwwwwwwwwwww
unusually
extremism
assassin
wheeler
wheelchair
screams
ميکن
streams
inflated
ghosts
yankee
shells
##written
vikings
mozart
chilean
relativ
recruiting
exceeded
ummm
distortions
distracted
discriminatory
neighbours
golan
intervening
lavender
francois
marathon
kidnapping
disguised
rhodes
##الالالالالالالال
##aaaaaaaaabaaaaaaaaabaaaaaaaaabaaaaaaaaabaaaaaaaaabaaaaaaaaabaaaaaaaaabaaaaaaaaabaaaaaaaaabaaaaaaaaabaaaaaaaaabaaaaaaaaabaaaaaaaaabaaaaaaaaabaaaaaaaaabaaaaaaaaab
comedian
##millan
frickin
بطنی
dolphins
prudent
##arginyl
hamburg
##ashtra
consonant
typhoon
bulldozer
locomotive
sabbath
utmost
pablo
volleyball
surgical
arithmetic
brevity
##เขยว
templatename
ao
bess
buss
bending
dwe
dmc
eich
erupt
flock
fount
gtf
hort
jig
kww
lum
lans
mou
nub
nada
nirvana
pued
ratt
tian
txt
tamb
tammy
vedic
wad
yus
zem
αρ
مست
مصر
जो
पा
हिनद
নি
வி
##rish
##aci
##afa
##cence
##cfly
##kas
##kids
##اک
##ну
##hor
##hoo
##قی
##রা
##fkj
##xv
##েখ
##чи
##जा
thes
##anab
beac
wher
whitt
habe
##roads
##stop
##stall
##imity
##than
sherman
weaver
nept
chong
chesh
chabad
##tera
sok
sooma
exotic
myers
ense
##unter
goon
trance
upheld
##acking
peasant
##cled
resides
manages
##ahon
##ods
##odo
impla
impost
impulse
parse
plc
phall
cleop
cheaper
##upmyc
explored
elle
autop
crom
crust
thriller
textual
##unta
expiry
charities
1880
1876
1870
centres
specifications
antib
trapped
buster
##fao
liam
similiar
##umbling
urantia
airs
grease
annoys
radically
##obic
snoop
accessibility
islamists
deviant
duo
contestant
physi
##ccessary
economically
crook
davidson
richie
weights
##olebastard
narr
feeds
pisses
conversions
##ymcfly
hamsters
predator
allege
compromising
pakistanis
powell
nicola
##crs
condens
brandt
datestamp
dissolved
chapman
mccart
skinny
meatspin
packed
traveled
constantine
flee
safari
consumed
celebrating
coordinators
crowds
sacks
calmly
buckley
tweaked
otter
hammers
prefect
overtly
tidying
stretching
##654
pseudoscientific
chopin
العرب
fruitful
collegiate
molecule
piped
toddst1
philippe
portraits
tabloids
hannibal
abbreviated
kosher
##enzie
refactoring
diane
clustercunt
##mmmmmmmmmmmmmmmmmmmmmmmmmmmmmmmm
riddled
nominees
anatolian
defective
sculpture
yadavs
imprisonment
zurich
gimme
bandwidth
wartime
snarky
outraged
##untholebastard
incubator
belfast
##fartymcfly
ferguson
seldom
clitoris
blackpearl
wikileaks
monitored
사랑
irrespective
nickelodeon
##upmycuntholebastard
clustercuntfartymcfly
##upmycuntholebastardfuck
clustercuntfartymcflyupmycuntholebastardfuck
3r
berm
cott
csm
cesar
ibra
jou
jorge
komm
pk
p2
pors
pto
rer
rup
ropes
sass
wies
ста
تف
داش
وق
چگ
என
이
##vh
##wos
##liv
##ня
##oor
##holic
##یں
##ет
##bart
##bahn
##ши
##ஙக
##하
##inus
##anu
##enes
tome
##left
##iceless
inning
##arck
##arab
##asaki
bea
##idan
arbs
##lde
stil
##eti
##erew
##adas
##step
##iped
##iprot
ort
wikie
nep
chord
butcher
fron
unlaw
probe
proverb
adhd
##ieving
##inky
##raw
##logen
levi
mosh
##artz
##sover
vert
##ribing
sailing
pertain
interrog
##ensibly
vell
offenses
phan
idi
simulation
chew
supplying
martha
corr
deficiency
tops
confisc
claire
elucid
bland
hiatus
##fty
hopeful
insensitive
##ocrat
##elli
downs
filters
metab
tyrant
cuntass
hardest
publically
1400
britons
purdue
shortage
##faith
protects
organism
modem
modules
##iori
denn
homicide
sorta
ports
##mberg
johns
##hael
salient
erde
expects
practise
snitch
devout
contestants
libell
##ghis
octave
staring
randall
virid
pussyfuck
bolding
villains
immer
##125
dyks
communicated
darren
charted
panama
pretends
columnist
completeness
cartman
gnos
incorporation
dunn
embark
mobster
dismissive
paramil
defeats
میں
gifted
acquainted
##uhd
spoil
rudd
explode
pronunciations
perpetrated
##chaft
assaulted
slutty
selves
aerop
majestic
conveyed
saxons
##dogs
zoom
gateway
cotw
murdoch
climategate
disparage
heraldry
##fnjb
kazakh
antagonistic
demolished
pharmac
sinking
ribbon
nurses
degrading
dismay
unintentionally
vapor
stephanie
spontaneous
recollection
wurde
##ihuahua
disposal
restraint
acoustic
prolonged
indictment
aboard
presbyter
rhymes
hipocrite
nottingham
redemption
acl
aird
ayers
b6
cin
dord
fue
fff
fiat
ginger
hq
iyo
jill
kers
kend
kok
kaw
kham
ln
laps
ltte
nts
oe
osh
qm
raging
riley
sia
sank
uma
xer
حس
شدن
نق
چرا
ہے
इस
मा
மு
##court
##gus
##game
##gable
##lity
##kop
##است
##ем
##تن
##ടെ
##றற
##ır
##ᅧᆫ
##atories
##isco
##icion
ini
##argu
##omas
artc
##chel
##chool
shil
##istor
##atech
##iris
chis
unwise
##andar
abomin
abuser
myst
##unus
disable
hasan
trig
##ishable
prist
upan
##quers
verbs
cof
sahra
##ensiveness
reputed
repression
offset
subj
##rup
brom
creations
yearly
boaby
revive
revived
##athon
macc
##uuu
##aza
flim
irvine
englishman
charitable
templated
carroll
retentive
extras
pooper
solver
archival
barg
photon
22nd
epit
hometown
##prene
widow
##gold
disrupted
experiencing
##ahahahahahaha
thirds
suspend
##dfdf
presses
##ushima
specialty
action3
apologists
inserts
pottery
dux
durova
interpol
##zeb
expands
starb
benz
fallout
##iiiiiii
initiation
iranica
grounded
waterloo
weighted
##opsy
##msd
##iasco
boner
ruby
dbach
ensla
juicing
osce
nicol
chatting
nugg
1902
duplicating
cartridge
kamen
afghans
skype
celts
pira
suffolk
azte
hilary
exercised
intrans
همه
soulja
portrays
##ياة
ميشه
prepub
quarterly
العالم
arcayne
thirteen
cosmetic
resembling
nagorno
hogw
seeded
dreadful
irritated
vectors
unintellig
insignia
busted
utilize
xenophobic
transitional
quackery
eddy
certificates
brunsw
esperanto
##ικα
jsut
kabul
barbarian
slovenian
discrepancies
feeble
sql
abundantly
voyage
##tttttttttttttttttttttttttttttttttttttttttttttttttttttttttttttttt
oooh
inertial
violet
recruitment
snippet
funniest
tudor
displacement
##prickspricksprickspricksprickspricksprickspricks
mushroom
metacritic
irrelevent
diatribe
مثل
leicester
i´m
tomatoes
peasants
outburst
horrendous
cheshire
mccartney
1r
2a
6000
c2
cain
dred
diving
fiasco
jum
kont
kush
kai
lon
lia
lumin
loosing
mub
nus
nab
scl
sammy
t3
tout
tiff
vm
xvi
yrs
бо
ایر
তো
বা
##times
##gling
##wered
##wipe
##رة
##brow
##baby
##from
##xide
##وو
##ाव
##лу
##ರು
##δα
##σα
##টা
##ני
##inery
theerew
tob
##lef
##leon
inel
inso
##ometers
behold
whist
arous
stm
stell
stumble
##igraph
##adia
sew
##start
##stell
##imw
##thy
sumer
##ipel
orlando
##oped
heide
heather
ching
chit
alley
unans
canter
imbal
willis
levin
goe
trumps
quar
knuck
##angu
##cces
##ogo
outdoor
##ubns
##igne
perceptions
##osevic
preface
undergo
##aaj
readings
grund
parth
regulated
regener
scro
##actor
marion
cola
boil
curly
bliss
##gram
hellor
crashing
refuting
monaco
farsi
metre
latvian
tyrol
##hoff
1878
1850
highking
cair
##ieren
cocktail
dispens
traction
humane
christie
barrack
##identified
depraved
sensei
skipped
liu
smallest
totals
hydr
hydra
eden
annih
bloated
##uku
gaul
silva
##hea
tabulate
slapping
continuum
starred
victories
strauss
birch
graf
gamespot
spammed
picky
##feed
designing
investigators
michaels
combative
compares
porno
squash
midway
0600z
grammy
hatchet
ambush
hearted
sensor
bonnie
##cestershire
melissa
simplicity
unconvin
moonthe
uniquely
float
bayern
watchlisted
reinforce
reactionary
wrestlers
magnific
##frame
میش
forgiven
chameria
gamers
plagiarized
stalinist
analyzed
stinking
exercises
tuning
telesc
spoiled
libertarians
revenues
scenarios
prayers
nineteenth
##واقع
rushed
invalidate
tangent
exploit
accomplishment
hurricanes
unprotection
reproducing
##iciary
اينکه
breaching
prosecuted
prosecutor
sympathize
shelter
negroes
namib
theresa
steward
mozilla
موض
##monton
##school
circuits
##adamus
bronx
discriminate
neighbourhood
shields
##volent
molesting
sparked
breadth
chalde
smoothly
dacian
puppies
tantamount
merchand
illyrians
##setting
##ylglutaminyl
##heimer
weaknesses
interchangeable
##88888888
helicopters
fernando
aspergers
imprisoned
reunion
##untcuntcuntcuntcuntcuntcuntcuntc
beethoven
symmetry
theodore
bhagav
entreprene
natalie
artifacts
masculine
gonzalez
admixture
nostradamus
middles
kampf
invariably
blasphemy
ounce
transfers
##ᆼ개ᄒ
gujarat
footnoted
ineffective
doushe
clyde
vintage
copernicus
ecuador
zoroastrian
용개ᄒ
unconstitutional
blackpearl14
사랑해
heidegger
용개형
5d
5mm
aks
bant
bha
cried
cdr
dnb
eisen
fcc
ffs
faked
gac
hb
hare
jzg
komb
lh
lid
loos
nuff
ndp
pess
pens
sally
tory
ua
wn
xml
yt
yanks
бы
все
سی
سلام
##cen
##nak
##gear
##يط
##kfj
##hsc
##ymm
##bab
##fest
##fav
##xon
##زی
##पन
##oua
##aten
##alm
##icism
##arse
ismail
begg
##lds
##search
conway
##ithe
##imedia
##imiro
articulate
dok
shu
##uras
wikin
chur
cholas
alo
alto
soda
##ulg
##ulant
##ifinal
##ifada
enables
noi
lea
tres
amd
quiz
##007
##004
##ogi
remake
infos
appal
##rypt
##inta
perverse
usertalk
linkage
relisted
blockable
readded
##oday
imped
2000s
workings
overboard
scour
tryin
marlow
hered
sheikh
policeman
basil
schne
formulated
cron
syed
prescription
vandalisms
monothe
accountability
jewell
1892
advising
politeness
antip
popes
leftists
##aturk
wikipedo
artikel
mistress
homos
##enght
errant
caliph
##eeeee
edwin
edmonton
erd
disruptively
##quez
semifinal
moderation
petr
holly
precedents
episcop
devot
punks
concludes
conclusively
pigeon
despise
payne
##thegr
successive
poof
karel
karachi
vanu
vanished
pedig
##utsu
##urbed
ensign
laughter
pulls
bombard
photographed
puke
hackney
galling
##ariat
woody
##fjks
##fjicas
constructing
flowing
brazilians
feral
zealous
pursu
mandy
km²
gentile
subtract
josephus
lyon
infinitely
##uchi
ellen
elaborated
crusaders
shaft
aspers
purchasing
والم
sicily
1872
floods
reposted
collegial
undertaking
douchebags
wikibooks
puzzling
depictions
steroids
possessive
wessely
gratitude
اصلاح
nails
travelled
endorsing
patronising
patronizing
meatpuppets
luxem
της
assimilation
judea
uzbek
##llllllllllllllllllllllllllllllllllllllllllllllllllllllllllllllll
intolerance
fisherqueen
strangers
auxili
intriguing
phylogen
displaced
theologians
unrealistic
##hitlers
iberian
applaud
inflicted
xyz
galileo
سياست
vehemently
sausage
peripheral
فقط
redesign
mesopotamia
jeffro77
rhaworth
unduly
pearson
cleopatra
ibrahim
theerewfjicas
bv
bucks
cors
dared
dwell
dmit
fak
gin
gage
herman
jb
jensen
kes
kris
mesh
nib
omm
ruff
rows
rhob
roux
tuck
vb
ме
но
تق
سے
##million
##dna
##aedia
##c0
##cus
##120
##lake
##length
##zm
##pd
##εια
##وال
##جم
##عة
##েন
##வர
##са
##ｏｕ
##inia
##icum
##icfjs
##arina
##asad
##asions
##rez
##recht
recl
asod
haiti
##igal
##rob
##amic
deuter
##urge
wei
mees
neal
chow
alst
algo
unlink
##terior
##inki
##riy
##racies
noaa
disinter
##leted
##lap
gog
goethe
amar
qui
peaks
##ials
##quote
conspic
intervent
underage
plank
overc
phuck
bride
sinister
cheated
bites
posto
blanks
autos
hoary
decomp
messaging
fagcj
explet
##elllo
downhill
charism
sorrow
extrad
solic
handles
classroom
nationals
surm
artcile
aires
الام
trojan
salut
civilly
ps2
sussex
nazar
angl
rfcu
unreleased
encoding
wald
dried
inclusionist
bennett
bravo
sund
capitalised
dancer
bottles
##fejv
croft
##amente
khat
blpn
##auge
fitz
midfielder
##sdiu
occupying
##zzzzzzzzzzzzzzzzzz
cryptic
luft
collectonian
##huicfjs
flacc
rumored
blinded
inventing
duplicates
mummy
embry
imperative
cracked
composite
telecommun
##iyhc
proximity
tsun
manipulative
rodham
1860
buddhists
##uhmh
distinguishes
##ulsive
jacobs
imperialism
shady
exploited
vulva
harvest
exhibits
alec
kannad
compatibly
foolishness
##ifferent
registers
habitat
negotiable
subcontinent
uniforms
dorothy
dumping
frost
persuasive
sweeps
overlapping
joyce
positives
baku
fleshed
oscill
واقع
manifesto
mckin
reinserting
proteins
##restrial
ubuntu
rampage
disclosed
##vnhsc
vasco
alexandria
autoblocked
griffith
arrows
delicate
asteroid
vampires
mhp
##iovuhd
##manship
##iiiiiiiiiiiiiiiiiiiiiiiiiiiiiiiiiiiiiiiiiiiiiiiiiiiiiiiiiiiiiiii
beverly
tourett
rearrange
brendan
chauvinist
pragmat
debunked
bipolar
guerrilla
shalom
coordination
relentless
##педи
mcmahon
reperc
apocalypse
samsung
gregorian
rehabil
eritrea
wikithis
transnistria
##dsfdhuicfjs
##difuhmh
unrecogn
implausible
##crsdsfdhuicfjs
##wosimw
libellous
##msdiovuhd
dbachmann
theerewfjicasjok
rhobite
asodfejv
##sdiuvnhsc
##iyhcsdiuvnhsc
##difuhmhelllo
##crsdsfdhuicfjsmsdiovuhd
##wosimwcrsdsfdhuicfjsmsdiovuhd
asodfejvwosimwcrsdsfdhuicfjsmsdiovuhd
##iyhcsdiuvnhscdifuhmhelllo
asodfejvwosimwcrsdsfdhuicfjsmsdiovuhdiyhcsdiuvnhscdifuhmhelllo
2b
ait
bic
bale
cay
e3
erection
ferm
fior
gould
hord
hrs
ilo
lent
lizard
nous
pud
tumb
vog
yosh
zor
αλλ
εν
τι
съ
بنا
خص
شه
ني
وقت
کم
बा
##rades
##dad
##aces
##tools
##1000
##kos
##pack
##jp
##jee
##سه
##bral
##f5
##fw
##fus
##ку
##ெய
##லை
##시
##ො
##°e
##erver
anj
##itat
##isht
##alu
##arius
##asian
isk
##llis
whiny
##utra
forks
forwards
##amish
##champ
sury
orion
orph
##opedic
shq
shab
shri
shipped
shrine
##urus
##uria
mehr
neander
chast
cheng
fren
unarmed
##akak
##esses
myg
##abal
byron
byrd
##unky
##uncle
dishes
willfully
trunc
pricing
##osphere
peg
outre
timet
##endi
##enda
approp
feathers
##bermann
intric
discord
newt
spie
spies
##ansa
polanski
guate
##aaf
grabbed
plains
workplace
recurs
recieve
muh
scur
##actions
genghis
copa
niggan
corne
deficient
topology
booty
boils
specs
lawn
schn
schum
longtime
farc
charming
comeback
##boxing
##110
avengers
bitchhitlers
1890
communion
caffe
memph
misf
misled
researches
classifications
godwin
surrey
surfaces
terrain
testify
awake
shortening
appreciates
breached
##istical
tai
salem
##ictionary
validated
##iliation
empress
derbys
bulb
negate
encarta
ethno
literacy
##estering
casts
##ihi
sunset
##likeit
designate
grandmaster
heavens
precurs
forehead
taxation
pleasing
screening
darling
365
fuking
hasnt
biochem
ashes
dangers
##ايل
sinclair
galactic
mccoy
wwf
tripod
doctorate
mikey
ferr
resistant
##iyar
gentiles
skeleton
downloads
subtitle
schedules
ivory
chuckle
andythegr
ricardo
chopra
prosecutors
sherlock
dressing
vegetables
clanak
##ogenesis
fulfilling
intimidated
enlightened
colonialism
yogi
ascertain
leonardo
##brook
optimistic
inferiority
exceeds
catalonia
blessing
cursed
cursing
lemme
shifts
extermination
induction
antagonist
relaxed
barbie
lunchables
rituals
cardinals
tyrann
##racuse
schmidt
perez
anecdote
sorely
climbing
sarajevo
overdue
neighboring
router
##omorphic
relocated
##fuckfuckfuckfuckfuckfuckfuckfuckfuckfuckfuckfuckfuckfuckfuckfuckfuckfuckfuckfuckfuckfuckfuckfuckfuckfuckfuckfuckfuckfuckfuckfuckfuckfuckfuckfuckfuckfuckfuckfuckfuckfuckfuckfuckfuckfuckfuckfuckfuckfuckfuckfuckfuckfuckfuckfuckfuckfuckfuckfuckfuckfuckfuckfuck
abdullah
capitol
coincidentally
##journal
shittipedia
wikihounding
protagonist
lexicon
krugman
viriditas
upanish
insofar
میشود
episcopal
fagcjcurrie
flaccid
1lol
ail
dus
dudes
eis
eta
fitted
hue
hicks
ike
jws
kac
krem
mv
mage
nfc
ouch
omissions
pension
rationally
svet
vy
vault
wd
yom
حتى
وت
जन
আর
সা
##ement
##eze
##rences
##aul
##wire
##يس
##lain
##lied
##kf
##oes
##লা
##fur
##fork
##4c
##ду
##ضای
##தி
##ಂದ
##ಗಳ
##ვე
##━━
##orpor
##anan
##enary
##enham
anita
##itations
toast
##leigh
inland
##utta
notre
##owe
##idation
arame
##adian
##iper
orlady
hels
shod
##estine
##urian
wast
wastes
mee
nema
chimp
ataturk
aloud
ung
editted
ada
##ulic
##loh
##elong
gos
faux
fucky
knots
outed
apprent
maniac
##oodle
##irez
spice
sparta
blockade
assas
planted
##onda
loans
regurg
##ggg
brake
##activity
opus
marl
cret
yearbook
considerate
emm
##ologic
invoked
biologists
incess
realities
##beg
##ocument
monks
agreeable
endang
##rrr
##which
certifications
untuk
watt
raids
harbour
solitary
publicized
unsolic
median
depressing
geological
protections
glou
compliments
trol
calton
annie
civilizations
erad
diarr
elective
angular
originator
##ylalany
breakthrough
snook
cecil
academically
purposefully
starter
26th
hearings
##headed
fishy
sadistic
painter
designations
indexed
##lllllll
##inguishable
##اتی
hahah
shotgun
macmillan
berber
berbers
dubrov
announcing
melting
bombay
execut
mutation
cabin
1926
850
leslie
miy
categorically
attractions
doctoral
ronz
helpless
discouraging
constantin
virginity
otto
goddammit
flynn
yahweh
fictitious
danielle
freddy
estimation
misrepresents
crisp
infinites
##ridged
reproductive
elaboration
gardner
hunters
hrw
##jhg
##2008
navigational
marcos
##handed
registries
shouted
fetus
barbaric
dresses
amateurs
persuaded
matthews
##glutaminyl
tempting
temptation
spaceship
architects
wiping
predominant
baldwin
scattering
dramatica
memoirs
laurent
hassle
laziness
usurped
genealog
##layer
hijacking
##ொழ
cypriot
hendrix
soliciting
reinforces
reprinted
brittanica
carbuncle
pozdra
cogent
dudley
laureates
##lysyl
wicca
europa
baffled
##zdick
ديگه
indisputable
nehru
regulatory
thumbs
knowledgable
##yncratic
nefarious
biodiversity
portfolio
espionage
nigganigga
derbyshire
andythegrump
480
akk
dpl
dahn
ether
ett
f2
g7
g3
gome
ggot
hra
jop
kow
kew
kier
kgb
lomb
nga
pike
pug
puk
viel
wong
zab
ни
توان
مف
ول
گذ
گیری
हम
##mish
##roup
##cons
##1b
##hus
##pw
##xs
##xter
##μεν
##ငး
##ωσ
tox
##islav
ingen
##oton
##omics
##vez
oni
##agara
hait
##ayat
cone
congreg
##imed
##olism
hehehe
shrug
shaking
##ilic
comrades
alar
##anderson
abi
##ppo
sohr
usda
##abouts
##ifiability
##inkim
##emar
##rax
##ardly
##lach
agk
aging
moor
upsetting
outward
outfit
tee
tehran
appalled
verbi
##berra
coa
coats
intifada
discard
repaired
offs
imposter
##sss
lookin
loot
muk
somone
sinhal
chechen
tryna
cori
corrid
engages
takeover
sheets
entw
welt
crore
followup
numeric
mustang
endure
imports
ipad
1896
badges
extrat
mischaracter
harp
posse
clover
mindful
##ooooo
teresa
governors
##insider
paternal
sanders
##bson
rupe
brooke
23rd
equating
2500
الف
الل
trodel
##eeeeee
unfit
philanth
malo
burger
gaff
silenced
jeal
volta
devised
countered
rfas
augustus
naj
trey
finale
maple
##ecies
combustion
garrett
khoras
preventative
##affer
preca
codex
goldberg
digress
lays
درست
competitor
sensibilities
brainless
macau
thoma
dubai
rudely
microp
melon
ashlee
blindness
halluc
spotlight
mahara
observable
observatory
egos
foxnews
terminated
axel
nikki
nucleus
chaotic
flattering
cracker
cracking
consultant
forbids
molly
lyric
earnest
cubic
prophecies
dynamite
strengths
defaults
domesticated
choir
withdrawing
whitney
concealed
kilometers
chopped
fallacies
witches
vandel
مسیر
pagina
enlightening
dreadstar
havoc
hierarch
transcendent
recruited
optimal
jerem
keyboards
ruthless
wikicomm
masked
patrolled
unwillingness
dfdfdf
wsj
ostensibly
elderly
endeavour
genealogical
devotees
refreshing
tearing
falkland
lahore
petersburg
gypsies
dichotomy
##bbbbbbbbbbbbbbbbbbbbbbbbbbbbbbbbbbbbbbbbbbbbbbbbbbbbbbbbbbbbbbbb
striving
suprised
disadvantage
hormones
spatial
epidemic
nitpicking
skiing
tampa
fundraising
anachronistic
crucif
stunning
vh1
zzzzzzzzzzzzzzzzzzzzzzzzzzzzzzzzzzzzzzzzzzzzzzzzzzzzzzzzzzzzzzzzzzzzzzzzzzzzzzzzzzz
mclaren
piotrus
wandering
kuwait
abnormal
gillespie
finkel
infallible
##uevara
##esnse
unpreced
fatigue
deconst
joshuaz
nuremberg
dwelling
gtfo
flimsy
enslaved
unanswered
merchandise
aspersions
luxembourg
unsolicited
verbiage
sinhalese
zzzzzzzzzzzzzzzzzzzzzzzzzzzzzzzzzzzzzzzzzzzzzzzzzzzzzzzzzzzzzzzzzzzzzzzzzzzzzzzzzzzzdick
aes
awe
bz
cid
cess
ela
egot
fdr
gently
guevara
hms
jod
jared
kag
kib
kav
lass
lending
liability
mous
mtr
ohh
oto
vhs
wim
witty
xeno
yh
ziv
де
خبر
دون
سن
उस
धरम
भी
मद
##m☯
##mur
##afe
##coph
##nia
##wol
##sl
##lm
##kr
##িস
##ره
##bil
##fp
##ρι
##دف
##நது
##दा
##રા
##☺m☯
##══
##erb
##edit
##enas
##arra
##otch
##lyon
##entz
##entry
nothin
##amon
congregation
dewey
weiner
wasim
ifd
chil
unl
ungr
unidentified
abel
exch
canberra
pog
##rio
leve
fae
fuckface
amg
amber
whoop
##ogative
##ograd
becas
##pta
reminis
infom
appra
coerc
intake
newfound
consume
spook
##anson
polo
underest
offences
belitt
recuse
recomb
overweight
desi
lov
gense
##owns
##athinkim
hoes
##ullah
speedied
monograph
##kken
attacker
flush
nonense
detention
enduring
nora
transgress
##nnn
newsweek
communal
caf
violently
behead
handing
colorful
lawful
projected
medved
dickless
prizes
protector
skins
undef
milosevic
rupert
##teenth
broker
occuring
glowing
epa
homogene
todays
capric
nonsesnse
convict
##script
##prom
edmund
hitter
##uyen
lima
gaia
collar
##oby
##1111111
scholastic
duel
duchy
wankers
sockpuppeteer
courtney
260
shutting
economies
babyl
jericho
sunt
hopping
tenets
winded
samaria
samurai
listeners
koz
priorities
khaz
trusting
imaging
marketed
grammer
plead
protested
dirk
stalked
##koj
deepak
modeling
conformed
bolster
laughs
hacks
dreaming
##holds
ghaz
nomadic
axiom
coded
##office
volunteered
skyline
trainer
ppv
stockholm
tipler
disappears
djathinkim
pinch
wolfkeeper
struggles
ninet
1898
lithium
marginally
tidied
##iryu
corpus
witchcraft
wmd
masons
collaboratively
majors
advisable
cvu
vitri
adhering
slipper
admirable
canceled
##agnon
disparate
exterior
cruelty
alexandrov
toxicity
mystical
wikidata
jamaican
crops
gloria
fenian
abundant
gdansk
anticipated
betrayed
schmuck
northwestern
anomaly
czar
##ahahahahahahaha
dukes
##aaaaaaaaaaaaaaaaaaaaaaaaaaaaaaaaaaaaaaaaaaaaaaaaaaaaaaaaaaaaaaaaaaaaaaaaaaaaaaaaaaaaaaaaaaaaaaaaaaaaaaaaaaaaaaaaaaaaaaaaaaaaaaaaaaaaaaaaaaaaaaaaaaaaaaaaaaaaaaaaaaaaaaaaaaaaaaaaaaaaaaaaaaaaaaaaaaaaaaaaaaaaaaaaaaaaaaaaaaaaaaaaaaaaaaaaaaaaaaaaaaaaaaaaaaaaaaaa
gypsy
epsilon
mossad
spherical
کردن
##ｄｄｄｄ
unintentional
раз
##film
вики
##asparaginyl
squirrel
riaa
gullible
autobiographical
clifford
energies
winnipe
mcdonalds
wrongdoing
uttar
nonexistent
کالبد
indistinguishable
debunking
amerindian
starbucks
canterbury
memphis
djathinkimacowboy
0c
2pac
320
5b
aces
aap
ayy
bilingual
epp
fus
fidd
fission
g13
ions
ivo
kus
mls
nand
oval
pave
panc
pino
paddy
rie
rath
ripe
ruther
vogue
wut
wint
οτι
στο
خدا
وب
ور
وج
گف
सत
কি
არ
##das
##data
##voc
##aires
##tn
##800
##gm
##gro
##lio
##lja
##مد
##oque
##zia
##ucci
##jester
##ران
##াক
##fre
##factory
##6y
##عل
##με
##со
##ാണ
##าก
##شته
##жа
##ги
##ələrinə
##गा
##지
##★★
##inence
##onians
##ativity
##orah
##anor
##aluable
invert
inverse
##arg
##rement
rewards
asho
std
stain
stare
stature
##amos
sez
deja
degrade
##opolis
heels
##estock
chod
attic
fric
abeed
exeter
canis
usher
allison
##rail
someplace
##lod
##loss
lep
lezbo
##herty
pew
##ogly
##cliffe
##ritt
spew
##izm
##ussian
cobb
cohes
##ismo
accust
spore
spine
spank
sparks
spoof
everest
readd
assurance
loch
scent
deflect
defec
##avier
##otechn
emma
emmy
redsh
invaluable
autor
biographer
webb
crass
hoy
genera
placebo
noteable
termination
mapping
mono
##type
filho
metam
##hoe
arguable
rests
slag
drm
situ
tracy
trauma
generalizations
hume
severity
barriers
sket
skop
skunk
patt
paterson
standardization
undec
quota
denounced
waq
256
##unders
##hawk
annals
malware
actuality
holod
cellular
proposes
275
tilde
investing
stargate
georget
randi
sunk
danzig
toolbar
investigative
democracies
koje
awarding
porngay
immaterial
felony
goldman
akram
conductor
peerage
##burger
##ersonal
cantor
bono
commercially
ensuing
mixes
##points
fansites
shooter
nicolas
butthead
handsome
ramirez
franca
praising
quantitative
exceptionally
accomod
zealots
##666
میکن
sequitur
hiphop
concentrating
chronologically
##ridges
tuned
jelly
mongoloid
adjustment
diploma
##smith
##ابل
wolfe
aleks
assembled
assigning
alcoholic
zaire
stereotypical
emperors
selena
vigorously
accelerated
tatars
slipknot
exceedingly
undermines
sustainability
jealousy
aesthetics
monopol
sixteen
trixie
تاث
deployment
falklands
pamph
مسيله
kshatriyas
mimic
blacklisted
hysterical
maharashtra
##ssssssssssssssssssssssssssssssssssssssssssssssssssssssssssssssss
##gggggggggggggggggggggggggggggggggggggggggggggggggggggggggggggggg
lmfao
imbecil
melanin
wifi
bukhar
usurpation
flavour
hoffman
astrot
melodic
خواه
receptor
postponed
millenium
pretense
uncovered
piston
تمام
stefano
remembers
permissible
unequivocally
formulas
allocated
rhyme
bogdanov
unquestionably
proclamation
unauthorized
reincarnation
exponential
disliked
rajasthan
##wwwwwwwwwwwwwwwwwwwwwwwwwwwwwwwwwwwwwwwwwwwwwwwwwwwwwwww
yusuf
unlawful
موضوع
unprecedented
11111111111111111
340
720
aide
baked
bounce
faint
huck
ihr
kale
mits
ova
pint
sere
slic
sark
zzzzzzzzzzzzzzzzzzzzzzzzzzzzzzzzz
ελλ
об
пе
ون
रह
##iing
##cn
##table
##nad
##نى
##litz
##kc
##اط
##oct
##uß
##حت
##رض
##3r
##िल
##کرد
##зи
##ــ
##atma
##orps
anast
tott
##isations
##review
bez
##idon
arit
arising
##ikoua
stoo
stump
##igent
##amily
sunnis
##agel
##eston
##estan
##iru
##ilations
wass
nee
neatly
chili
##akash
adal
##ulators
excommun
poe
##anton
enact
imf
worcester
disheart
justifications
tripe
quitting
prisons
##009
outset
manusc
consoles
savi
intersect
##cien
preempt
undergone
indy
afp
##cedes
##ahi
##assi
grotes
informally
parole
clicks
clones
pha
vandalizes
twink
ids
idont
obar
##aching
plaza
##issue
emerson
invites
schon
entails
cran
orgy
sms
understandably
checkusers
stricken
##ocent
titling
argh
flown
flanders
fairuse
explaination
charm
metrics
guidlines
1812
badm
causal
rae
misusing
##redited
##iero
harrasment
##anyahu
oppressed
moriori
swapped
1700
humbly
barel
fourier
shortcom
diffusion
tae
waward
homies
##arkand
complied
lively
judiciary
maggie
magyar
holdings
semiprot
preferring
electroly
##dfh
lightgray
netanyahu
##heed
independant
fanatical
270
cybers
##ughan
turnover
sampling
religiously
recommending
splend
westerners
arguements
immunity
arrests
parkway
alexikoua
integers
roller
conformity
mongering
nerdy
defendant
curiously
wilderness
umar
environments
1909
favours
ganging
##liga
bedford
orthography
proceeds
finishes
customize
odin
masquer
emotive
aliases
bhad
calculating
tempered
montage
pmanderson
celebrations
victorious
gurus
sectors
##laspart
hebrews
analyzing
interacted
roskam
wavelength
savings
coincide
crusader
reconc
romeo
##harto
ludwig
bernie
discrediting
knocking
harrassed
kilomet
barbarians
loudly
##cccccck
sophia
shapes
pierce
dreaded
marshal
obstacles
tosser
tossed
disproven
tinh
bluntly
lumped
##rillas
supremacists
diligent
sniping
hermit
oranges
vinyl
fenway
cheerle
mundane
aurang
hijackers
anticipation
##ylglutamyl
brainwashing
reinforced
epithets
pistols
trinidad
asperger
martyrs
diabetes
spheres
theologian
##america
##ღ♥ღ♥ღ♥ღ♥ღ♥ღ♥ღ♥ღ♥ღ♥ღ♥ღ♥ღ♥ღ♥ღ♥ღ♥ღ♥
swatjester
scribble
panties
الذى
haunted
[...]
