[PAD]
[UNK]
[CLS]
[SEP]
[MASK]
!
"
#
$
%
&
'
(
)
*
+
,
-
.
/
0
1
2
3
4
5
6
7
8
9
:
;
<
=
>
?
@
[
\
]
^
_
`
a
b
c
d
e
f
g
h
i
j
k
l
m
n
o
p
q
r
s
t
u
v
w
x
y
z
{
|
}
~
¢
£
¤
¦
§
¨
©
®
¯
°
±
²
´
·
¸
½
¿
ß
æ
þ
đ
ħ
ı
œ
ƒ
ɾ
ʑ
α
γ
δ
ε
η
θ
ι
κ
λ
μ
ν
ο
π
ρ
ς
σ
τ
υ
φ
ω
а
б
в
г
д
е
ж
и
к
л
м
н
о
п
р
с
т
у
х
ц
ч
щ
ъ
ы
ь
я
љ
א
ב
ג
ד
ה
ו
ח
י
כ
ל
ם
מ
נ
ע
פ
צ
ר
ת
ا
ت
س
ط
ع
ف
ك
ل
م
ن
و
ي
چ
ڜ
ڬ
ڰ
ڵ
۞
۵
۸
ۻ
۾
ݓ
ݗ
ݜ
ݟ
ݡ
ݣ
ݭ
ක
ත
ඳ
ර
ව
ᛏ
ᵽ
–
—
‘
’
“
”
„
†
•
…
⁄
₡
₨
₩
₪
€
₭
₳
₵
№
™
ℳ
⅞
←
↑
→
↔
↨
⇒
⇔
∂
∆
∇
−
√
∞
∫
≈
≤
⊕
─
╟
╢
╦
►
◄
★
☎
☏
☥
☭
☺
☻
☼
♠
♣
♥
♦
♪
♫
✄
✉
✋
✍
✎
✽
❝
❞
➨
⟲
ツ
妈
学
影
惑
武
永
烂
的
竜
絡
者
臭
見
訣
迷
連
龙
．
ａ
ｃ
ｋ
ｌ
ｍ
ｎ
ｏ
ｔ
ｗ
𒁳
🏼
👍
💩
😂
😄
😊
##e
##r
##i
##t
##o
##y
##g
##a
##d
##l
##s
##c
##b
##u
##k
##h
##m
##w
##p
##n
##v
##f
##q
##x
##3
##6
##z
##8
##7
##9
##2
##j
##5
##1
##4
##0
##↑
##←
##↔
##∂
##™
##פ
##ת
##ח
##י
##ם
##ъ
##е
##б
##─
##╢
##❞
##ل
##ي
##ك
##م
##α
##ı
##ל
##ד
##´
##♫
##©
##۸
##ݗ
##ۻ
##ݓ
##ڰ
##ڜ
##ڬ
##✉
##м
##ත
##⅞
##δ
##¯
##ο
##ι
##ε
##д
##и
##р
##ч
##н
##а
##τ
##υ
##σ
##ς
##о
##т
##у
##æ
##☭
##☺
##☻
##€
##с
##к
##я
##►
##∞
##®
##²
##♥
##♠
##♣
##±
##≤
##₨
##¤
##₳
##מ
##♦
##№
##♪
##ה
##ב
##ו
##א
##✎
##צ
##ר
##ا
##س
##ط
##ｏ
##ｍ
##ʑ
##ρ
##ɾ
##ж
##г
##→
##و
##ف
##ن
##½
##∆
##∇
##⟲
##★
##⇔
##ω
##😂
##в
##л
##ь
##ݟ
##ݣ
##ݜ
##ݭ
##۵
##ݡ
##ڵ
##چ
##щ
##◄
##↨
##😊
##љ
##ß
##λ
##η
##ν
##μ
##ג
##ｗ
##נ
##₭
##ы
##κ
##ц
##¢
##ℳ
##ƒ
##ħ
##þ
##₵
##₡
##🏼
##ර
##ඳ
##ｎ
##ｔ
##ａ
##ｌ
##ｋ
##ou
th
##er
##in
you
##at
##on
the
##an
##ck
##ed
##it
##or
##ing
##es
##en
an
##ll
##is
##ar
to
##uck
##al
and
of
##re
in
##ot
##as
##le
##om
##ic
is
fuck
re
wh
be
##id
##se
##ve
##st
##ig
##ay
##ut
##ion
your
on
##ag
##ad
##ow
it
##et
##ik
st
sh
that
as
##ch
##ent
are
for
##oo
##ly
##am
##ld
he
ha
me
not
##ill
##ver
##ce
##ur
##ct
##th
se
##ia
##op
do
##im
##un
##ip
##ith
pr
##ha
my
##ir
##ol
##ist
##all
this
##aa
di
##ate
##and
##ere
de
##ock
##ers
##us
with
go
wik
ch
##ak
have
##ra
##ter
##nn
fr
##il
##ew
ass
at
##ust
##haha
com
was
suck
so
ar
con
##ww
##est
all
we
##ess
am
don
##up
##ul
##edia
##igg
##ant
##ation
##um
##os
##ike
but
ab
wikip
##ht
##ould
un
shit
##age
sa
bl
nigg
what
or
##ty
##ain
like
can
wikipedia
##ard
tr
fag
will
mor
ad
ed
li
off
##sel
who
##out
##el
al
us
##uy
##pe
by
up
fucking
en
said
no
le
nigger
##ack
##ight
from
19
##fuck
kn
##au
som
if
ne
pro
##oun
edit
wor
##ast
##self
just
##ie
##ab
##her
##got
##ive
get
##aaaa
##ment
ex
ag
pe
##ank
about
##itch
know
##ian
faggot
##our
##ink
##unt
##ish
hate
##nnnn
any
they
##ally
##ort
##ong
yourself
bec
##cc
bitch
##alk
##ause
gay
dick
su
##ost
##art
##ity
##ous
##uyuy
##ake
##tyty
##one
his
peop
##ge
page
some
out
##ff
##end
##ri
fa
pl
##00
people
die
##ite
##em
##tic
because
cunt
sp
##wwww
##for
##ro
one
im
##ue
has
##ull
cock
##sh
fat
block
artic
talk
##ame
##hahahaha
199
cont
##ap
##day
##ark
##oug
##ime
jew
##ud
##ies
moron
##min
##ven
##let
##der
man
##ell
##ase
##rap
##ee
why
##ry
##ice
##ick
cl
##ther
did
##itt
ever
there
new
tw
ye
id
##ber
br
hi
##oll
##ood
how
##ich
would
lo
##ind
##upid
sex
dis
##iv
##fe
want
##other
admin
res
##andal
again
been
##bs
##ead
ra
vandal
##ism
pen
##hing
think
af
user
##fuckfuck
##are
stop
##port
had
##man
say
##ound
here
stupid
hom
were
##ole
should
sup
##gg
article
comp
when
sc
##iz
qu
##ub
##pp
##ine
##ble
gr
##ree
wr
##ond
##ans
wiki
##ions
1996
att
fir
##od
##ook
##uss
##ial
now
##ass
over
per
sucks
##ts
##ov
more
##ose
bull
other
their
##own
##ated
time
delet
pers
which
##iot
right
##ious
##ang
pig
year
cr
##oy
then
##aaaaaaaa
##ens
##shit
##ings
##nnnnnnnn
##if
pol
act
being
person
idiot
##ence
##ned
##so
does
sec
##ough
acc
##ual
war
int
penis
##ple
##ure
after
10
only
rem
see
ban
them
##pt
##ids
##uyuyuyuy
even
##tytytyty
##les
kill
life
every
08
than
##ath
assh
him
##head
cocks
first
##crap
ser
##wn
##crapcrap
##ore
bullshit
add
##ide
##ah
ball
its
make
12
jo
sm
call
ind
also
##ect
ple
##cl
inter
##oc
##wwwwwwww
##uu
hell
##reat
wank
back
ve
going
min
good
##ile
##oth
dont
po
##way
comm
##ade
##ors
asshole
##ary
sl
te
pre
##ting
mon
bet
please
day
wanker
##iss
15
##ance
##og
##ace
her
##ool
balls
20
##sex
need
##ire
##pl
fre
bark
under
vandalism
##eep
ret
bas
too
##ittle
real
well
two
op
little
##ac
##33
eat
##go
look
##ning
down
##ey
bad
11
post
bel
work
try
los
old
##ach
##ount
mar
really
aids
mat
##ict
she
fe
may
##qu
mother
world
way
##ves
##az
pie
##ib
##int
par
ver
##outh
care
dam
##ages
##land
own
spe
##ob
##ces
read
##ult
play
dr
##aking
##umb
##ope
##able
tell
##form
piece
##fore
won
fact
##ave
##ory
##thing
##ral
ref
##ical
cocksuck
##ina
##oobs
attack
bast
##rat
##av
take
such
mu
nip
hey
nipple
bastard
keep
##inal
ter
##hahahahahahahaha
##cent
comment
ll
##11
22
##pect
14
##fuckfuckfuckfuck
super
guy
##ove
##ign
##ason
hit
dickhead
last
bus
give
##ug
##mm
17
##ft
cons
big
##ations
##pr
before
nothing
##ps
where
come
##cy
shut
che
rever
16
##we
nor
gu
fucker
put
edits
##olol
could
##ican
still
21
hu
into
ph
fl
##illion
never
des
god
##ix
##act
state
##ord
sin
against
damn
13
##ek
str
part
let
##rib
second
##ced
sour
##ler
##ists
blocked
##ower
24
report
freed
very
butt
love
##by
inform
eng
vi
cle
somet
##uth
faggots
ins
thank
freedom
18
##ied
##ales
loser
dumb
##ocks
cent
made
##ving
##nnnnnnnnnnnnnnnn
co
##amp
ob
rel
##cks
##oop
##aaaaaaaaaaaaaaaa
use
cor
##ates
##ke
##ational
much
got
##ild
##oss
##ise
rul
disc
news
twat
el
most
fucksex
##ident
000
##ction
yourselfgo
##ubl
since
##kk
oh
pres
def
information
23
week
##uyuyuyuyuyuyuyuy
rape
retard
amer
##akes
##ody
##read
inc
beat
##tytytytytytytyty
200
app
##ons
##ians
mark
##ition
anything
something
ma
reg
many
hel
huge
ev
ro
head
homo
name
25
##crapcrapcrapcrap
car
those
gen
dog
##na
##ange
editing
##ude
##iously
##ually
##ese
mess
must
##gn
sw
##ute
ste
fun
##less
##ier
these
##ester
delete
ger
##vis
someone
##xt
articles
long
em
##10
##ollocks
mean
##tt
##ved
reason
##oooo
##esday
thr
cocksucker
dem
end
tur
show
sch
##als
##wwwwwwwwwwwwwwww
personal
##tered
word
million
ear
hist
##20
lick
rep
rules
ap
lead
anal
##iday
bun
##ert
things
while
##urs
poop
##ating
##ames
didn
##be
wrong
##ful
la
offic
moth
##ited
better
ir
bo
##ote
##igh
##tc
##ork
gover
##ail
##ject
##rh
three
##ash
years
hitler
##bo
##icans
start
##ever
run
dou
sim
inv
around
fool
remov
german
govern
intern
thing
happ
##ym
same
##bl
har
##vi
##rect
buttse
ign
another
##ought
rac
buttsecks
making
##jer
trying
puss
doesn
##ban
diff
percent
pages
win
##ress
ant
mex
ur
ask
##vers
mothjer
find
##ped
told
##ister
belie
hope
wat
##ward
del
friday
##ns
##atur
stand
org
##blem
aust
power
prop
##ense
bitches
clear
ac
conf
##ents
government
fgg
administ
fggt
link
30
list
met
problem
banned
##get
leave
rom
##war
pussy
bar
admins
##ph
contin
commun
dec
our
contrib
feel
form
noobs
rec
brit
28
##uct
##ention
doing
site
grou
cur
##etic
bush
##use
thanks
discuss
crap
count
point
##bag
##hh
##ics
guys
##ults
bi
bastered
cour
police
##per
place
##rain
small
mo
threat
##vision
russ
##stand
china
lol
##ities
seem
path
##cept
##ne
san
##ily
inst
##you
naz
fin
assad
administrat
hal
##2010
help
child
wom
official
called
han
##iend
inf
thurs
##ica
thursday
##ok
match
##rr
##bur
##ny
anyone
ru
##uuuu
open
jer
mil
##ship
sy
revert
##med
friend
cap
refer
else
##ider
hand
lat
yet
cla
##ize
##aug
actually
secur
pathetic
##lf
deal
away
understand
ignor
##of
heil
ip
sur
free
##ton
american
##ma
retarded
##lish
sing
##ome
without
face
##uc
char
hum
sub
##ss
##ets
bre
president
##body
##che
month
history
live
##fuckfuckfuckfuckfuckfuckfuckfuck
ho
##ney
blood
terr
27
pa
##vel
complet
added
through
26
boobs
da
##osed
nice
tim
##cial
black
##ibal
contribut
claim
##ying
##olog
left
##io
results
##bab
next
four
iss
group
##ony
crim
gl
##oot
fuckin
mexicans
warning
##911
chr
##ollow
ok
sal
##iet
chang
saying
##3333
bot
high
##ague
both
##oron
##ween
austral
hanibal
##911you
hanibal911you
net
six
done
sexual
racist
cal
great
incl
between
##uff
security
col
##ible
##ste
offfuck
##ccer
##bert
joh
red
soccer
follow
eur
wed
##ird
expect
##ublic
cre
31
fart
national
sor
sure
##olololol
50
cens
##yp
ele
unt
29
imp
fan
ang
far
support
ent
criminal
kind
##seless
mus
jim
south
##using
niggas
central
ju
satur
change
york
##its
det
arg
enough
expl
##ivil
bollocks
alone
polit
consider
complete
game
##ently
jewish
yeah
##ific
marc
##ones
allow
maybe
quest
obv
saturday
air
hard
ill
prot
users
useless
account
watch
bur
ext
inde
##ways
##ready
fil
leg
already
sexsex
set
##gar
##ased
home
opin
tot
source
deleted
htt
men
terror
##ars
isn
prof
##nnnnnnnnnnnnnnnnnnnnnnnnnnnnnnnn
auth
boy
oth
coll
full
ann
ide
##eral
##arch
resp
##cycl
division
viol
others
##pet
smell
71
##rael
##umm
used
israel
says
comput
deleting
believe
sorry
##str
truth
censor
##eg
white
best
##red
meet
self
prov
fail
ox
sun
troll
league
196
remove
editors
##aaaaaaaaaaaaaaaaaaaaaaaaaaaaaaaa
##cyclop
mind
##led
top
comments
gir
tra
english
##block
##south
es
might
sk
thought
##ital
probab
notrh
champ
notrhby
sock
##te
##banof
##southbanof
notrhbysouthbanof
##oof
nazi
##uyuyuyuyuyuyuyuyuyuyuyuyuyuyuyuy
##ized
differ
wedn
probably
den
wednesday
68
ath
wa
yes
##ham
whore
sources
##tytytytytytytytytytytytytytytyty
bor
wp
##key
##ative
anc
##ither
polic
http
piss
##wh
##ner
##ather
##rew
num
100
rest
encyclop
mal
##ness
death
arr
plan
##ember
poin
maj
until
bill
sign
unblock
lond
ge
##ins
fore
city
##lly
anti
europe
40
ah
##ised
everyone
curr
london
found
seriously
view
##crapcrapcrapcrapcrapcrapcrapcrap
sit
ara
mom
sad
span
cocksucking
author
repe
continue
oxym
hou
lost
oxymoron
less
##iness
chester
##ending
mur
##att
##ared
gi
val
instead
computer
gon
##used
cra
dir
round
##oph
statement
lot
##ures
germany
half
##dd
##iting
prick
true
using
bunk
administrator
fire
arse
douche
##steve
##ament
party
reported
women
criminalwar
##ically
##hahahahahahahahahahahahahahahaha
bunksteve
utc
##ient
having
worth
country
cup
fight
##hahaha
appe
aug
bum
##ling
##erd
editor
##ech
shith
##ield
times
games
sent
##any
##idd
ital
##istan
##atever
prod
contr
market
major
bab
cha
fam
pet
##ret
exp
jun
##uring
christ
sick
##ular
afr
motherfuck
##bel
whatever
message
70
hour
pict
##ann
stay
import
term
##wwwwwwwwwwwwwwwwwwwwwwwwwwwwwwww
makes
ta
write
question
75
##ont
correct
few
final
tu
##anc
mem
cunts
marcol
bank
opp
##br
arm
jerk
er
internet
mitt
##ger
##he
##vent
robert
romney
bag
miss
wales
guess
law
includ
marcolfuck
##81
requ
jews
##uk
##ices
##ards
attacks
opinion
spanish
##air
third
team
bloody
med
##cunt
always
minister
points
gonna
pass
##ply
job
vict
though
##ately
agree
wrote
days
ey
##yr
##gr
##ution
stuff
##ially
played
ps
pat
##me
##zen
tomm
australia
eff
dirty
bu
king
webs
image
check
human
ahead
case
due
##cal
once
removing
1967
##cuntcunt
##cer
##igned
dead
least
##ives
respect
homel
girl
tuesday
##con
talking
pret
five
##wer
##nia
av
book
cow
ira
poss
takes
seen
cop
son
vis
##nings
england
test
getting
tommy
main
rele
united
brad
school
homeland
jack
pal
##joy
champion
ancest
lang
##ided
dep
whole
67
cant
pun
sem
##ants
loves
##mann
everything
clearly
arrest
prom
enjoy
grow
##rup
cheese
house
murder
iraq
jap
mos
ug
##res
##li
##kj
cann
interest
fack
vom
calling
john
06
civil
either
##ja
##ency
sever
france
trad
##press
encyclopedia
mong
rid
bit
##ren
##ium
##utes
happen
dip
non
sus
##ison
##aster
stud
peace
japan
69
dra
fur
ya
##uppet
ago
sugg
disg
monday
smells
mis
abs
scor
discussion
tommy2010
vomit
suggest
shar
proof
##ush
chick
british
securityfuck
00
coug
dude
pos
##aw
##cess
##king
cuntbag
took
cougar
bro
cert
##xual
beh
idiots
number
geor
hor
hair
wikiped
adv
killed
sn
##mat
##und
##ewh
obviously
langu
lar
##22
##ench
beg
beha
##aken
cond
business
##augh
athe
##ues
##ats
anth
##ising
close
crit
kur
##ines
##llll
##idence
##iable
##osexual
35
fal
##lam
youb
north
ignorant
idea
54
public
##ility
august
youbollocks
pak
edgar
address
words
ancestry
vag
##ences
means
sept
section
blocking
facts
political
tit
##ball
##thern
vegg
drink
total
website
coun
dist
pay
##ietales
##rupt
veggietales
32
bud
cause
during
egg
spok
##oooooooo
removed
dest
##181
seems
##bury
nh
near
general
certain
33
bra
gre
summ
##bt
##ama
trans
reading
democ
course
anthony
edgar181
ancestryfuck
hur
##tr
##nis
##oney
fav
hello
former
july
ugly
fired
201
brain
cut
est
mov
##ks
##ping
ans
invest
harass
russia
several
ble
hyp
jes
port
tour
##uz
order
homosexual
past
##eng
canad
bunch
protect
chicken
65
fell
shot
##ments
company
qual
serv
aw
mad
based
international
delan
foreign
38
base
##son
lies
##ief
##empt
60
dav
pop
##ior
##ane
##ana
##raph
accept
following
atheist
taking
##ined
##arn
states
issue
cali
elect
move
tab
##ring
##to
islam
##anda
unc
along
anyway
compl
russian
language
delanoy
45
##bb
##asc
liber
##ocr
reverting
sunday
baby
award
came
ton
##s2010
soon
##rhs2010
policy
nhrhs2010
califor
mention
night
rap
##rick
##room
joke
hold
european
bal
##tain
##ered
##ator
##omb
##eeee
poor
matter
false
vagina
46
mouth
however
officials
further
gave
west
##nes
uns
licker
terrorists
spokes
ben
hon
mum
##ago
iran
angel
explain
allowed
different
side
##fro
##orn
thats
above
nigga
content
deser
pakistan
california
72
fut
##ired
wasn
britain
threaten
george
53
rather
ull
##lex
aren
hours
goo
lim
mot
mod
ped
##lim
ce
rice
##ys
quite
bradbury
ullmann
money
nons
##omin
recent
##ands
shitfuck
wanted
minutes
friends
picture
behind
##frozen
96
##stem
phil
cannot
ber
##ott
##oted
myself
trip
##selves
198
##ries
lik
##ii
##ified
needs
retur
happy
milit
boo
swe
wish
##side
##ites
direct
adm
##itten
centralist
61
cult
camp
jones
##stupid
chic
level
quit
simply
listen
record
important
behavi
hypocr
centraliststupid
86
fall
mr
mer
que
##lo
##ale
shall
minor
##33333333
family
je
##ged
##oles
fair
contro
messages
dut
exist
##aper
##fect
system
entire
chicago
66
ca
econ
mag
vir
##ai
orig
known
##izing
##ubn
##view
children
##mao
september
taken
wow
##lier
coming
tried
speak
asked
control
econom
73
bother
each
sense
##bn
##ining
##ract
##ument
gets
scum
weeks
given
##ng
season
evidence
##fuckfuckfuckfuckfuckfuckfuckfuckfuckfuckfuckfuckfuckfuckfuckfuck
paul
completely
85
lmao
##iel
##ether
abusing
uni
blank
intell
strong
newsroom
earlier
italy
mongo
42
74
bigg
##gle
##gress
##bers
##amm
note
press
##ended
months
expected
repeat
nonsense
stick
cred
spec
standings
##struct
##attle
june
answer
64
dare
gar
##co
##icul
fix
nerd
##more
##96
today
short
dicks
dumbass
##hhhh
motherfucker
weak
grand
regard
##zz
french
exam
log
prev
##aving
subject
gree
kore
whether
##ides
abuse
##ished
deletion
started
later
##olololololololol
44
gra
low
##mber
stre
##ander
deb
organ
threats
rule
kar
ment
ten
##line
forever
spain
wonder
arab
request
complain
ke
yo
##ley
rebel
decl
und
posted
break
##nnnnnnnnnnnnnnnnnnnnnnnnnnnnnnnnnnnnnnnnnnnnnnnnnnnnnnnnnnnnnnnn
current
absol
spokesman
mass
##earch
##han
##unch
const
##pec
diego
research
propag
destro
kid
##par
leaving
written
march
contributions
76
eth
goes
class
result
##mmmm
invol
links
34
56
uk
##yn
fucked
liar
attempt
court
cry
mic
##ten
supp
himself
serious
telling
appar
funny
single
fasc
jud
pov
rad
went
##ta
##ka
##ional
##aged
##ung
demand
coward
title
##iculous
pur
##full
##aaa
concer
project
exc
relig
obs
adding
##aaaaaaaaaaaaaaaaaaaaaaaaaaaaaaaaaaaaaaaaaaaaaaaaaaaaaaaaaaaaaaaa
wait
including
cit
etc
fed
##ds
##0ll
held
exact
belg
seconds
insult
##uyuyuyuyuyuyuyuyuyuyuyuyuyuyuyuyuyuyuyuyuyuyuyuyuyuyuyuyuyuyuyuy
48
biz
##tf
##que
social
talks
common
supertr
##tytytytytytytytytytytytytytytytytytytytytytytytytytytytytytytyty
supertr0ll
bond
tem
##ep
##vant
##hero
india
tele
text
bbb
##tp
##gy
##23
##ouch
##ured
swed
capital
meeting
espec
55
squ
##com
##uel
##anhero
yours
oper
##acy
##achanhero
##wards
info
wikipedians
bleachanhero
david
absolute
especially
cost
jan
sort
##aids
##uction
town
repl
able
learn
race
36
rub
##py
##put
prime
nobody
##ender
posts
aidsaids
matches
muslim
oppos
mid
van
www
##cut
##cast
##ued
##tyth
accord
freak
partic
failed
##crapcrapcrapcrapcrapcrapcrapcrapcrapcrapcrapcrapcrapcrapcrapcrap
visit
aff
dat
line
stra
rights
desc
newsp
##ology
ridiculous
##ewhite
##tythewhite
41
98
##ya
##ara
##ume
##http
##anks
reliable
proper
shithead
democrat
47
lab
sound
##ria
##ted
##over
##inc
anim
waste
outside
working
##1111
##kkkk
possible
championship
hairy
##bed
##ories
##rove
drop
corp
90
ep
kick
##oud
##amed
trade
lie
desp
##burg
hat
nl
union
alm
bitchmat
##rog
##ission
republic
biased
shares
bitchmattythewhite
cy
land
pick
##lin
##alus
##illy
##ury
##ula
##ffff
local
writing
worthless
##hahahah
disgust
##ci
##va
heard
front
comes
##ump
##itting
bring
perfect
republ
reverted
critic
future
google
buy
cool
lower
rob
vol
##ij
##itive
##itions
dear
conv
attention
woman
members
eyes
pretty
eas
fine
##ges
clint
screw
looks
confir
daed
sockp
##fully
ck
mart
##ric
unless
except
become
spend
wants
series
##ograph
looking
northern
##medi
military
destroy
clinton
daedalus
fig
mist
sol
tre
##cil
##uary
##lling
##ots
area
seven
minist
watching
62
dan
names
pain
treat
vs
##ef
##yy
##iter
##arter
reut
repr
seed
franc
immedi
wouldn
##ify
action
##aced
evil
palest
likes
58
77
79
band
billion
##ife
##anna
##haps
chin
actions
minute
##33ers
phot
##wwwwwwwwwwwwwwwwwwwwwwwwwwwwwwwwwwwwwwwwwwwwwwwwwwwwwwwwwwwwwwww
dipshit
honest
nl33ers
59
occ
sou
inj
haah
##imate
arrog
unf
accus
turk
community
##uuuuuuuu
shithole
##969
49
yaaaa
yaaa
##ris
##dy
##ms
##erial
toget
##ream
##thy
gold
remain
steph
censorship
together
aut
hole
wtf
##dam
share
wel
##anta
niggers
##cccc
perhaps
##ensive
playing
early
respond
jesus
example
almost
haahhahahah
creat
##oid
##nitch
haven
construct
worst
##iving
secret
speech
biznitch
daedalus969
97
ty
##old
##fer
shoot
##hael
##ista
indian
eats
reference
extre
propaganda
99
bomb
foot
gun
nat
sen
##ration
##olf
suff
monkey
roman
moder
changes
annoy
57
80
95
alex
cat
date
east
sand
##cow
##aring
stalk
priv
within
frank
##antly
lif
neil
##rior
##itted
##ploy
##estern
leading
created
victory
43
cz
lack
##oke
stock
##though
choc
exper
disrupt
activ
defin
communism
african
favor
reuters
mill
tv
##my
##onse
shame
living
although
om
doll
##rible
remember
##obos
moscow
##ricket
according
52
ak
cou
cricket
##aff
##uing
##ene
##lled
##ows
shitty
saw
##ounts
pens
material
special
metres
detail
michael
exactly
straight
chocobos
94
bat
lying
mult
pull
##iam
##bi
rece
sold
anymore
reply
simple
metal
okay
##cuntcuntcuntcunt
##jaja
fu
gone
late
##ox
##zil
##ida
dece
accur
decis
bias
##velop
37
51
typ
wanna
western
##field
##zer
##erv
##ering
arb
1995
##ode
##lands
object
##where
africa
large
brazil
sweden
disgusting
palestin
500
81
eight
walk
##rop
##bkj
##otes
knob
parli
##aught
##ledge
kurd
apparently
chinese
63
bong
kiss
mc
mine
ut
##set
##oops
died
develop
##ersh
faith
brown
vandalize
claims
colle
israeli
czech
39
vista
##af
##po
##fag
##zy
thous
force
prison
dev
scient
belong
flo
##rrrr
protest
announ
product
deserve
ministry
repres
##liz
##ators
##omp
rev
##ooo
goals
##ilar
web
agency
shouldn
otherw
related
problems
salt
obvious
profit
effort
sockpuppet
parliament
cro
fly
hol
rate
sales
##uq
##page
thom
tom
chance
attend
changed
valid
draw
canada
controvers
dutch
original
univers
fc
fffff
kong
vide
##uts
##illa
price
washing
knows
cuntliz
disp
meaning
leader
##warrior
communist
burn
78
87
hong
ken
nation
none
rv
sil
uuuuu
##iens
##gin
innings
##ado
##aman
search
lives
prove
##ford
quarter
peri
slap
response
tax
biggest
hot
pct
pne
song
vers
wick
##ross
asian
office
neut
ground
##ova
cover
administrators
latin
campa
tennis
ethn
newspaper
despite
82
dri
lad
media
ze
##tle
##come
##uation
##fr
stat
star
chula
assoc
trou
edited
##berg
remark
shows
tonnes
supposed
period
ba
hop
midd
nomin
rude
sat
sir
tar
train
wall
##yle
contact
vandalizing
acting
serb
ended
##box
issues
australian
totally
position
intellig
washington
05
wit
##iki
haha
##tern
frigg
atl
worse
club
closed
indust
preced
clean
box
deli
finally
effect
bongwarrior
bos
hoo
rot
rich
touch
##ih
##yst
separ
##nnis
##nniens
##ulation
blow
spread
pennnis
parents
phuq
road
turn
##nsn
##nsnniens
appear
##llllllll
rebels
absolutely
pensnsnniens
pneis
pensnsnniensnsn
equ
gives
os
oct
silly
##ience
##tl
##ky
##fan
##ager
tru
##shire
norm
emb
apolog
douchebag
fighting
christian
suspect
return
fer
##boy
##uv
##ming
##reed
review
##chn
prices
unl
express
themselves
chech
ruining
references
repeated
certainly
hurt
liberal
previous
greek
data
uuuuuu
neutral
campaign
apr
light
mut
rock
##iff
##ax
young
notice
##vert
educ
putting
investig
credit
stephen
der
laugh
##row
##urch
##ateg
chink
alleg
##riate
ident
##ifying
itsuck
loss
players
america
born
##hehe
unsigned
behavior
##kkkkk
associ
ccccc
fif
gam
var
wife
##erely
##usive
##ived
indiv
posting
runs
countries
create
index
views
army
girls
elections
body
hig
##cing
##alth
##oting
forget
blah
##anger
assholes
2006
longer
decided
changing
nether
color
argument
minorities
republican
07
fit
kk
puppet
send
##la
##kn
##pend
##ston
##etime
heart
mel
sucking
quoted
needed
cents
appro
event
nazis
surpr
election
music
immediately
neiln
preceding
individ
netherlands
cam
cast
laz
##ugg
##lect
##ades
hear
haw
notable
doc
##uses
knowledge
thinks
board
across
belgium
particular
describ
arrogant
lifetime
rvv
individual
cas
fake
giving
kkkkkk
led
ow
oil
pot
rose
uu
##iding
##istic
defe
chief
church
troops
process
##itely
images
##ualt
teach
realized
attacking
step
infl
##astern
street
excuse
bbb23
represent
cccccc
cody
nas
porn
sam
wing
##oice
##bage
##book
##uge
##ince
##itude
##aries
##ald
##reg
accused
prem
defend
americans
legit
psy
involved
democratic
extreme
dollar
college
83
##ls
##erence
##ino
##atic
##ulate
likely
licks
neg
mann
indones
mont
drug
gener
earth
charact
crack
iraqi
floor
higher
##idel
##unk
##olic
art
knew
gayfrozen
##riend
commission
##ftime
couldn
incre
reasons
halftime
garbage
opposition
ethnic
aver
cath
luck
nations
tag
##ees
##els
##eless
upon
quick
##ensus
accounts
paris
turned
irish
illeg
baseball
regarding
december
april
bang
cum
dict
fem
mcc
publ
sle
signed
##ius
##nd
thread
anon
towards
##igm
##oool
##lym
donkey
edie
gayfag
##ival
##ibly
refuge
present
hands
##oots
considered
airport
authorities
happened
begin
sweet
university
friggen
fra
hos
host
ire
wind
##da
##wiki
##otst
##ico
##olution
arch
conn
bully
throw
##what
##annon
economic
##otstoots
mate
mister
##ron
##kf
##men
##za
##jg
##ati
##enced
reach
forces
havent
alb
cline
##iva
thinking
compet
slow
flor
cares
sweep
loloool
provide
authority
avail
otherwise
ireland
dad
gm
kh
##lom
##face
itself
##usion
cuntfr
father
scott
topic
2013
babywhat
fascist
thousands
cuntfranks
bow
cir
hang
jas
kids
poll
rand
vote
##ters
##de
##bour
##nbkj
##jack
##ination
andre
##eter
shannon
heav
##ille
##race
exch
agreed
strike
steal
analyst
ignore
indeed
member
criticism
wtc
##uce
##pir
##qual
##iger
##ipe
##usal
##ains
enter
agend
somebody
warnings
techn
consensus
region
standards
austria
film
build
depart
service
turkish
zeal
middle
psych
bon
eastern
ham
jose
nic
##ras
##lav
##ota
##iced
whe
##ster
enigm
brought
wars
sched
histor
leaders
daily
crazy
relevant
jackass
tourn
radio
templ
type
decision
available
enigmaman
89
ain
fuk
hide
##iubn
##mer
ones
##urb
##ctor
##racy
##ourn
##ried
spam
216
useful
weekend
conference
barn
improve
situation
victim
summary
purp
09
300
84
np
ren
##rid
##ram
##oul
##edic
style
##oose
##ively
personally
killing
everybody
tex
doubt
similar
groups
miles
independ
##dddd
sentence
peter
welcome
hosp
circ
dust
key
lou
mast
##ev
##iers
##oon
##ging
##ki
##work
##ona
##ored
##reci
##ipp
trust
whose
contract
wont
144
showing
didnt
decide
paid
profess
fellow
squad
confirmed
trouble
normal
bt
mun
mol
##tub
##ober
##pic
##ances
##enm
##ett
forced
overs
actual
slight
fund
demon
double
contribute
captain
##ssss
pictures
nearly
debate
annoying
palestinian
controversial
version
october
agenda
tournament
ahahahahahahahahahahahahahahahaha
cited
dave
fel
james
lion
pound
sri
youre
ing
ash
pract
convers
##ulting
william
##iano
spot
spics
##ization
polish
addition
goddam
carry
##ification
legal
respons
punk
##222
canadian
mods
admit
accusations
multip
attendance
lazy
average
cuz
err
km
kike
##tim
##itor
##itute
##isation
fucks
bye
idiotic
realize
revers
##board
singles
entry
italian
chair
agreement
diplom
began
services
##3333333333333333
##nnnnnnnnnnnnnnnnnnnnnnnnnnnnnnnnnnnnnnnnnnnnnnnnnnnnnnnnnnnnnnnnnnnnnnnnnnnnnnnnnnnnnnnnnnnnnnnnnnnnnnnnnnnnnnnnnnnnnnnnnnnnnnnn
january
southern
details
thomas
truly
92
cust
dar
fill
lank
named
olym
push
##off
##fat
##ero
##ery
##inn
stink
stated
shove
forum
among
##ccess
hijack
disag
cross
basis
##inted
speed
asking
include
##ophile
released
horrible
##oooooooooooooooo
##olololololololololololololololol
mental
latinus
jasenm
ahahahahahahahahahahahahahahahahahahaha
jasenm222
yel
##cr
##uit
##ker
##iny
##arian
##aliel
goal
soc
blind
trash
morning
197
exe
##ishon
##oston
1997
huh
ignorance
farted
terrorist
terms
drawn
virgin
utter
video
repeatedly
gamaliel
misterwiki
exchange
boston
nine
sake
ul
##bish
often
##lem
##sey
##star
##uty
##aded
stage
story
wasting
cong
blog
somewh
##ables
##ability
##rod
1994
brother
stupidity
poland
slop
##ratualt
mua
coach
approp
appreci
jerusal
glad
jimbo
eye
arrested
council
behaviour
##fuckfuckfuckfuckfuckfuckfuckfuckfuckfuckfuckfuckfuckfuckfuckfuckfuckfuckfuckfuckfuckfuckfuckfuckfuckfuckfuckfuckfuckfuckfuckfuck
korea
korean
martin
francis
catholic
hospital
##ratualtions
jerusalem
battle
dig
gee
hind
sar
##ask
sell
dive
save
195
plac
raid
smart
##ogn
reports
##ooper
latest
settle
difference
majority
advice
mentioned
##aaaaaaaaaaaaaaaaaaaaaaaaaaaaaaaaaaaaaaaaaaaaaaaaaaaaaaaaaaaaaaaaaaaaaaaaaaaaaaaaaaaaaaaaaaaaaaaaaaaaaaaaaaaaaaaaaaaaaaaaaaaaaaaa
##uyuyuyuyuyuyuyuyuyuyuyuyuyuyuyuyuyuyuyuyuyuyuyuyuyuyuyuyuyuyuyuyuyuyuyuyuyuyuyuyuyuyuyuyuyuyuyuyuyuyuyuyuyuyuyuyuyuyuyuyuyuyuyuy
##tytytytytytytytytytytytytytytytytytytytytytytytytytytytytytytytytytytytytytytytytytytytytytytytytytytytytytytytytytytytytytytyty
kurdish
hawking
refugees
800
nar
nick
njg
rang
roy
##cong
##err
##ays
hack
##essed
amst
fuckingab
morons
clos
therefore
quote
##tsin
159
strik
regular
email
antiv
propos
fourth
##iety
angry
pissed
included
angela
bonds
accurate
bongwarriorcong
yeltsin
njgw
fuckingabf
bongwarriorcongratualtions
01
gg
yooo
##oe
##pg
##ips
##aked
assume
offensive
whoever
##ablish
prevent
reality
hits
centre
employ
##bled
boys
currently
##hahahahahahahahahahahahahahahahahaha
##erdam
avoid
disgrace
county
harassment
qualif
angeles
animals
couple
unlike
threads
zealand
sloppy
amsterdam
dark
lame
lunch
vill
##mark
##erve
##utt
yourselves
##imes
##antic
enc
progr
export
plans
accusing
warned
##bye
2009
winning
facebook
collect
violation
trading
##aughter
establish
awardhttp
##eeeeeeee
culture
##crapcrapcrapcrapcrapcrapcrapcrapcrapcrapcrapcrapcrapcrapcrapcrapcrapcrapcrapcrapcrapcrapcrapcrapcrapcrapcrapcrapcrapcrapcrapcrap
remarks
btw
muahahahahahahahahahahahahahahahahahaha
antivman
93
91
cash
jfor
master
oi
park
pure
ram
##dan
##wa
##name
##ena
##alal
div
chuck
##uments
ord
blocks
lose
score
##ansas
attitude
basically
water
confl
##bags
##oronto
policies
mission
books
japanese
uncivil
hypocrite
undo
illegal
jforget
bul
cand
ga
hus
journ
toronto
##hi
##ipt
arri
##ained
##goti
looked
118
losers
chris
skin
##yright
copyright
favour
##ography
lady
gmt
bir
card
fast
jord
jail
nut
ol
sym
vuv
##fl
##orm
##rel
##icult
##eth
deg
deep
##aker
##elas
##ably
imm
manager
##gggg
##idents
2007
turkey
starting
bestfrozen
provided
trolling
forecast
arafat
green
harassing
##uzelas
threatening
cease
disruptive
atlanta
hawkinghttp
vuvuzelas
field
lu
pow
##uced
##eds
##ulations
blat
negoti
aggress
clown
compan
indic
goodbye
slut
featur
2005
markets
carl
emp
difficult
recogn
opening
questions
chall
students
positive
movie
iranian
motor
queer
kept
##tlas
fifth
purpose
02
bay
food
hill
lock
pus
yank
##tm
##fs
##inger
##chester
health
##ctions
##iment
proud
##ulated
peoples
plus
spir
dise
dism
penal
guerr
248
insist
showed
##bootstoots
mexico
traff
billj
signific
##ophob
motherfucking
raped
federal
television
perfectly
constructive
deliver
lolooolbootstoots
department
npov
appropriate
400
bob
cub
dom
danger
hund
opt
pan
ri
wide
##nse
##vember
##cel
cancer
november
age
##ribs
space
scr
crow
slov
##icted
drag
letter
incom
sannse
contribution
network
deter
value
semen
estim
basement
recently
religion
religious
##11111111
honestly
private
announced
louis
francisco
jordan
hundred
fle
hes
jpg
kidd
mach
tired
##dp
##how
##wan
tool
online
##ading
##ety
##oos
meant
choice
##ili
truck
lebed
194
success
imag
clue
loc
vandals
banning
##irect
busy
phys
insulting
corrupt
steve
running
finan
judge
rubbish
mistake
nomination
nasty
extremely
indonesia
fraud
qualifier
cooper
iv
ry
sens
wer
##rass
##back
##word
##ini
##reen
##aging
staff
##ipped
concl
whats
libt
neither
worry
##ortun
contribs
access
hero
works
keeps
reporters
filter
opinions
sites
##cessary
##wwwwwwwwwwwwwwwwwwwwwwwwwwwwwwwwwwwwwwwwwwwwwwwwwwwwwwwwwwwwwwwwwwwwwwwwwwwwwwwwwwwwwwwwwwwwwwwwwwwwwwwwwwwwwwwwwwwwwwwwwwwwwwww
status
legitimate
florida
congrat
equal
fis
hun
jump
nate
pomp
yr
##por
##nj
##itzer
fuckbags
##secut
##ayed
hahaha
##ola
abusive
trial
191
##astic
sport
factual
flight
coast
launch
##nya
champions
1967fan
punish
enjoys
scores
buddy
islamic
limped
intellect
secretary
arbit
##ership
chechnya
various
colorado
texas
financial
libtard
du
gang
ris
rates
tight
wal
##dom
##lol
##ern
inn
island
reven
fred
amaz
upset
becom
dicked
perm
career
drive
conserv
conspir
inside
singap
ahmed
moment
production
democracy
received
target
education
document
anonym
society
journal
slovak
04
ale
fans
kansas
merely
niger
rug
##iest
##gj
##asure
whom
pray
prim
##upp
enem
anybody
diss
accuse
prefer
below
##ibility
229
212
defending
incor
filthy
plane
possibly
brok
specific
industry
owned
heavy
cab
categ
domin
dream
gor
ian
jon
jul
rank
wim
##ros
##oil
##uch
##val
##ature
##esome
##ened
##ession
amount
offer
spl
interview
workers
attacked
##mmm
guidel
glob
failure
skill
moslem
scored
madrid
figure
football
typical
wickets
association
character
masturb
pompous
singapore
rugby
88
bed
gas
rod
sister
uh
##rd
##pts
##ita
##itution
##ari
##lear
##idge
noticed
dole
##ira
##erson
amb
##anted
alban
prost
fac
imma
crime
serve
join
prec
speaking
keeping
defence
appl
room
##gnb
continued
finland
argent
appears
study
movement
benef
epis
intelligence
dictator
goddamn
multiple
lanka
execut
eh
egy
hung
laug
rh
range
zuck
##ex
##rian
##oh
##sp
##pin
##ners
##07
##inary
##oned
##asing
stories
forward
##ulf
##oslav
##sels
env
neo
firm
107
interp
bastards
guil
irre
politics
track
appeal
kurt
jeske
queen
logic
romania
##jajajaja
connect
##kfnj
template
program
conflict
egypt
aim
caught
hates
mix
nin
rain
yug
##dney
##cra
##fkj
ther
##esh
##arm
##icit
bey
bea
bell
##adel
##ils
plain
spent
calls
feed
damage
ready
##pson
flag
sometimes
2008
##ashed
couriano
childish
sydney
border
ancient
origin
croat
album
yugoslav
3rr
cos
golf
kr
mike
roll
##right
##iser
init
onto
##adem
asse
##ential
##amb
seattle
##una
##osiubn
blue
became
impress
contain
disap
##ubns
hellor
teen
worked
227
happens
communic
claiming
detro
arguing
male
laws
medical
horse
budget
jeff
virt
muslims
unfortun
##cuntcuntcuntcuntcuntcuntcuntcunt
negative
analysts
custom
disagree
powers
companies
bure
hen
mount
na
rw
rat
tel
tough
yen
yell
##yer
##bor
##uan
##ikh
##imin
##raine
butth
upd
##apped
manage
manner
twice
afg
supre
scot
scumb
warn
warring
everyday
consum
reverts
##action
reporting
switzer
academ
listed
##phia
##lfriend
charges
subm
girlfriend
##hamed
giant
susp
aware
philadel
massive
concern
labour
disease
determin
guidelines
detroit
scumbag
switzerland
philadelphia
bout
lord
ron
rab
rise
wood
##rated
##fire
##enc
##isf
##real
shown
congress
usa
spending
gross
wrest
##iction
spell
norris
lets
mail
foolish
believed
friendly
redirect
farm
indef
##hahahahahahahahahahahahahahahahahahahahahahahahahahahahahahahaha
password
growth
conduct
quality
baltim
limited
economy
ukraine
easy
defeat
barnstar
bulgar
baltimore
htm
mir
mah
numb
pg
pack
paper
tony
##do
##down
##kee
##wau
##fa
##letic
##icy
fucky
##ada
##char
fort
##ande
##iles
190
proven
userpage
stopped
screen
seeing
##pton
jok
insert
century
coal
mostly
register
helped
##viet
milwau
charge
contributing
highly
##stein
expert
interesting
broad
##mature
conditions
##ength
magaz
affair
hatred
dispute
somewhere
lunchables
incompet
conspiracy
irrele
milwaukee
03
1lol
bes
bid
dun
dishon
hy
ips
pu
rout
sitting
till
za
##ti
##td
##dad
##ule
##mon
##mad
##wr
##well
##pa
##xx
youtub
##atives
##oria
##ador
sucker
##igger
abd
uses
uplo
sudan
##force
##udi
manchester
displ
raj
##ift
108
committ
player
164
insane
180
schol
winner
mexican
barcel
ruin
charl
followed
explan
violence
traders
tabulate
bald
declared
constantly
citation
animal
stalking
efforts
alleged
beginning
olympic
royal
candid
dismiss
anonymous
beyond
youtube
barcelona
foc
gro
hunt
il
oak
pants
tie
##lig
##hr
theory
##ali
##ala
andrew
inch
stab
forg
##ural
select
suic
load
lovers
vandalising
compared
171
max
subst
holy
johns
argue
profile
numer
planet
moved
protected
threatened
fascists
belgian
soldiers
premier
sleep
chairman
bs
cite
eu
fant
gh
lb
math
natur
sant
##tab
##hole
##nian
##atory
##itic
reve
##ika
shr
##enty
##alled
soft
conc
offered
nose
suit
##apers
introd
##ugu
176
##prop
swiss
moon
bott
considering
extra
houston
lots
petty
scorers
pedophile
##hhhhhhhh
corpor
figures
##yyyy
##uuuuuuuuuuuuuuuu
definition
scientific
flying
bosnia
##llllllllllllllll
published
random
bonn
molest
filled
places
scotland
irrelevant
dur
jay
kl
kim
nb
pas
ros
##oit
##gan
##core
##bit
##hold
##wood
##nam
##ze
##jan
##inch
##enge
toss
revis
ship
areas
forgot
##ceed
##ires
##ussels
##usted
armed
saf
leban
192
agg
anywhere
brussels
vandalized
suppress
101
##ocent
##others
command
ways
spelling
179
insults
relations
incident
finished
helping
understanding
pair
sale
ideas
civility
broke
2012
levels
caused
mentally
citiz
##acedon
autom
senior
catch
frankly
felt
##uppets
afghan
committee
johnson
600
ach
boss
cking
les
mich
macedon
tend
zion
zim
##rad
##tin
##yl
##aq
##uf
##aled
##asy
##icious
##urt
chat
soviet
prox
##arta
##ously
1993
##mind
scared
quiet
##ension
##ahu
129
120
smok
minnes
matters
fear
febr
parag
186
retards
reasonable
finish
jersey
claimed
colon
##ummy
denied
planned
armen
missing
teams
summer
summaries
awesome
##zzzz
concerned
development
reached
scottish
conversation
responsible
hindu
crowd
kidding
interpret
##craft
bureau
minnesota
february
buck
bol
ggot
mac
santa
tal
um
ummmm
wil
zero
##rou
##ruct
##aur
##ware
##no
##fc
anus
##rey
##veland
##ipal
##estersh
advert
justice
dickb
1992
1990
##odes
##iful
122
interf
##oca
prep
##acity
eating
refuse
struck
cleveland
cold
232
headed
genoc
iron
racism
doesnt
standard
recover
capt
surger
supporting
jimmy
arguments
province
condition
##iiii
swear
hypocrit
bigger
particip
sounds
kicked
daniel
seeded
modern
definitely
satisf
witness
professional
settlement
orders
pushing
significant
##estershire
bare
ltd
ms
pic
rup
##time
##band
##jo
##ater
##esc
noted
notifying
assyr
alger
nov
necessary
##ieve
somehow
fault
manip
##ounded
##soit
intent
125
drunk
149
173
177
168
norway
210
130
acqu
meth
discussing
##ological
impro
juicy
esc
student
homosexuals
dropped
cyber
convention
photo
injured
stalker
products
holiday
richard
embar
surprised
drugs
female
mccain
wheat
appreciate
penalty
estimated
congratulations
guilty
dishonest
explanation
suicide
aint
ker
lin
lit
tan
veter
##gu
##ault
##bot
##ko
##hu
##night
##fu
thus
##ani
##arily
toler
stating
##aming
hail
##isted
assum
comb
weap
adam
ali
usually
progress
output
##ends
plat
1991
managed
brief
resign
homer
##assy
commer
142
sinc
250
bold
administration
milan
dealing
statements
maintain
homosexuality
popular
director
##ammer
insulted
costa
midfield
affect
destroyed
treaty
kenya
separat
separate
##hehehehe
montreal
independence
village
traffic
indefin
bottom
surgery
az
ego
ess
finger
hiding
jum
mak
rally
tyr
wid
##ray
##occ
##ye
##gest
##ape
##bar
##kins
##wor
thor
##isc
##ises
inning
##otic
##oman
reform
stuck
ashamed
##chan
hahahahahahahahaha
meats
##cell
pred
choose
##raid
wasim
##estic
##uled
fags
lived
##iance
##itts
grad
attract
perman
seek
serbs
150
basic
112
sourced
opened
syria
charged
fully
violent
waiting
##grade
interested
wikipedian
deserves
cele
returned
kidn
creating
constructed
nature
alexander
##rrrrrrrr
intelligent
##bledon
intellectual
incorrect
wimbledon
paragraph
hypocritical
1r
900
aja
gab
khan
ml
mull
tam
unn
via
##rin
##sd
##ux
##west
##ouse
stocks
meat
weight
trick
libel
excl
placed
##empts
##udes
lover
username
attempts
joe
2010
162
165
presence
apply
regards
dogs
emer
officer
dealers
territ
contributors
saliva
minded
##ground
678
investors
explained
organisation
omg
akram
embassy
generally
fundament
challenge
nigeria
broken
numbers
oakland
forgive
ummmmmmm
genocide
d3
daughter
gaz
nuc
pitts
rant
size
sikh
tor
tiny
##sc
##sen
##cj
##bc
##vin
##fb
youcal
##atch
##ancy
##anced
fuckw
##sec
##vey
##verse
sevent
unem
offended
knock
imbe
twit
homophob
overall
perform
accom
seeking
commit
monitor
145
engine
254
##tttt
laid
fools
hopefully
powerful
greatest
trolls
deny
famous
banks
declined
properly
millions
described
munic
cuba
skills
youcaltlas
unemploy
bands
cia
cinc
lay
lew
liter
ny
poo
sides
vo
##eb
##ket
##hdad
##ano
##itz
reject
shock
frust
##htaq
triv
willing
immature
brand
afraid
##soever
accident
slim
readers
refrain
terrible
146
consist
160
desk
139
obama
maur
harrass
believes
feelings
referring
ignoring
mushtaq
billcj
arabs
baghdad
require
release
largest
transl
population
liberals
directly
admitted
##burgh
easily
photos
occup
activity
cases
influ
historical
slightly
##innati
striker
exports
arrived
ceasefire
slovakia
nuclear
municipal
cincinnati
dah
dyn
fab
foul
gal
goof
hond
ice
jak
mood
pse
pim
purs
rip
sending
vent
##ointed
##des
##ho
##hem
##pool
##ville
##erable
##ases
##igan
##ampton
hav
weird
##uls
blame
ens
sue
spring
loving
active
106
##iley
172
relation
maher
heads
earnings
simpson
harm
curps
pointless
bio
breath
##babwe
calm
impact
tai
finals
oppon
erase
missed
medi
promote
distrib
brains
socialist
operation
9807
treated
injury
sandbox
croft
bosnian
identity
quickly
competition
schedule
scheduled
demonstr
birth
featured
domestic
dangerous
hundreds
weren
html
aggreg
zimbabwe
meatspin
ajax
pittsburgh
accompl
lewis
700
din
gall
lap
lind
lines
wre
##eous
##tard
##bly
##mother
##65
thro
heck
##the
doctor
pra
prix
allem
alive
altern
lear
neigh
proves
##abe
anyways
##rial
plant
##eman
complex
grade
bullying
persist
123
124
freaking
retired
basket
114
110
220
strugg
genital
turks
discussions
handle
surv
throughout
supported
isnt
violating
arms
pretending
advoc
counter
acceptable
controlled
magn
bothered
shortly
logical
replace
picked
nato
pulled
brazilian
announce
revolution
silence
apologize
allegations
increase
husband
category
global
beaut
zaire
##roux
pseud
taiwan
bog
bird
cree
doo
file
gb
gil
goth
gather
holl
hans
ive
jess
ly
nu
native
nuts
ran
role
sig
tun
tib
tender
yam
##eed
##eva
##yi
##gh
##din
##lk
##bach
##wers
##wich
##ni
##nik
##erc
##eria
##erves
fuckers
sees
prin
prior
dele
debt
chile
concept
unable
whatsoever
tries
morocc
lift
##abor
##ourse
##ortion
contest
##ifinal
intention
backed
slander
153
202
115
174
php
132
parts
defender
2000
events
251
irr
standing
linked
elsewhere
presidential
netany
supporters
politic
aircraft
terrorism
violate
thoughts
restaur
passeng
semifinal
ordered
accepted
dutroux
pressure
crying
citations
property
label
suffered
##ternal
industrial
investigation
approach
##dddddddd
pounds
##nnnnnnnnnnnnnnnnnnnnnnnnnnnnnnnnnnnnnnnnnnnnnnnnnnnnnnnnnnnnnnnnnnnnnnnnnnnnnnnnnnnnnnnnnnnnnnnnnnnnnnnnnnnnnnnnnnnnnnnnnnnnnnnnnnnnnnnnnnnnnnnnnnnnnnnnnnnnnnnnnnnnnnnnnnnnnnnnnnnnnnnnnnnnnnnnnnnnnnnnnnnnnnnnnnnnnnnnnnnnnnnnnnnnnnnnnnnnnnnnnnnnnnnnnnnnnnnn
geek
narrow
encour
negotiations
spirit
punishment
innocent
becoming
magazine
numerous
sincerely
celebr
allemande
passengers
aid
bail
duck
fol
gulf
hob
hating
kos
rog
ss
sum
wwe
wild
##gers
##ba
##hib
##pers
##qar
thick
##ato
##atically
##ores
##ening
##isy
todd
toky
##alf
##ombo
bear
##ette
hahahahaha
##illas
##uries
seized
##uns
##unity
princ
##hai
##istr
##usse
##iled
moral
usual
prosecut
spons
impl
hasn
##shine
1998
##approp
resol
residents
vandalise
##anged
105
156
209
postp
losing
tells
reflect
228
bigot
217
ruled
discr
genre
messing
wins
formal
curse
bible
colombo
wedge
nationalist
kindly
christians
buchar
websites
copy
budd
greg
protection
philipp
berlin
minority
nerds
volume
confirm
experience
building
carrying
##fuckfuckfuckfuckfuckfuckfuckfuckfuckfuckfuckfuckfuckfuckfuckfuckfuckfuckfuckfuckfuckfuckfuckfuckfuckfuckfuckfuckfuckfuckfuckfuckfuckfuckfuckfuckfuckfuckfuckfuckfuckfuckfuckfuckfuckfuckfuckfuckfuckfuckfuckfuckfuckfuckfuckfuckfuckfuckfuckfuckfuckfuckfuckfuck
##aaaaaaaaaaaaaaaaaaaaaaaaaaaaaaaaaaaaaaaaaaaaaaaaaaaaaaaaaaaaaaaaaaaaaaaaaaaaaaaaaaaaaaaaaaaaaaaaaaaaaaaaaaaaaaaaaaaaaaaaaaaaaaaaaaaaaaaaaaaaaaaaaaaaaaaaaaaaaaaaaaaaaaaaaaaaaaaaaaaaaaaaaaaaaaaaaaaaaaaaaaaaaaaaaaaaaaaaaaaaaaaaaaaaaaaaaaaaaaaaaaaaaaaaaaaaaaaa
##uyuyuyuyuyuyuyuyuyuyuyuyuyuyuyuyuyuyuyuyuyuyuyuyuyuyuyuyuyuyuyuyuyuyuyuyuyuyuyuyuyuyuyuyuyuyuyuyuyuyuyuyuyuyuyuyuyuyuyuyuyuyuyuyuyuyuyuyuyuyuyuyuyuyuyuyuyuyuyuyuyuyuyuyuyuyuyuyuyuyuyuyuyuyuyuyuyuyuyuyuyuyuyuyuyuyuyuyuyuyuyuyuyuyuyuyuyuyuyuyuyuyuyuyuyuyuyuy
##tytytytytytytytytytytytytytytytytytytytytytytytytytytytytytytytytytytytytytytytytytytytytytytytytytytytytytytytytytytytytytytytytytytytytytytytytytytytytytytytytytytytytytytytytytytytytytytytytytytytytytytytytytytytytytytytytytytytytytytytytytytytytytytyty
rangers
proposal
empire
argentina
ninth
yellow
method
seventh
aggregate
netanyahu
bucharest
1st
420
bod
dub
era
ka
pitch
rum
tast
vand
##ias
##ga
##git
##bing
##hic
##hol
##wick
##van
thug
##rection
beij
##sea
##agers
shiot
shoit
weather
wikipe
orient
liars
193
yea
bright
gramm
righteous
109
sla
damned
178
184
defense
reput
apology
##ighter
removal
handed
breaking
leftist
sixth
imposs
allowing
censoring
waqar
craw
appeared
produc
copper
punch
snow
bern
existence
##amming
fixed
greece
suppose
feder
accuracy
palestinians
holoca
deliber
osce
suspected
surprise
describe
##olololololololololololololololololololololololololololololololol
ult
guerrillas
risk
enemy
incompetent
scholar
natural
midfielder
territory
fundamental
beautiful
tokyo
beijing
holocaust
bought
cel
drove
ec
jac
kat
kil
pin
table
wang
##guy
##ui
##pan
##now
##40
##aro
##alous
haz
notability
##iah
##ipping
pron
dies
##raw
##osh
unit
saudi
leic
spin
##uded
moronic
brothers
##oyd
acts
joined
slam
opport
pieces
terri
141
170
parties
244
187
finding
##perate
singer
blacks
colomb
explos
annual
travel
malays
pointing
unblocked
craig
deputy
542
holding
directed
previously
organization
arabic
complaining
classic
teleph
newspapers
buying
##ijk
occur
belongs
covered
satan
eventually
##crapcrapcrapcrapcrapcrapcrapcrapcrapcrapcrapcrapcrapcrapcrapcrapcrapcrapcrapcrapcrapcrapcrapcrapcrapcrapcrapcrapcrapcrapcrapcrapcrapcrapcrapcrapcrapcrapcrapcrapcrapcrapcrapcrapcrapcrapcrapcrapcrapcrapcrapcrapcrapcrapcrapcrapcrapcrapcrapcrapcrapcrapcrapcrap
conservative
episode
executive
laughing
connection
jokes
dynam
alternative
basketball
fish
fox
ii
ling
lone
ott
oli
pm
pit
pity
ppl
ray
sid
tact
##rage
##ront
##yt
##your
##ae
##bre
##had
##nol
younis
##itarian
##orter
##reh
inapprop
reb
##igr
stead
sheep
##ented
meas
##ops
##oli
##user
conce
niggaz
alot
lev
##ffield
spart
clash
sexy
raised
integ
205
badly
113
sheffield
feet
cheers
166
insur
percentage
winners
proposed
moham
referenced
ignored
surr
greater
censored
denmark
encyclopedic
foundation
##idden
expos
required
kingdom
palace
semitic
tradition
tonight
859
radical
characters
errors
speedy
blatant
aggressive
##iliar
imagine
wrestling
weapons
grammar
bound
dh
gain
gwer
ko
kdp
mas
pc
puk
voting
##ioc
##hy
##mond
##jam
##cker
##eno
##aly
##rees
ina
bee
##aga
stan
##cher
##urd
sector
dild
withd
chann
##ila
##iling
wash
adj
adop
adult
alan
alert
knowing
subs
##emen
##forman
manuf
disl
##gged
scream
pigs
128
jobs
indians
vehic
poison
pref
119
belgrade
181
2004
ends
ending
licking
##ighth
racial
discussed
##chez
currency
mommy
exposed
medic
psv
pretend
jackson
##awa
georg
entirely
speculation
organis
complaint
constant
purch
convicted
mistakes
##iterate
occas
arrogance
remained
experts
particularly
publish
circum
practice
ranked
yugoslavia
mountain
besides
rajput
zionist
interfax
hahahahahahahahahahahahaha
unemployed
jakarta
relationship
impossible
telephone
manufact
bite
drew
eighth
gut
hous
jason
kab
kaff
loos
naked
pier
ring
rif
rational
rival
sine
socks
sets
session
tir
vot
vice
wann
##ru
##suck
##bank
##bles
##uous
##kin
##hood
##mong
##wijk
##vest
##17
##0s
##era
##orrow
##enn
##icate
##icial
fucken
revision
##ched
seat
dozen
##under
dee
##ockey
wikim
##ilt
##ews
sucked
safe
blast
ener
enforce
neck
##iev
gays
faced
spong
spoil
clar
resort
reserve
science
gras
crus
102
smoke
2011
111
owns
flame
##ords
182
ohio
stepp
boat
anton
continuing
feeling
sanchez
completed
detect
topics
esp
denial
boring
malik
arrange
worthy
lawyer
growing
futures
motiv
1984
hypocrisy
jean
jealous
maggot
regardless
wondering
constitution
bringing
seeding
responded
activities
##enez
objective
spreading
inflation
##bourne
degree
options
machine
cooperation
assem
virtual
unfortunately
butthead
academic
suspended
lebanon
proxy
dickbutt
honda
gwernol
ack
bin
dha
dance
map
mob
pag
pir
pac
sie
viva
wol
wolf
##een
##iat
##ien
##pedia
##pie
##friend
##94
##je
thai
##educ
##itors
##ashing
fuckhead
rein
remind
##sequ
##uted
stir
stol
hall
sea
##imum
##uny
prest
prince
##hall
##iro
##usia
chem
abused
unrel
sav
sack
plenty
spite
spoke
imper
conte
scandal
##izz
performan
##ovic
crash
serving
commander
committed
slav
##quir
verified
##rating
##avis
226
strateg
##ublin
252
apart
starts
beliefs
confused
administrative
helpful
ruined
surely
essex
mighty
malusia
##ophy
##bridge
includes
bugg
tests
interests
miserable
kurds
boost
subjects
attempting
cycl
solid
painful
driver
##ihih
potential
bangl
warsaw
independent
ashol
williams
digest
established
undoing
location
##wwwwwwwwwwwwwwwwwwwwwwwwwwwwwwwwwwwwwwwwwwwwwwwwwwwwwwwwwwwwwwwwwwwwwwwwwwwwwwwwwwwwwwwwwwwwwwwwwwwwwwwwwwwwwwwwwwwwwwwwwwwwwwwwwwwwwwwwwwwwwwwwwwwwwwwwwwwwwwwwwwwwwwwwwwwwwwwwwwwwwwwwwwwwwwwwwwwwwwwwwwwwwwwwwwwwwwwwwwwwwwwwwwwwwwwwwwwwwwwwwwwwwwwwwwwwwwww
launched
amazing
cabin
coalition
assyrians
restaurant
133
bry
batt
cd
dum
dublin
hook
kam
lis
lil
lul
loose
mall
pink
rost
rode
tort
task
va
vile
votes
wake
yield
##ilet
##yth
##gor
##lia
##lers
##cor
##cle
##cestershire
##bon
##mac
##np
##vd
##fd
##jj
##anny
##itation
##ington
##eness
ani
##ares
toilet
##omm
whine
beavis
stro
shared
forb
##oob
hapo
##ctors
sean
sections
##iron
##oline
gov
asses
ability
uncon
alright
##0000
wanta
##izon
persian
intim
killer
##athan
joint
commie
tea
parent
plays
drumm
refers
##ught
215
131
strange
185
deficit
appointed
emo
turd
rome
continues
##oked
survey
paed
crew
legion
profits
athletic
lesson
importance
opposed
checked
misle
suggested
protecting
rapist
balance
philip
speaker
apparent
democrats
hater
treas
francs
photograph
protests
expressed
melbourne
individuals
defeated
lucky
bowling
munich
##ssssssss
##33333333333333333333333333333333
yankees
river
scrot
split
programme
management
software
moonshine
lesb
veteran
commercial
indefinitely
mullally
neighbour
jessica
princip
prefix
##educated
banglades
hapoel
cair
dread
et
fought
gary
gains
hay
hilar
jam
kent
lic
length
mick
mary
mask
rou
rare
riot
tak
ven
vall
yester
##east
##rom
##oom
##gen
##look
##lkj
##car
##bkfnj
##ua
##kbn
##kgj
##here
##mas
##path
##nfb
##fgj
##fgnb
##jgnb
##jkfnj
##iner
##inform
##onia
##itis
##isl
##ario
beth
##agi
##agon
##etta
stad
stew
##ura
door
pros
##irtub
##istics
decent
deals
assert
##uster
wee
##umin
uneducated
##ela
usda
proved
##ounce
dickface
suc
##arted
##elli
brian
brook
##bsirtub
quotes
writ
overnight
persons
103
evening
204
verif
owner
##ava
termin
bigoted
163
guar
gods
##amples
ruling
discover
income
marks
heading
stefan
harry
mold
finance
caps
charles
##sson
contributed
highest
illiterate
denotes
pissing
chap
familiar
correctly
##ancing
checking
humanity
visited
prompt
##kjbn
traded
##undi
northampton
addresses
investment
awful
tonne
furthermore
pakistani
philos
##bnfkj
##ngkjbn
stronger
##structive
propagand
demanding
obsess
temper
##gyihih
costs
championships
republicans
easier
nl33ersi
unfair
##bkjbnfkj
tomorrow
driving
hopes
mutha
##knfgj
windows
##kfjgnb
slowly
##nbkjnbkj
##nbkjfgnb
forums
regularly
delivery
##1111111111111111
ryan
primary
uhbsirtub
prostitute
supreme
consumer
citizen
afghanistan
witnesses
taste
steady
acknow
cabinet
yesterday
##lkjngkjbn
##bkfnjbkjbnfkj
##kbnkfjgnb
##kgjnbkjfgnb
##jkfnjbkfnjbkjbnfkj
##gyihihlkjngkjbn
##knfgjkbnkfjgnb
##nbkjnbkjnfb
uhbsirtubgyihihlkjngkjbn
##kgjnbkjfgnbknfgjkbnkfjgnb
##jkfnjbkfnjbkjbnfkjnbkjnbkjnfb
uhbsirtubgyihihlkjngkjbnkgjnbkjfgnbknfgjkbnkfjgnb
uhbsirtubgyihihlkjngkjbnkgjnbkjfgnbknfgjkbnkfjgnbjkfnjbkfnjbkjbnfkjnbkjnbkjnfb
211
bah
cattle
dy
fo
fash
fuc
hated
holes
jet
jama
lg
lam
luc
nil
odd
ought
rud
rush
tone
voice
venez
yall
##ror
##rig
##rate
##rie
##rict
##iose
##iated
##iuny
##oity
##light
##case
##bm
##bol
##bie
##bnis
##nsoit
##vic
##zny
##erberg
##inder
##ints
##esa
##arus
andy
##otion
##oms
##ication
##stair
##stream
##utby
stub
sham
##chi
forth
##lying
hahahaha
notes
##hail
##hable
deport
cham
chel
##www
##osri
##osubn
unw
##aud
nep
justin
excell
bitchmother
##arters
plot
plastic
##ueyn
##shubns
clim
resour
##soiubn
intended
everywhere
slave
154
206
207
realise
117
married
matt
paran
verizon
spect
##prus
161
##weight
218
214
flat
134
letting
oblig
corner
234
230
weekly
cars
carried
laur
##boiser
racists
delus
feels
crappy
glass
johnn
boyfriend
billions
patri
mainly
advanced
movies
elected
tabulated
pedo
systems
##ubnosiubn
##ubnoity
##bnkn
##bnosiubn
streak
attempted
replies
cyprus
immediate
sharehold
responding
shooting
suffer
coup
##biosubn
kurdistan
scientist
wicket
training
chechen
approved
teacher
premium
throwing
hanging
entertain
wheel
##utybnis
carlos
fisher
arbitr
permission
ambass
albanian
precious
zuckerberg
##jajajajajajajaja
aimed
##fkjbnkn
##ubnsiuny
registered
affairs
dismissed
substant
revised
bureauc
kidnap
##lkshubns
reputation
opportunity
inappropriate
dildo
uhbsirtubgyihihlkjngkjbnkgjnbkjfgnbknfgjkbnkfjgnbjkfnjbkfnjbkjbnfkjnbkjnbkjnfbfkjbnkn
##ioseubnoity
##nsoitubnosiubn
##utbynsoitubnosiubn
##osriutbynsoitubnosiubn
##ueynboiser
##bnosiubnosriutbynsoitubnosiubn
##biosubnioseubnoity
##utybnisueynboiser
##ubnsiunybiosubnioseubnoity
##lkshubnsutybnisueynboiser
uhbsirtubgyihihlkjngkjbnkgjnbkjfgnbknfgjkbnkfjgnbjkfnjbkfnjbkjbnfkjnbkjnbkjnfbfkjbnknlkshubnsutybnisueynboiser
##bnosiubnosriutbynsoitubnosiubnsoiubn
##ubnsiunybiosubnioseubnoitybnosiubnosriutbynsoitubnosiubnsoiubn
uhbsirtubgyihihlkjngkjbnkgjnbkjfgnbknfgjkbnkfjgnbjkfnjbkfnjbkjbnfkjnbkjnbkjnfbfkjbnknlkshubnsutybnisueynboiserubnsiunybiosubnioseubnoitybnosiubnosriutbynsoitubnosiubnsoiubn
aud
bug
buff
code
gill
grain
guts
ku
kra
mig
nab
naught
nerves
noob
oval
pill
pedia
row
russe
sight
soooo
tong
vic
voc
wet
yu
##rol
##iy
##iant
##ios
##iya
##bro
##uable
##kova
##million
##win
thin
##erate
##edy
##oral
toward
##aya
##owed
item
stal
sher
shir
shyt
hearing
##iac
##opath
##ilities
##ework
asswh
##ums
aband
unac
unkn
blp
orange
trout
morris
knight
proced
##ounder
external
pee
plz
spr
idioc
bridge
races
quoting
bullies
10th
served
##eeper
116
##ques
guild
desire
138
engage
viet
183
gotta
##beat
mothers
antis
confront
communists
format
salv
entries
hardly
bored
restore
encyclopa
planning
contras
expand
jerks
promise
transport
moves
fairly
universe
streets
##puted
soul
moderator
moderators
receive
fukk
hoping
indonesian
increased
victims
diplomat
utterly
scoreboard
sympath
sensitive
conclusion
benefit
hungary
mixed
disappo
upload
sudanese
candidate
focus
grozny
fantasy
advertising
separatist
fuckwit
influence
federation
deliberately
hazel
wannabe
context
venezuel
paranoid
johnny
ambassador
russell
cere
coc
dim
dummy
hog
joy
kann
pile
sak
tas
tied
vin
vac
##rity
##iate
##don
##lan
##lad
##cas
##cile
##mit
##mar
##wipe
##woman
##nel
##nie
##noon
##oning
##ingly
ank
anime
rewr
storm
##entious
##entially
sep
selling
##istol
chill
assault
##ests
##antage
unq
unre
unch
blamed
##aine
leeds
worship
justify
examples
##rien
plo
spamming
##aph
click
resist
##ounding
supply
compreh
##ube
deletes
crush
indies
slaughter
203
frequ
belarus
feces
refused
lloyd
167
242
button
engaged
gotten
2001
regime
stands
linking
pointed
capacity
securities
caltlas
euro
504
anger
burundi
https
smelly
providing
sitush
contrad
babies
junior
bags
passed
semite
positions
advantage
criteria
publicly
moving
model
1989
cultural
falls
existing
paulo
massac
picking
solution
accusation
remains
suffering
thousand
devil
parliamentary
videos
equally
equival
femin
andrea
nicar
olymp
hijackers
##oooooooooooooooooooooooooooooooo
closing
widely
revenue
specifically
hungry
update
ronald
farmers
suppressing
rupees
moody
lonely
performance
cycling
scrotum
lesbian
stewart
succeed
guarant
chelsea
unaccept
idiocy
vietnam
bil
cun
cous
cook
doug
dork
dying
dedic
fame
fuel
hip
hence
hamp
ij
kell
lanc
nt
nam
naw
pole
rag
rots
sons
sque
tree
tits
yass
##rs
##aha
##har
##hman
##mo
##mouth
##mont
##far
##fia
##25
##inct
##organ
##lli
fucktard
reaction
whites
whining
station
stake
stood
store
stfu
shell
##ching
notting
seoul
goalk
chose
assass
sohail
alliance
##ulk
##umn
unp
trib
advis
##pelled
##ounced
agent
##rose
talkpage
contents
newcom
##ivity
compar
scrap
scrib
writes
pervert
crude
afternoon
pleasure
goods
158
157
##acing
222
partis
246
informed
relative
incivil
incred
beating
function
emph
governor
belief
delayed
##standing
surrey
retardedyour
issued
imposed
burned
extras
filth
sett
collap
##while
valuable
produce
contrary
imports
medved
built
mainstream
murdered
trader
absurd
paying
326
spokeswoman
deserved
queens
existed
bothering
credibility
decline
involve
concerning
obsc
obser
##ueless
replied
robot
romanian
experi
largely
walked
controversy
songs
serbian
boxing
effective
representatives
joseph
templates
additional
immigr
jpgsuck
croatia
pasht
improved
permanently
imbecile
homophobic
##ebob
##desk
morocco
sponsored
bernard
colombia
channel
voters
wikimedia
energy
spongebob
athletics
misleading
uhbsirtubgyihihlkjngkjbnkgjnbkjfgnbknfgjkbnkfjgnbjkfnjbkfnjbkjbnfkjnbkjnbkjnfbfkjbnknlkshubnsutybnisueynboiserubnsiunybiosubnioseubnoitybnosiubnosriutbynsoitubnosiubnsoiubni
naughty
antisem
nicarag
bak
cell
eb
gv
gur
gender
hart
hod
kg
kal
kkk
lyr
mand
nancy
od
pes
pool
pact
puppets
rick
rica
sought
tay
tap
vik
vind
waugh
x3
yard
yammer
##ez
##oft
##lor
##lines
##can
##ubs
##him
##wen
##99
##jud
##´t
##iti
##orf
anne
toy
##icient
fuckk
whit
beef
stance
sht
shout
##amir
##verted
##une
diety
fro
assist
suckers
soy
wear
unions
edge
edberg
liver
liqu
libr
offend
##elson
entered
nob
lect
##acks
edition
justification
##ours
faces
##lete
clueless
yeh
rail
suppl
scene
##inez
perpet
##oved
cru
104
kills
teh
maria
wayne
superior
cheap
strip
strength
corn
231
helps
cargo
thrown
invited
recon
biography
russians
##burn
latter
contributor
creation
cretin
politically
illness
films
legisl
violated
skull
differences
athens
##dden
arsehole
sentences
corrected
eric
paterson
suspic
behalf
advance
behave
##ysis
wishes
greeks
debut
complaints
obsessed
replaced
rubin
martinez
favorite
dollars
multi
otherwords
bailey
atlantic
castro
presented
daddy
demonst
diplomatic
symbol
##gggggggg
empty
guerrilla
tools
becomes
##hahahahahahahahahahahahahahahahahahahahahahahahahahahahahahahahahahahahahahahahahahahahahahahahahahahahahahahahahahahahahahahaha
display
molesting
algeria
signing
politicians
levy
withdraw
pirates
pacific
imperial
rodeo
treasury
bangladesh
stadium
unknown
unacceptable
scribble
aamir
bj
bord
bert
ea
fict
hut
hockey
kre
lyn
nac
nerve
pope
rating
sot
tat
tank
taught
wip
wigger
yah
##rade
##ties
##oen
##die
##lock
##sis
##born
##uated
##vention
##6million
##jd
##atri
anarch
input
##aser
beer
##idi
##agn
stole
shang
##ths
dod
doctors
##imon
##iring
##andra
chee
atletic
sole
arn
welf
##oses
abuses
unbel
sao
sac
liby
agents
##ourced
hispan
clark
brill
##feld
resolution
##gging
whenever
crook
warwick
sme
background
slo
11th
##ache
##pects
143
175
flow
descent
designed
desperate
135
240
clever
188
189
coff
evolution
turns
schalk
officers
bootstoots
barry
recomm
infer
sys
humor
humans
sexuality
johann
reduced
kinda
airways
ideology
computers
failing
trave
saddam
victoria
brady
scoring
suggestion
sharp
snapped
languages
portug
qualifying
islamist
rapid
unsourced
honor
iranians
limit
1988
boob
hypocrites
strongly
ukrain
concerns
##queen
telecom
operating
towns
opposite
landed
exception
welcom
extrem
bombing
guns
monkeys
experiment
soldier
decisions
meaningless
serbia
fern
neutrality
derby
polls
technology
keyboard
diplomats
stinks
somewhat
sarcast
##eeeeeeeeeeeeeeee
degen
blatantly
physical
ivan
##porary
arbitration
episodes
laughable
##space
originally
assets
unfortunate
determine
##encies
bulgaria
smoking
macro
unne
exclusive
opponents
princess
roger
stepped
stolen
unconstructive
intimid
arbitrary
asswhole
equivalent
nottingham
shanghai
atletico
welfare
2nd
auss
aka
breat
dw
dow
dup
eg
ft
hug
hitting
iq
iii
jane
lith
lud
loud
pon
pad
pace
pics
pump
rising
rbi
ts
trap
tick
tamp
tale
wo
wool
wipe
zur
##eus
##rican
##ique
##gun
##den
##sa
##cious
##wide
##net
##nox
##30
##zo
##70
##12
##44
threw
##inate
##cking
##itism
##itutes
##esy
##esburg
##enos
##enger
anwar
##aran
##ications
##ionary
##agan
stars
shop
##chair
##ooh
##ami
##very
##urg
##opedia
##imed
##imination
priest
##olas
dial
##andan
wikin
##terdam
fruit
##ilia
##ewed
sox
concent
amusing
amounts
abortion
saved
cance
albert
alstair
nec
prohib
##aaaaad
exists
aged
##oured
##ccur
bitching
##alker
outrage
spark
##udge
clock
brut
brag
bristol
lob
loved
sexist
homes
supress
grant
nowhere
polite
##ption
serves
additions
127
##othes
prepar
underst
matth
commenting
147
guide
guards
##ordon
obnox
2002
headline
genius
switch
swift
personality
earned
leadership
##boj
douch
germans
barb
barrick
countless
synd
referred
dealer
##ucused
breast
reduce
juan
explicit
filed
boris
spani
values
editorial
sentenced
christie
motherfuckers
erik
##heard
visiting
semi
mongol
happening
suggesting
brainw
ports
davis
motha
falling
causing
credible
grandma
arabia
kevin
destroying
excuses
sockpuppets
spends
senate
monkeyman
disruption
replying
types
scientists
cleaning
rotterdam
educated
associated
artist
archives
error
appreciated
##iption
clowns
physic
sports
revenge
enemies
jonathan
benefits
virtually
##cuntcuntcuntcuntcuntcuntcuntcuntcuntcuntcuntcuntcuntcuntcuntcunt
uploaded
candidates
reveal
##llllllllllllllllllllllllllllllll
achieve
twitter
maurit
venture
pseudo
yamla
wikipeida
tactics
spartucused
integrity
dislike
circumst
houses
##mongo
antonio
assembly
unreliable
lulz
paedophile
hilarious
jamaica
excellent
stalin
guilders
unchanged
ijaz
assassination
medvedev
lyrics
##6million6million
johannesburg
lithuan
aa
aol
balk
cus
cart
csd
ej
eve
fing
fist
fest
fey
gent
gim
hood
js
jar
jere
kaf
mitch
mud
nc
nig
nav
ot
oun
py
pil
pkk
rig
ross
sve
sore
saaaaad
tang
vast
ww
wack
yer
##rest
##rich
##oi
##yal
##aves
##ders
##cu
##bell
##hill
##hard
##mony
##nb
##zi
##zam
##82
##2p
##inen
##onom
theories
##eda
##ito
##itating
##enna
tosh
##oto
##asant
##ici
##iders
##sted
shower
forest
meg
measure
notices
##urity
##ims
##olis
##allow
cher
wasted
arth
allen
amman
une
saeed
ori
##ardo
##arden
##outs
alp
alco
##pear
novel
justine
subur
sudden
spit
##roll
##road
brat
userbox
##ppy
##onde
firms
##ussia
cris
warr
warming
remote
smith
interior
intervention
prelim
wellington
careful
ownership
##ulture
dress
refusing
teresa
225
140
vienna
evident
headqu
steel
reasoning
internal
formed
##hhh
syn
hoax
dawn
columb
312
untr
entit
yorkshire
detained
collabor
violations
fails
borussia
malicious
408
rounds
depos
promin
civilians
misery
titles
drinking
distur
distort
hurrican
cuts
blew
electoral
blanked
karen
demanded
volunt
treatment
injuries
privile
arbcom
kissing
developed
productive
fcuk
silver
middles
##boys
losses
documents
negro
ethnicity
tags
hostile
window
archive
heavily
hamburg
hijacked
sarah
purely
deepak
challeng
locked
dominated
argentine
theres
impression
supremac
introduced
corporate
safety
##zzzzzzzz
wilson
prepared
improving
embarrass
jumped
mln
gaza
throat
announcement
bogus
doosh
tibbit
lifted
folks
postponed
buddies
malaysia
dynamic
inaccur
dhaka
drummer
discovered
partisan
sloven
coffee
obnoxious
ast
bw
cp
curs
dish
gap
gib
kan
lun
lens
males
mama
maker
ng
nik
nair
oce
pod
pts
rott
vul
vanc
wto
wounded
##ran
##rise
##och
##gency
##dr
##dle
##dles
##sk
##uor
##hum
##hart
##mod
##ptic
##fort
##furt
##zan
##80
##jev
##16
##ouver
##atter
##atics
##onian
##inge
inane
reagan
##stone
##igers
##uten
stere
##amo
##ipedia
##ipment
pride
prize
diana
##ando
dean
##aki
##ewor
assure
soap
conven
allies
##antes
abu
shite
trillion
offense
usage
proving
##abi
exerc
hateful
##rif
spout
spare
fatty
manual
climate
newcast
yep
logged
##inda
##ivals
hadn
##izations
granted
overse
##oughly
##heads
12th
interim
mining
tears
monster
208
older
##azi
carefully
drown
factor
221
consult
norman
guard
design
struct
secondly
center
covers
newsdesk
incomp
253
geneva
leads
##erto
invented
##bling
harras
##viation
racing
austrian
moin
seemed
sanctions
infring
openly
surge
##baby
crimes
redne
watched
authors
meetings
mindless
ski
dennis
lessheard
fights
produced
junk
questioned
oppress
##respect
lara
353
bleed
tabtab
benjam
wasnt
pedoph
triple
recorded
##fuckfuckfuckfuckfuckfuckfuckfuckfuckfuckfuckfuckfuckfuckfuckfuckfuckfuckfuckfuck
850
fixing
weaker
graf
wonderful
involves
cowardly
vanu
freakin
descr
convin
creative
bombay
mills
mccar
##bourg
entering
technical
ultim
collection
cardinal
script
successful
heroin
freder
dictatorship
environ
croatian
customs
submit
determined
conducted
fortuna
revealed
macedonian
armenian
recovery
resignation
##hehehehehehehehe
tamil
monitoring
literally
frustrated
##ulsive
distribution
birthday
learned
encourage
hobby
occurred
measures
##enoord
stansted
organisers
cairo
venezuela
hampshire
emphas
taylor
frozen
brilliant
warwickshire
sarcastic
dupl
circumstances
lithuania
feyenoord
mitchell
preliminary
vancouver
newcastle
benjamin
environment
aot
auction
bh
bans
bath
bench
cake
dvd
fals
fighter
f2p
gest
gaw
hmm
hidden
jus
jans
kum
lah
mock
mild
nom
nap
nerv
pd
pul
pans
sara
ted
ties
tigers
voted
vicious
##ec
##eer
##ean
##rase
##rence
##rome
##oa
##oes
##gart
##aus
##brew
##uate
##hand
##mc
##mir
##mies
##part
##pace
##nt
##fast
##zb
##77
##75
##21
##just
##⟲⟲
##erting
##onym
##anch
##eday
##orse
##orious
##enom
antic
##ision
##arre
##ality
ine
inquir
##asel
##icop
##icated
##icable
fuckfuckfuckfuckfuckfuckfuckfuckfuckfuckfuckfuckfuckfuckfuckfuckfuckfuckfuckfuckfuck
beck
##sein
##utions
##agger
##adow
ster
stor
shel
asia
aside
asper
heh
##celo
dos
prague
##hah
##istle
chip
choke
fresh
asswipe
consequ
##esty
amuse
##ulating
bln
mort
##pell
knee
prob
proceed
##ieves
##abad
agric
##iang
fatuor
##apest
##berts
brush
resigned
residence
raise
afd
##fuckfuckfuck
scare
gren
sucksfrozen
##ovo
crum
actively
121
##cla
wankers
mines
commod
wells
##aco
marx
marcelo
fears
verb
hitter
169
##wealth
137
245
238
incap
helicop
turning
analysis
boi
simon
watson
delay
confident
confidence
listing
barbar
institute
glen
highlight
nationality
supports
extent
extended
filip
##garian
moms
dirt
chain
pete
petro
##retch
expose
buenos
cowards
copies
bradford
promoting
draft
sharply
snitch
condem
critics
disturb
district
budapest
spoken
answers
portugu
qualified
liberation
meri
merc
grace
requested
keith
ethical
observ
commonwealth
rubber
labor
mistaken
activists
miller
statistics
equipment
##tlana
##mingham
increasing
slee
conversion
pushed
##alalalal
divor
favourite
birmingham
luis
recognize
dragon
estimates
hungarian
journalist
aleem
interviews
masturbating
precise
executed
customers
henry
rwandan
telugu
##borough
charlton
santos
##uuuuuuuuuuuuuuuuuuuuuuuuuuuuuuuu
citizens
automatically
##ylum
captured
algerian
assuming
adams
trivial
deleg
methods
insurance
looser
deeply
grasp
nepal
shareholders
bureaucrat
encyclopaedia
ceremony
yasser
relatively
involvement
liverpool
fictional
degenerate
aussie
breathing
cancelled
jeremy
svetlana
orioles
alcohol
crisis
headquarters
convinced
fuckfuckfuckfuckfuckfuckfuckfuckfuckfuckfuckfuckfuckfuckfuckfuckfuckfuckfuckfuckfuckfuckfuckfuck
fatuorum
portuguese
333
astr
aviation
bent
bib
bread
bits
bishon
bnp
cad
core
cors
cities
dal
dall
dere
digg
dates
fet
faster
fiction
fyi
gig
gore
grew
gained
hsoit
ja
jd
kon
lor
lag
lous
lbs
lands
mce
miam
nag
pw
pap
rs
rated
rats
rfc
sier
tb
til
uef
ufc
vat
vouch
wah
zy
##rot
##gi
##ses
##bin
##uase
##kom
##kok
##mail
##wad
##pass
##var
##via
##fine
##zilla
##15
thief
##inem
##attered
##itar
##itate
##enko
infect
##leman
##omer
##icles
reck
##idency
##seille
##ige
##igation
##uto
##etary
##etinch
##ikes
stich
shti
shgit
asylum
ford
hebrew
mechan
##illed
seles
##iab
doom
doetinch
##ipts
myspace
chon
chest
##akers
havel
##ilton
ark
constr
wearing
##antia
abc
abroad
unrest
shits
edu
lee
worm
##iec
##ieved
sued
##oster
##oussis
impr
talked
contempt
##aped
##lets
##elle
twisted
idle
sexually
disputed
resc
raising
vandalised
comprom
##ppo
peres
##ovan
actress
##plement
joking
slang
slipped
preach
freud
retire
retail
downhill
marseille
worlds
worldwide
##iba
##rates
muj
##ignific
consol
219
phoen
phrase
phenom
flaming
partner
241
insignific
dumbest
cofine
cork
corps
236
239
incidents
beaten
regist
steps
funds
ears
apar
officially
winter
urantia
curious
instant
ruch
blackburn
salim
bots
column
nationalists
censors
southeast
marcus
aires
harder
violates
provin
trail
1000
restored
signs
##inski
ahot
viewpo
expans
roberto
medal
patrick
patron
pretentious
severe
addressed
greet
2015
portion
shots
qualify
tablo
uncle
cement
sweat
listening
##load
blanking
species
answered
graham
requests
involving
micros
bizarre
swedish
squash
operations
midwest
screwed
natal
annoyed
frankfurt
revol
sockpuppetry
taxes
turnover
investigators
identify
fifa
hearts
casualt
manners
hostage
criticisms
slightest
ashit
rangoon
employee
encoun
jailed
judgement
fiscal
amazon
aleppo
facists
rhet
rwanda
submitted
bulgarian
routine
displayed
corporation
barely
platform
##worth
##worthy
struggle
semifinals
##dddddddddddddddd
##nnnnnnnnnnnnnnnnnnnnnnnnnnnnnnnnnnnnnnnnnnnnnnnnnnnnnnnnnnnnnnnnnnnnnnnnnnnnnnnnnnnnnnnnnnnnnnnnnnnnnnnnnnnnnnnnnnnnnnnnnnnnnnnnnnnnnnnnnnnnnnnnnnnnnnnnnnnnnnnnnnnnnnnnnnnnnnnnnnnnnnnnnnnnnnnnnnnnnnnnnnnnnnnnnnnnnnnnnnnnnnnnnnnnnnnnnnnnnnnnnnnnnnnnnnnnnnnnnnnnnnnnnnnnnnnnnnnnnnnnnnnnnnnnnnnnnnnnnnnnnnnnnnnnnnnnnnnnnnnnnnnnnnnnnnnnnnnnnnnnnnnnnnnnnnnnnnnnnnnnnnnnnnnnnnnnnnnnnnnnnnnnnnnnnnnnnnnnnnnnnnnnnnnnnnnnnnnnnnnnnnnnnnnnnnnnnnnnnnnnnnnnnnnnnnnnnnnnnnnnnnnnnnnnnnnnnnnnnnnnnnnnnnnnnnnnnnnnnnnnnnnnnnnnnnnn
discrimin
philippoussis
##fuckfuckfuckfuckfuckfuckfuckfuckfuckfuckfuckfuckfuckfuckfuckfuckfuckfuckfuckfuckfuckfuckfuckfuckfuckfuckfuckfuckfuckfuckfuckfuckfuckfuckfuckfuckfuckfuckfuckfuckfuckfuckfuckfuckfuckfuckfuckfuckfuckfuckfuckfuckfuckfuckfuckfuckfuckfuckfuckfuckfuckfuckfuckfuckfuckfuckfuckfuckfuckfuckfuckfuckfuckfuckfuckfuckfuckfuckfuckfuckfuckfuckfuckfuckfuckfuckfuckfuckfuckfuckfuckfuckfuckfuckfuckfuckfuckfuckfuckfuckfuckfuckfuckfuckfuckfuckfuckfuckfuckfuckfuckfuckfuckfuckfuckfuckfuckfuckfuckfuckfuckfuckfuckfuckfuckfuckfuckfuck
##aaaaaaaaaaaaaaaaaaaaaaaaaaaaaaaaaaaaaaaaaaaaaaaaaaaaaaaaaaaaaaaaaaaaaaaaaaaaaaaaaaaaaaaaaaaaaaaaaaaaaaaaaaaaaaaaaaaaaaaaaaaaaaaaaaaaaaaaaaaaaaaaaaaaaaaaaaaaaaaaaaaaaaaaaaaaaaaaaaaaaaaaaaaaaaaaaaaaaaaaaaaaaaaaaaaaaaaaaaaaaaaaaaaaaaaaaaaaaaaaaaaaaaaaaaaaaaaaaaaaaaaaaaaaaaaaaaaaaaaaaaaaaaaaaaaaaaaaaaaaaaaaaaaaaaaaaaaaaaaaaaaaaaaaaaaaaaaaaaaaaaaaaaaaaaaaaaaaaaaaaaaaaaaaaaaaaaaaaaaaaaaaaaaaaaaaaaaaaaaaaaaaaaaaaaaaaaaaaaaaaaaaaaaaaaaaaaaaaaaaaaaaaaaaaaaaaaaaaaaaaaaaaaaaaaaaaaaaaaaaaaaaaaaaaaaaaaaaaaaaaaaaaaaaaaaa
##uyuyuyuyuyuyuyuyuyuyuyuyuyuyuyuyuyuyuyuyuyuyuyuyuyuyuyuyuyuyuyuyuyuyuyuyuyuyuyuyuyuyuyuyuyuyuyuyuyuyuyuyuyuyuyuyuyuyuyuyuyuyuyuyuyuyuyuyuyuyuyuyuyuyuyuyuyuyuyuyuyuyuyuyuyuyuyuyuyuyuyuyuyuyuyuyuyuyuyuyuyuyuyuyuyuyuyuyuyuyuyuyuyuyuyuyuyuyuyuyuyuyuyuyuyuyuyuyuyuyuyuyuyuyuyuyuyuyuyuyuyuyuyuyuyuyuyuyuyuyuyuyuyuyuyuyuyuyuyuyuyuyuyuyuyuyuyuyuyuyuyuyuyuyuyuyuyuyuyuyuyuyuyuyuyuyuyuyuyuyuyuyuyuyuyuyuyuyuyuyuyuyuyuyuyuyuyuyuyuyuyuyuyuyuyuyuyuyuyuyuyuyuyuyuyuyuyuyuyuyuyuyuyuyuyuyuyuyuyuyuyuyuyuyuyuyuyuyuyuyuyuyuyuyuyuy
##tytytytytytytytytytytytytytytytytytytytytytytytytytytytytytytytytytytytytytytytytytytytytytytytytytytytytytytytytytytytytytytytytytytytytytytytytytytytytytytytytytytytytytytytytytytytytytytytytytytytytytytytytytytytytytytytytytytytytytytytytytytytytytytytytytytytytytytytytytytytytytytytytytytytytytytytytytytytytytytytytytytytytytytytytytytytytytytytytytytytytytytytytytytytytytytytytytytytytytytytytytytytytytytytytytytytytytytytytytytytytytytytytytytytytytytytytytytytytytytytytytytytytytytytytytytytytytytyty
bodies
shioty
leicester
##hadov
rajputs
strategic
malleus
maskhadov
verifiable
propagandists
acknowledge
fashion
delusional
wheelchair
kuwa
abandoned
vincent
gvhy
suckersyou
library
suspicion
recommend
inferior
sysop
portugal
supressing
portsmouth
ounce
prominent
##jevo
lousy
miami
uefa
doetinchem
phoenix
insignificant
cofinec
casualties
ax
ape
bish
bart
ct
dc
dm
ell
eag
fk
fck
fau
founder
gf
gough
hed
hend
hub
hipp
ic
jav
kaz
kash
lists
mere
mouse
pork
rash
rio
ridd
rivals
sv
sided
tanks
vend
wine
wise
wisc
yad
yards
ybm
zen
##ement
##rist
##rison
##iw
##iop
##tes
##oz
##yan
##gl
##lon
##sed
##crib
##cott
##course
##bus
##bra
##mun
##wl
##fter
##ql
##64
##zens
##92
##jes
##123
##oum
##inting
youth
##atio
##oring
##order
##alo
insec
##otional
##asse
##oma
##icing
##icts
isbn
rect
whiny
##ido
stom
stone
sha
##cht
##chy
##entive
forcing
heat
dozens
##irm
##aka
assess
arsen
conqu
allah
weed
abb
unh
sach
blown
adrian
eddie
alter
albr
nobel
leon
leaves
someday
justified
##aboo
expelled
peice
suu
outlook
outstanding
facing
##000
hass
##eee
clay
brun
disrespect
shoulder
compens
scar
grat
grown
##ovs
crashed
##oya
##ifer
intol
everytime
adds
smug
backward
minimum
##going
oldid
feature
##azz
##obite
##avel
muse
muham
commentary
##pras
##weg
norils
norweg
guine
putin
213
phill
flap
strict
letters
247
1800
relief
discip
discred
elimin
presidency
255
genu
swallow
wording
confusing
##warr
forms
recall
instance
dealt
humour
hoe
277
260
glou
glam
chron
bottle
reds
fanatic
burning
collins
provoc
trace
malta
signals
europeans
sentiment
oppose
depth
promised
enjoyed
bitter
misinform
advise
brave
2014
porto
awards
mentioning
raping
ceo
1980
records
virus
fixt
grave
mentions
undid
##mmmmmmmm
purple
obsession
sorts
freaks
screwing
ministers
treating
777
accuses
golden
stephan
creature
##owski
materials
detailed
receiving
arbil
represents
hotel
grounds
driven
supposedly
nominated
effects
expression
camps
teachers
sams
sampras
dictionary
airports
andrei
psycho
fukin
circle
darren
stinky
exec
cardiff
bayern
located
corruption
walter
masturbation
gasoline
albania
flags
teenagers
mirror
route
allegedly
lbw
rosati
lebanese
macedonia
intentions
combat
affected
separatists
permanent
trivia
##hoven
ensure
opponent
wreck
tunis
prosecutors
slavery
ultra
ultimate
leicestershire
##crapcrapcrapcrapcrapcrapcrapcrapcrapcrapcrapcrapcrapcrapcrapcrapcrapcrapcrapcrapcrapcrapcrapcrapcrapcrapcrapcrapcrapcrapcrapcrapcrapcrapcrapcrapcrapcrapcrapcrapcrapcrapcrapcrapcrapcrapcrapcrapcrapcrapcrapcrapcrapcrapcrapcrapcrapcrapcrapcrapcrapcrapcrapcrapcrapcrapcrapcrapcrapcrapcrapcrapcrapcrapcrapcrapcrapcrapcrapcrapcrapcrapcrapcrapcrapcrapcrapcrapcrapcrapcrapcrapcrapcrapcrapcrapcrapcrapcrapcrapcrapcrapcrapcrapcrapcrapcrapcrapcrapcrapcrapcrapcrapcrapcrapcrapcrapcrapcrapcrapcrapcrapcrapcrapcrapcrapcrapcrap
clashes
mohammed
adopt
vehicles
purchase
slavic
miguel
procedure
experienced
vindict
unbeliev
travelling
unnecessary
zurich
matthew
syndrome
ejac
arthur
hurricane
inaccurate
stereot
redneck
sarajevo
bishonen
kuwait
albright
4chan
ay
azer
aston
awww
bom
bourse
brien
cute
citing
cena
dn
dj
dry
dund
dump
eind
eps
fits
fior
fulf
gy
gtf
hull
hud
iz
kath
kyi
lan
lance
lakes
linc
mub
ni
nad
nah
nym
pum
pel
ras
rall
rans
ride
sr
si
tass
tiger
wi
wes
wigan
xd
yog
zh
##iation
##ogg
##dog
##lot
##lings
##ca
##cd
##cia
##bod
##bang
##uke
##86
##73
##50
##eren
##erts
##erset
##ateral
theor
##encing
##islav
##rete
##omet
reop
remin
reign
react
whil
beings
##idem
##stal
##sters
##agen
##etton
##iko
stages
stutt
shed
shes
##ente
##entina
meets
printed
##happy
myster
##oln
##allah
chan
chase
##rach
fringe
assured
conced
##estyle
weiz
weasel
amend
##osen
unwarr
sah
saving
bless
orth
##ardi
trend
fagget
adolf
lied
offence
algor
lei
lever
somerset
necess
provision
worcestershire
pecker
##iana
##ishi
becuase
##cca
##roject
1999
##apy
##icks
##icker
newmont
twist
##ichi
loyal
disorder
stopping
homos
scale
##ubst
gram
groning
writer
attach
attrib
attended
##odox
deletions
cruel
actor
penises
serge
smile
monitors
152
herself
bases
opens
##aca
marg
mars
mature
maturity
reader
drama
drmies
factions
refere
##rators
##avin
guest
puts
phone
fled
partn
coz
obtain
presum
defined
defensive
incest
rofl
header
gene
swine
steers
demands
offices
boot
##ashire
invitation
delhi
##phere
decency
##ception
sanction
nazism
fined
handling
monthly
daw
##ologist
redund
follows
elements
impot
criminals
juvent
legend
minds
sky
deathcore
signature
pricks
fighters
petr
christmas
stayed
corrections
passport
passenger
eyed
patience
checkuser
testicles
ancestors
enjoying
disgu
horny
##221
begun
begins
closely
destruct
nearby
hurting
hurdles
paste
awa
450
holds
benetton
limits
##otted
1987
liked
returns
cape
pauli
weakness
karls
breaks
replacing
opposing
epic
catal
activist
941
dispos
hoped
trained
appearance
normally
apologies
apologise
suspects
reviewed
identified
represented
pornography
defenders
trusted
professor
##etti
blogs
hacker
lux
indicates
features
penalties
delivered
option
rios
flew
successive
hunjan
incorpor
envoy
initially
communication
puerto
tosser
acquis
escape
tolerated
briefly
thorpe
kidnapped
##rrrrrrrrrrrrrrrr
tamils
meatp
emergency
imbecil
harrassing
dahn
fabric
demonstrate
accomplish
linda
##theid
advocated
counterpart
tibet
discrimination
crawl
producers
lingu
screaming
vehicle
##ruhe
principles
mickelson
weeaboo
writers
obsessive
stubborn
tasman
olympics
guarantee
cousin
dedicated
kelly
lancashire
goalkeeper
comparison
settled
assistant
liquid
hispanic
smear
schalke
ukrainian
tsang
##onomy
disturbed
privileges
slovenia
skiing
description
mccarthy
inquiry
dallas
apartheid
expansion
rhetor
kashmir
norilsk
genuine
vindictive
dundee
eindhoven
gtfo
lincoln
whilst
stuttgart
weizman
unwarranted
algorith
groningen
karlsruhe
233
bc
bic
bour
ced
cure
dia
dign
dwell
eup
ful
fidel
gs
gag
hors
hint
hmmmm
ie
jup
jizz
kph
lm
las
lamb
mp
mcl
mika
nd
nich
nope
nurs
nantes
ou
oooo
pt
poof
rm
rocks
rtr
rains
rfa
ske
tip
vig
wy
ware
wave
zone
##ruction
##tur
##aj
##list
##sch
##bone
##bies
##uw
##uits
##ken
##kus
##mos
##nan
##names
##fus
##fty
##67
##zh
##zm
##93
tha
thumb
thieves
##erved
##ata
##atical
##ania
##itas
##itable
##itals
##enh
##ucks
inzam
##asi
##asur
fuckface
ree
reward
##idia
##veen
##ionally
stu
stakes
stores
shill
ships
##cha
##ental
hect
healy
heeren
haq
##thor
seb
##irl
##olo
diam
direction
##ateur
##andem
defect
chad
##ewalker
comic
comedy
sob
sodom
unple
unpr
unbi
unex
unbeat
sab
trin
alk
alf
noise
##fucker
##aux
##ankind
##inker
##unts
##artoum
outs
##endum
##riage
spa
implement
##eek
##icking
clan
brent
bruns
loan
##ivo
resum
resume
raul
##arek
homered
homework
hominem
compare
##izes
##ango
##ifers
accomp
intr
killers
serial
interfer
backwards
dayewalker
155
##ograd
heres
##play
##plus
undermin
retarted
retentive
bashing
##acle
##acies
olds
##acher
marl
marin
marie
marine
##aze
##ibe
##obank
223
224
guitar
putza
huber
flaw
godd
strang
249
inserting
dumbfuck
correction
##onsin
regional
genetic
muster
germ
endorse
##bean
irreg
boj
simpl
pussies
##bane
bars
barter
barley
barrel
decides
formally
moore
##oko
handful
surface
##uca
calc
calcut
colin
expectations
allows
buried
extend
extrad
legs
##strong
truthful
traitor
planes
billy
vale
lotte
taj
erased
erasing
requires
##uki
patrol
possibility
copied
testing
schools
murderer
mosque
##resp
snap
##undai
larger
critical
destruction
braves
foreigners
##asco
sooner
poorly
falsely
irani
explaining
pedro
pedantic
1982
returning
militants
campbell
controls
grab
karl
complained
constitute
ethiop
courtesy
crystal
judging
religions
square
473
danny
turkic
welsh
creatures
privat
thompson
kenn
silva
laden
contacted
hahah
truce
ferg
##chnur
cracker
illegally
refugee
khartoum
stealing
psychiat
psychopath
fuking
improvement
npa
dustbin
masters
spotty
mentality
narc
closer
closes
proposals
preventing
collective
missionaries
nutcase
olive
motorola
bayer
##ophobic
cooperate
sporting
flights
categories
facist
egyptian
krist
initial
impressed
teenager
updated
suspension
scumbags
rabobank
fortun
broadcast
magazines
hyundai
puke
##hran
inches
stabbed
selected
##yyyyyyyy
talent
kerry
attractive
consistently
occupation
occupied
pursuit
learning
hansa
orientation
fundamentalist
celtic
mohammad
adopted
medicine
enforcement
crusade
detective
wolves
preston
##wwwwwwwwwwwwwwwwwwwwwwwwwwwwwwwwwwwwwwwwwwwwwwwwwwwwwwwwwwwwwwwwwwwwwwwwwwwwwwwwwwwwwwwwwwwwwwwwwwwwwwwwwwwwwwwwwwwwwwwwwwwwwwwwwwwwwwwwwwwwwwwwwwwwwwwwwwwwwwwwwwwwwwwwwwwwwwwwwwwwwwwwwwwwwwwwwwwwwwwwwwwwwwwwwwwwwwwwwwwwwwwwwwwwwwwwwwwwwwwwwwwwwwwwwwwwwwwwwwwwwwwwwwwwwwwwwwwwwwwwwwwwwwwwwwwwwwwwwwwwwwwwwwwwwwwwwwwwwwwwwwwwwwwwwwwwwwwwwwwwwwwwwwwwwwwwwwwwwwwwwwwwwwwwwwwwwwwwwwwwwwwwwwwwwwwwwwwwwwwwwwwwwwwwwwwwwwwwwwwwwwwwwwwwwwwwwwwwwwwwwwwwwwwwwwwwwwwwwwwwwwwwwwwwwwwwwwwwwwwwwwwwwwwwwwwwwwwwwwwwwwwwwwwwwwww
rostock
rarely
assertion
philosoph
resource
laurent
patriotic
nabil
items
trouted
resistance
immigrants
pashtun
toyota
whitew
krem
libya
preparing
jschnur
untrue
entitled
ocean
exercise
pedophiles
jansher
consequences
amusement
construction
imprison
compromise
tabloid
wisconsin
arsenal
muhammad
glamorgan
samsung
fiorentina
leverkus
partnership
bicth
inzamam
heerenveen
brunswijk
calcutta
leverkusen
496
auck
aub
aux
bp
bse
cs
cc
cv
ces
cul
cyn
ds
dated
dense
duff
ek
epp
fock
fee
h1
hers
josh
kw
kin
kir
lut
lolololol
mt
mou
nz
ned
nosed
nuff
nij
oz
pip
pant
ptt
papers
ruth
sic
tent
tall
tens
tild
vlad
wis
wrap
wides
xen
##rane
##ywood
##gie
##ding
##lat
##uating
##kh
##hs
##hn
##hin
##mons
##mund
##maker
##wing
##wool
##pread
##vard
##fall
##85
##79
##13
##´s
thir
##erre
##erle
##inter
##oni
##itage
##itty
##itai
##orney
##enham
##aren
##ucky
##alid
##althy
anders
##rell
inher
##otect
##asion
##lection
##icer
##icity
isp
bean
##ads
##owing
shim
fork
##lyde
##lder
heifers
notewor
##hao
##alling
gosh
wikis
wikia
chips
choos
chosen
frick
fried
comfort
soci
sofia
arent
consecut
weigh
dong
donate
##ulong
##ulates
##uma
##umber
##oshi
aberd
units
unjust
unhappy
sax
tran
willy
edwards
offers
alike
enth
enfor
noone
knife
worries
##ieving
##abl
##abled
excess
anyhow
outta
##endam
pled
spy
spade
ima
##shop
talkin
contained
##apo
managers
bris
bras
##olly
howard
loaded
disreg
wanting
raw
afro
compulsive
scam
##blebro
grip
wrist
attorney
##assi
bullied
##angbang
cruc
##ensored
joining
smugg
pleased
##clown
interact
interaction
intercourse
##othy
commons
teeth
prejud
##issions
151
heritage
freib
##aces
poster
belive
beloved
margin
marriage
feb
motherf
param
owners
spelled
##obi
faction
##icals
consort
##pres
whereas
cheat
reverse
phase
strate
partners
##ribly
rulers
elit
elabor
235
macc
regret
swast
earn
repair
invent
##yme
urself
urges
cleared
confisc
governments
romero
continually
biograph
smaller
sanct
infin
syrian
ignores
surplus
breed
issuing
inclusion
nationalism
census
muscle
juj
##ifications
airlin
extensive
profan
##strom
provoked
oxford
tracks
##teen
pisses
momma
giants
contrast
peters
armstrong
respected
avo
cops
tested
palmer
punished
arrests
##rupting
##liest
cannistr
civilian
absence
atheists
publication
addressing
distance
greens
transm
transition
transpar
estonia
harassed
electron
holder
militia
speaks
unique
researchers
socialism
operator
visitors
straw
descend
buyers
volat
volendam
palestine
autonomy
omn
walks
walking
draws
kenned
wicked
troubled
roads
noticeboard
melod
surprising
camer
couldnt
bangkok
historian
purposes
responses
multiples
custody
##cript
digital
nickname
striking
employees
divid
hussein
fastest
indicated
ryulong
documented
cabal
julian
application
containing
communicate
communications
inserted
incompetence
abdul
jayasur
revisions
shipments
proxies
smoker
armenia
prepare
satisfied
rupiah
tolerance
commerce
jumping
thoroughly
tricks
##tttttttt
slimy
consistent
mediation
persistent
hollywood
irrational
politician
folk
kosovo
ssangbang
resolved
postpone
kilomet
explosives
ottawa
##break
traditional
publishing
tirana
motivated
mobile
sieg
stirling
bugger
photographs
tongue
sprint
massacre
lynch
welcomed
derbyshire
intimidate
nottinghamshire
lobby
understood
barbara
suddenly
deposit
supremacist
##human
duplicate
nervous
pansy
sterling
agriculture
commodities
incapable
disturbing
sierra
assessment
norwegian
gloucestershire
misinformation
nymex
redundant
acquisition
rtrs
irregular
tajik
ethiopia
kremlin
auckland
auxerre
eppstein
widespread
consecutive
aberdeen
disregard
##blebrox
freiburg
airliner
cannistraro
jayasuriya
ssangbangwool
8th
aar
ather
bie
bone
cau
cod
colog
clyde
este
etern
fob
gn
gian
gri
gger
graph
gdp
gwen
hk
hing
hag
hired
hyst
jc
jor
jen
jee
lip
lau
lub
luk
mck
mul
mits
mummy
mankind
nun
nsc
ols
pest
pint
rue
rural
sitt
sne
soph
sbc
tut
tension
uck
vad
villa
wage
wound
ym
##rent
##rak
##rast
##rising
##iors
##ients
##tor
##tch
##oist
##yers
##gt
##gas
##gment
##aid
##aven
##lah
##say
##col
##bad
##bul
##bai
##hal
##harn
##met
##meg
##wha
##pen
##fg
##fare
##fair
##xa
##zing
##87
##ji
##53
##14
thail
##inction
##atas
##onians
##edi
##ora
##esp
##otch
##otton
##omas
##icting
ist
isol
islands
rear
whores
beir
begging
##igar
##igning
##aye
##uting
##adr
##ete
##eta
strap
shi
shab
shud
shadow
##chel
##lyn
heath
haitai
##iak
##unction
##irt
##olan
devi
deaf
##uson
goat
wikil
chor
chart
chances
##akow
##usting
arama
##ested
amanda
wikiproject
bla
trium
trigger
offering
alas
alumin
upper
lez
##fucking
worried
exagger
ages
peer
anytime
theyre
dickwad
suk
##oneone
outright
##endo
##rix
fax
sparta
##roe
##roy
##rof
##roid
imo
contem
##uddin
mans
##ello
clause
clothes
everton
##berry
brow
disarm
reset
##bson
stops
##mans
compos
##assed
overwh
perce
perverted
bullsh
##enses
afterwards
banharn
killings
126
smack
smarter
indis
##uuu
backing
minus
slit
slur
slick
slob
sluts
monaco
##issy
##ogen
##ogue
20th
retain
realised
badge
oldham
##achi
mario
fever
feather
##quate
##quette
damaging
reads
playground
refund
refined
##prom
guang
flu
flood
secondary
sometime
inspect
coord
relax
beatles
apple
marked
regulations
caring
carol
genres
gencor
swing
swim
steven
##lessly
thru
scheng
bundes
##ertain
lauck
harris
harvard
winston
asks
decades
moist
hanwha
infrast
referendum
singh
bremen
brewers
glenn
fancy
entity
marco
hardcore
burst
colleg
israelis
selfish
provides
sung
##italic
founded
marketing
sickening
750
banking
bankrupt
medium
mediter
passing
passage
eyles
promotion
iraqis
suspend
studies
snot
condesc
transfer
portray
davies
islamists
motives
modem
campese
merger
fairness
duty
sticking
nerdy
prevail
organised
breakdown
breakfast
classes
crybaby
projects
##coming
operate
dropping
haters
landing
##iju
auto
999
pulling
typically
objection
5000
walker
mcgr
developing
webqu
thomson
slapped
coverage
oscar
ferr
investigating
approx
cambridge
caste
boardman
casual
owens
potter
potentially
churches
samuel
defends
compete
technically
profession
stinking
amongst
hijacking
settlements
unlikely
ordinary
chriso
fields
aggression
recognition
recognized
recognised
insisting
significantly
cuban
flee
cluebot
concluded
congrats
revenues
dissident
preferred
ranking
masturbate
albanians
aims
therapy
belle
##ambig
butthurt
boutros
maximum
mathem
durham
interpretation
participating
manipulate
litter
##hua
predict
commitment
harrassment
requirements
pursue
advocate
gathering
##bacher
moroccan
irritating
encouraged
vandil
crawley
scholarly
jacques
raymond
beeblebrox
kabul
pierre
bryan
cdu
lisa
torture
neighbouring
dreadstar
license
valley
philosophy
deportivo
resources
entertainment
fisherqueen
##jajajajajajajajajajajajajajajaja
vocal
fukkin
ankara
frequently
cunning
namib
nawlin
incredibly
collapse
nicaraguan
anarchist
sacrif
extremist
pumpkin
outrageous
spaniards
brainwashed
balkan
fingers
bratislav
remotely
columbia
ultimately
petrole
sleeping
delegates
##iability
registration
rashid
bruno
disrespectful
fixtures
ransom
orthodox
referee
impotent
mclaren
##thorpe
unprotect
unbiased
germain
kenneth
ferguson
strategy
maccabi
kennedy
atherton
cologne
thailand
beirut
overwhel
schengen
bratislava
3rd
aq
bolog
bats
bistr
cm
cats
cables
cotton
cigar
dort
dating
duc
fyr
fbi
hr
hm
hir
hamm
jiang
kor
kink
kub
kitten
lope
lung
nit
ousted
por
pere
pup
pwn
pals
plym
rk
ric
sed
sion
saa
sust
sink
sven
sits
tack
tales
tons
tempt
vil
vamp
wk
wag
wages
wob
wald
xin
xxx
yama
yuan
yemen
##iven
##ivers
##iques
##ooth
##oons
##gow
##db
##dale
##las
##lus
##cop
##uer
##uations
##kov
##mates
##master
##wy
##px
##pre
##95
##200
##52
##43
##0t
thou
##inum
##instein
##oration
##ingu
##ingham
##esubst
##lle
##lla
##llers
##aria
##arak
toe
topp
tops
##ucking
##rett
##repres
##otte
##lems
##omon
fucka
whack
whales
whale
beach
bearing
##idad
##seed
##vez
##ioned
##agues
##aders
sty
stable
staged
stoke
shake
shade
shift
shape
asif
aslan
aspects
##cho
##chap
fors
##amework
habs
##illing
##urry
##theless
seperate
doboj
print
##haz
myth
##istry
dias
diet
deem
goin
goon
wikzilla
chen
##akh
##rac
framework
##ilot
##ilies
assclown
comics
arc
arant
convert
weaken
##ulu
##ante
##antino
##osis
abilities
shitting
blonde
blogg
niggard
orland
##ardy
trophy
ads
adults
liz
##elf
alt
alg
ency
enquir
##ighted
19th
neal
exile
faggoty
##gear
##rier
plc
spur
spew
spastic
##uev
fatass
##apolis
jewel
##uding
##leton
##elled
newly
twins
twenty
bron
adminship
penn
sayin
scattered
##izan
quinn
graa
grind
##onds
##oded
persecut
##ovah
bullet
crown
##ensen
##ifa
##ifies
politely
acted
secure
intend
banana
##ptions
backst
veget
goodness
tehran
premature
monica
15th
undert
retract
bash
baseless
marsd
mates
mayfair
factory
refute
keeper
##pective
dickheads
dickheaditalic
##fton
considers
norwich
phel
fla
flower
flames
flash
nevertheless
136
string
##ribe
insight
coi
coinc
twats
americ
regulation
helens
roh
dogshit
swind
emotion
schum
boch
doub
invalid
##blah
harrison
diffs
antagon
urge
finds
deluded
confessed
301
barack
barns
decree
installed
##oking
capped
claus
secured
charity
subsequ
##ologists
colchester
johan
expecting
eleph
untill
argued
airbus
watches
files
setting
authent
collin
sunrise
escal
policing
policemen
signal
##inson
murray
##ophe
babe
chains
families
expense
expired
africans
memories
patric
humanitarian
semites
moslems
bites
sussex
misrepres
scorer
suggestions
sharing
broker
horrid
sniff
350
paki
distingu
##oooooooooooo
transg
hurts
cutting
servant
uncertain
angels
berry
1986
fallen
merit
causes
uniform
regarded
grabb
lows
organizations
karachi
kev
massach
judicial
commonly
temporary
corpse
epidem
##ographic
figured
treason
paint
wouldnt
creator
alexand
shameful
akron
akbar
objections
##point
prisoners
disputes
meaningful
kenny
tarango
boxes
unlock
chechens
investigate
fitz
approval
describing
representing
artists
commissioner
females
winds
andreas
hamilton
texts
contracts
practices
responsibility
errone
trashy
blogsp
hindus
placing
nickel
employed
establishment
skinned
forecasts
featuring
pusher
spirals
insistence
domain
jpgordon
conservatives
brokers
splatter
prostitutes
applies
beauty
plainly
rolling
disappear
consumers
woods
##fao
scholars
ilk
fantas
naturally
concert
concrete
introduce
##hhhhhhhhhhhhhhhh
safesubst
1860
armenians
dickbig
interfere
##iiiiiiii
assyrian
tolerate
alien
platinum
essentially
makers
tyranny
paragraphs
gabri
##udesudes
translate
pimp
lindsay
struggling
surviv
creep
gothic
##nikov
intentionally
spiritual
prosecutor
implied
pitched
slaves
producer
##olololololololololololololololololololololololololololololololololololololololololololololololololololololololololololololololol
ecu
concepts
surrounding
exposing
washed
adjusted
poisoning
organisations
manufactur
rationale
##ewski
reinst
bryant
##npilot
##jjars
forbid
riots
moldova
chapter
dyke
obligation
fishermen
substantial
bugs
vicario
disappointing
incivility
queensland
mandate
supplies
clarke
telecommun
fernando
brutal
explicitly
festival
bwil
rotten
soapbox
overseas
##claimed
precisely
derek
vatican
viewpoints
microsoft
wheelchairi
intoler
museum
guinea
bombs
gyps
rallied
juventus
meatpuppet
imbeciles
tasmania
algorithm
euphem
juppe
lmfao
mariners
goddess
cynical
##ranean
enthus
consortium
elitist
swastika
jujube
profanity
avoided
melodic
dividend
##megen
triumph
infrastruct
mediterranean
mcgrath
overwhelming
bistrita
dortmund
fyrom
plymouth
yamaha
arantxa
blogspot
310
apt
aird
bub
bids
bore
bidd
ci
cu
cw
cov
cav
couch
cubs
dd
dor
ding
dak
dull
eternal
ff
fond
gad
gith
gate
gook
gale
garden
guev
hl
hath
heter
hammer
jr
jing
kth
kost
klear
lately
luv
lille
lips
mi
mant
mile
ns
n00
oy
ours
ova
ooh
pi
pard
pire
pipe
pinch
rust
rene
sut
sce
sist
sib
tard
tuts
vit
vod
vague
vital
vaugh
vites
waaaa
witch
xbox
yanks
yosh
zag
zel
zhan
##ea
##eastern
##eaux
##rum
##rens
##tens
##tail
##tuse
##yar
##girl
##away
##dh
##l0
##cre
##bw
##bak
##bred
##uh
##uously
##kb
##kes
##hur
##mere
##mel
##mart
##pat
##pty
##pel
##pages
##nesty
##vik
##vir
##fo
##fts
##66
##61
##210
##jay
##55
##48
##47
thy
thum
thunder
##inz
##inine
youve
theft
##anes
##edly
##itudes
##orable
##ingamp
anx
anna
##isadr
##aru
##ariti
##rels
##reira
inject
##asgow
##leg
##least
reyn
reilly
whos
whitt
whistle
beast
##ayer
##uta
##utel
ongoing
##agh
##agic
##etnik
stur
stack
stern
shane
asinine
##amer
##amus
hehe
heaven
hab
meal
mehr
##illery
##verham
##urance
##urnpilot
sect
sequ
##opher
dogg
dodo
##imir
##iments
##imately
##unci
prote
prair
##irs
##olved
##andro
depress
gogo
goss
chol
chand
chong
chump
chern
chetnik
atleast
##hahah
allan
alloc
weah
wears
wealth
##essions
amateur
##osia
butch
abn
unban
uncyclop
saint
saql
blanc
canber
tramp
trends
fagg
faggit
willem
advent
edged
lib
ups
enorm
node
neur
prolly
wore
##aba
##gota
exha
agf
agrees
agencies
agassi
pem
##inki
##orted
##alking
facil
plagi
##eme
improp
hashim
##ullah
fatal
contains
manch
cler
clinch
clique
twe
brings
breda
dischar
disabled
disrupting
##ivan
resident
raz
stupidly
homers
scen
scre
##izer
quot
##ubishi
grims
wright
attending
firing
##assing
perot
perry
pertain
persu
perspective
crock
personnel
warm
banisadr
##headed
serie
ballot
backs
poem
slurs
monetary
##sexual
##place
freestyle
retali
basque
badgu
posters
marty
marry
##ibor
parma
verify
dram
drool
dressed
factors
refuses
##avs
keepin
terry
##111
14th
conscious
guingamp
21st
phras
nevermind
desper
13th
##eks
stress
partizan
##leroi
243
24th
engaging
thankyou
18th
centuries
coet
obtuse
relay
relating
discography
markka
mafia
root
roberts
carls
swan
longest
meanwhile
demol
showers
wrongly
boast
##ashi
runner
doubles
happend
##blan
findings
metals
barges
communities
formula
lolz
institution
finn
infact
ruutel
jerry
capable
handic
understands
singing
charleroi
##etsch
nicely
gloria
glorious
glasgow
highway
bothers
rediculous
cream
290
implying
fanboy
fanatics
farce
southampton
illusion
bury
extinct
boycott
1969
denying
waal
deaths
ahmad
chesterfield
##attan
firef
jungle
taibe
questionable
corrects
correcting
##bren
guessing
lawrence
medals
passion
passive
patent
pattern
buzz
deadly
respectable
avoc
testament
depend
semitism
promoted
promotes
murdering
##life
civilized
studied
misunder
suggests
snob
larry
northeast
pays
325
nhl
334
brah
brawl
hurry
brainless
canadians
650
servants
389
davids
##aneously
electric
liberia
liberty
awarded
tripoli
1983
1980s
campus
mrs
merge
existance
economist
seasons
koreans
deletionist
graves
lowest
debates
declar
unden
undone
resulted
fascism
judgment
swede
operated
ridiculously
liege
despicable
criticised
honesty
remaining
autistic
gunmen
sufficient
frankie
mcg
colleagues
webpage
8720
searching
quarterly
versus
versions
walls
contacting
effectively
osama
christianity
ferreira
mutil
educational
investigations
teaching
representative
nasda
montpell
generation
artillery
tagged
fraction
albino
florence
hanged
##pires
nicosia
rename
molester
funded
reversed
reversion
disagreed
disagrees
virginia
councils
employer
9373
masterkova
ramallah
gajd
arrives
companion
difficulties
##fschap
bobby
optim
networks
jordanian
trucks
ivac
werder
duh
duis
rises
documentary
prayers
dreams
applied
envy
connected
lawsuit
henri
mountains
academia
##andez
charlie
focused
hunting
##liga
introduction
extraord
klpty
commanding
michelle
macedonians
tendulk
bucket
satisfy
##jobs
##escu
escaped
veterinary
assumptions
weapon
makinen
rallying
tyrant
libelous
engineering
rejected
shocked
shocking
translation
dahlia
demonstrated
dinamo
praise
survived
revolutionary
zairean
tunnel
slanderous
celebrate
##holm
pronounce
pronounced
diesel
spineless
explosive
occasions
kabariti
revisionist
paglia
wolverham
spiteful
##00000000
##ssssssssssssssss
principle
prospects
writings
##11111111111111111111111111111111
acknowled
unwanted
climbed
kidnapping
audacity
buffalo
sympathy
disappointed
kannada
rewrite
unreason
frequent
bilateral
tribes
incredible
collapsed
obscene
antisemitic
nicaragua
yehovah
borders
wiping
##imonious
hugh
woolmer
wikinazi
##dersfield
alpine
warrants
challenged
embarrassing
cursed
structure
cardinals
gawd
aspergers
grenades
marxist
verbal
helicopter
barbarians
bureaucratic
gigantic
mcewan
tilburg
infected
consolid
provincial
hippie
riddance
vendetta
rectum
##ovsky
stephanie
execution
stereoty
huddersfield
mubarak
necessarily
marshall
destructive
rhetoric
stuart
unbeaten
accompan
auburnpilot
feeble
nijmegen
tranmere
brisbane
transparent
volatility
caucas
esteem
mitsubishi
sittard
deviant
contemporary
bundesliga
condescending
##ijuana
namibia
nawlinwiki
lopez
rkc
xinhua
orlando
algiers
encyl
graafschap
schumacher
bochum
barnsley
transgender
epidemic
ecuador
bwilkins
github
guevara
kleargear
pirelli
vitesse
mehrtens
##unciation
gossip
saqlain
canberra
plagiar
hashimoto
grimsby
nasdaq
montpellier
klptyzm
tendulkar
wolverhampton
4th
6th
au
aides
bick
bich
beng
brick
baker
bhad
cnn
cole
cough
cob
cyr
ded
dot
dop
dac
dash
dorm
dancing
eug
fi
fas
fad
falk
fier
font
gt
gd
git
gle
gul
gast
ganna
gesp
huss
hollow
iam
jy
joo
jill
jour
jake
ky
kay
kro
kap
kings
kaw
koh
kinder
lur
lending
lane
mf
mole
moss
munch
nv
nest
og
ore
ooooo
pf
pour
phall
pavel
ramp
rss
ranks
sb
sia
sall
sigh
sida
tm
tch
tire
tav
tier
tatt
ust
umm
vain
wut
wink
wretch
yor
yay
zap
##rous
##rayed
##iqu
##tra
##tts
##gent
##gate
##ao
##dal
##dick
##dling
##daf
##luca
##sinki
##cins
##caster
##bomb
##uir
##uccess
##kind
##keeper
##hor
##mal
##mend
##mese
##wo
##wp
##wall
##wald
##week
##pot
##pful
##nut
##nost
##von
##vas
##vist
##fol
##qvist
##zant
##83
##job
##5m
##18
##19
thre
thigh
##inated
##inations
youn
##onk
##anic
##anim
##anbul
##itre
##ingo
##enza
anointed
##lll
##llor
##isher
##isance
##arl
##aray
tott
##uckle
##alith
android
##recht
inability
##asad
##omir
revel
reins
reorgan
beograd
##sten
##stain
##ione
##ionage
oncins
##ader
##adig
##owa
##eto
stg
stup
shak
shah
shield
##entine
##amps
##ldorf
height
healthy
hai
haar
sewer
selection
##ima
##imer
##imony
prasad
##iri
##istown
##aac
diat
degr
##usions
goats
wikid
chop
##tering
fran
frag
frost
##ewoo
assed
ate
atro
atmos
comed
soil
armin
allied
weld
amnesty
don´t
##antile
##umes
##umps
abo
abol
unim
unity
unite
shitface
blunt
oral
canon
trent
tranny
ade
adress
liech
wholly
##elt
##elpful
alison
byzant
enab
enqvist
noble
niggertard
knees
nev
neill
##iece
pell
faggotmongo
suits
someones
outd
##endar
##emon
##roach
##uez
cockroach
artical
contend
##apt
##minton
##venport
##derland
mang
manag
manif
manila
##ickers
clubs
newbie
brend
britt
brows
##ollah
lod
lofton
rafter
penistown
##arez
stupidest
homie
scary
scope
scrat
##izza
##ubes
##ppiz
##onduct
##ansson
fires
overtur
persec
##osevic
crank
poles
asshat
server
smicer
indo
indirect
##oco
##ocol
wanking
poet
slime
tear
monop
dayton
##issa
herd
freight
##eepers
retiring
##acious
badminton
sheer
sheet
feared
##azis
paras
damm
damasc
damaged
##rator
##aved
148
superb
comeback
guj
flam
flies
flown
partial
insuff
##alese
centered
preserve
237
2003
regions
helsinki
evac
roast
rovers
carlo
steer
##estering
emotional
##tte
endless
schm
apost
poopie
irc
boom
boge
boards
bogota
urged
believing
##atures
orgy
proph
meta
metz
##wara
barrels
continental
decade
recalled
brits
britann
285
280
curtain
##usetts
##rained
mohamed
seemingly
halt
##oki
milosevic
friendship
surin
##maar
##sss
breach
dax
daft
daewoo
davenport
##ioake
salomon
greatly
colour
johansson
impart
entr
mush
southend
southwest
juice
exploded
consideration
illino
protocol
burns
burmese
profiles
annivers
ideals
ideological
sunfl
sunderland
skies
denis
numeral
gear
##insmann
407
moments
authoritarian
##atti
giov
gonz
chavez
christopher
taht
taunt
##brough
eritre
passes
psp
patro
respectively
cowboy
visits
testimony
promising
promises
mongrel
riding
absor
absent
snive
northwest
distinction
payment
payments
summit
investments
tourist
fellatio
pops
acceptance
movements
##rington
uncensored
rapes
rapper
holders
unsuccess
explains
531
motive
nonsens
960
berlex
##iii
militant
##lover
shallow
jeppiz
controlling
examination
karim
arabian
complains
keen
declare
undis
supporter
judges
##unga
operators
ruben
midnight
vanity
freaky
affili
affirm
datab
sounding
kicks
dearest
exceptions
solar
solve
goldman
moderate
578
franklin
definitions
tvm
521
batter
metalcore
devout
devices
belonging
revoked
universal
silent
latino
drivers
tariff
ferry
##uvin
lights
lighten
mutual
associate
processes
crackdown
cathol
banging
reaching
competitive
sweeping
##raceful
techniques
nicol
nicolas
historic
jackasses
3000
circuit
##ippers
fellowship
reversing
darling
lankan
geez
strikes
emails
avoiding
darkness
##marked
indicate
indication
motorcy
trafficking
machado
meantime
1948
imagination
corrupted
hunter
hunger
hahahah
launching
duke
walt
walsh
permitted
drivel
targets
journalists
nigerian
prayer
dissidents
gorilla
rodrig
prostitution
rhyth
initi
communicating
customer
henke
ratings
consumption
determination
mahala
package
jokers
expertise
ipswich
tillstrom
##paul
charlotte
numerals
##taba
suitable
jayjg
klinsmann
shipment
automated
michel
michigan
advertise
ironic
ironically
recovered
participate
satisfaction
acquired
indefinite
attracted
mlad
gazprom
performed
nyc
frustration
slimvir
translated
springbo
dinner
##654
replacement
creepy
gilbert
gathered
hollioake
resolve
bigotry
thugs
malaysian
fishing
oliver
pitiful
tactic
surrender
exposure
georgia
occasionally
manufacturing
housing
rifle
espionage
motivation
chemical
kamboj
lisbon
forbidden
govt
##3333333333333333333333333333333333333333333333333333333333333333
brooke
brooks
headingley
prompted
northamptonshire
chamber
delusions
coupon
##broke
procedures
salvador
kannadig
##donald
comprehensive
vietnamese
observers
immigrant
bernardin
guru
peso
viking
shouting
soyoil
lecture
reconcil
cheeks
solely
arnold
arnhem
janeiro
trapped
dialogue
prohibited
clocked
breasts
##llllllllllllllllllllllllllllllllllllllllllllllllllllllllllllllll
##6million6million6million6million
gimme
toshiba
suburbs
userboxes
middlesex
middlesbrough
lunatic
nairobi
vulgar
bleeding
emphasis
pulp
corser
zyw
reckon
arkansas
eduardo
rescued
mujtaba
greetings
encounter
eagles
javier
zenith
stomach
unhelpful
hassan
unbelievable
theorist
provisional
grammat
attached
margins
dignity
diamond
defective
unpleasant
trinidad
alkmaar
marlins
narciss
oliveira
fortunately
philosophical
imprisonment
duffy
tildes
vladimir
xenophobic
frickin
excessive
brasilia
crucial
biographies
irregularities
eternity
hingis
jorge
mulatt
istanbul
isolated
aramaic
disarmament
carolina
ferrari
petroleum
saab
sustain
wobbs
##iveness
niggardly
bronze
marsden
phelps
swindon
doubts
collinelli
patricia
massachusetts
telecommunications
n00b
chernom
uncyclopedia
enormous
pembroke
improper
waalwijk
undeniable
gajdos
unreasonable
stereotype
gesprach
hussain
kroons
sidaway
atmosphere
overturned
indirectly
damascus
illinois
anniversary
unsuccessful
slimvirgin
33333333333333333333333333333333333333333333333333333333333333333
ai
aven
bones
busted
cn
cave
cyp
cites
cenc
d0
dik
dab
dang
dumm
dudes
egot
ease
eco
eta
fate
fence
fog
fitting
foil
gc
gong
gates
giles
hs
hick
hool
hooper
hmmm
haga
igor
ibra
jou
jets
java
ki
kp
kas
kom
kank
kang
koc
korn
kms
kla
kuch
lon
len
lig
lake
lions
lump
mm
m1
mia
mack
mab
mide
mmm
mfs
nan
nain
nix
nfl
ov
oj
ost
oreg
oops
pab
pian
pending
pont
rut
rent
rage
rack
rican
rants
raging
ripped
sre
sill
sidel
sessions
tou
tail
tense
taked
uae
ves
vel
vass
voy
vog
ws
wak
wong
wies
wire
woooo
wals
wits
wield
wij
woos
yonse
zar
zab
zoom
##eze
##rised
##rades
##riment
##iu
##town
##ture
##oly
##oir
##aar
##aver
##aism
##dos
##lic
##law
##sy
##cur
##cock
##cous
##bas
##bet
##buster
##kun
##hen
##hip
##mount
##moot
##won
##wol
##were
##pret
##not
##vo
##father
##fold
##function
##32
##68
##zhao
##90
##2tab
##46
##ouard
##ouds
tho
thier
##erences
##inas
##inator
##atan
##atly
##onn
##anra
##itan
##iture
##itative
##itutions
##orial
##enet
anat
##isim
##isha
##isbury
##arat
##arse
##arth
##arity
##arana
tooth
tower
##alt
inade
inev
inex
inbred
##asa
##asaki
##asbourg
##lepool
##lefeld
##omwich
##icia
isaac
reass
recl
rehman
whis
##seldorf
##vet
##stars
##igious
##igration
##ayan
##agging
##aguch
##ady
##ados
itar
##etown
##etable
stoo
stun
stall
stif
stret
strick
stiff
stretch
shov
shrew
shorter
##chin
##chen
##lde
heating
heels
notts
dol
##imm
##unct
##unge
##ipated
##itharana
prat
##istical
##andu
deeds
##usch
wikist
wikie
chant
##rah
##rack
##raction
##termin
frances
ata
comrades
sok
ariz
conver
amid
donna
donald
butts
ung
unus
shitbag
savi
sauce
blows
blaming
##tym
troy
trio
morton
edouard
liam
libert
offending
##eline
aless
##pee
bypass
enh
leech
1981
probe
proclaimed
exped
exhib
extermin
##ishiva
##orting
##ccc
sux
sugar
outbreak
faults
pls
plants
##itect
##embourg
fath
manh
manga
manhood
##eeva
clot
cloud
clouds
twink
brig
bros
bromwich
hiv
hire
##olley
loik
discl
disqual
##ivai
reserves
raith
rawr
rachel
penet
##ggg
compatri
scjes
quar
quake
grass
grief
attitudes
##odom
overcome
pern
perish
pertin
rightly
crop
cruz
##ensions
actors
warne
warfare
firstly
addiction
smash
smooth
miner
pok
poker
commies
slip
monten
monroe
##ogical
##ogyn
##ogatory
herbert
freeman
realy
tryin
marijuana
mats
##ictions
shear
mayor
parr
parne
##obox
##umbent
##umbling
bastia
mug
supermark
hitlers
busang
##prise
guests
puta
phan
phony
floyd
##eker
strasbourg
partially
informations
engines
cleans
somethin
insin
loserqueen
obst
relatives
coruna
corresp
##isevic
ruler
discount
defended
incons
incumbent
registr
evans
headley
carn
carter
messed
sword
funk
##vised
##visions
emper
turner
apiece
irony
simmons
harsh
##bani
antwer
orgas
propose
proportion
confed
conferences
metre
meters
##phan
decaus
briton
28th
##ucted
##uctions
biatch
biogen
courage
mofo
install
instruct
childrens
inflam
##oken
milk
latvia
ignoramus
surf
freely
singled
humble
humili
subpo
subhuman
brett
273
278
263
266
269
26th
timing
timetable
blackpool
##ologies
oklah
salisbury
calif
expects
cret
318
nationalistic
element
29th
impose
musical
detriment
considerably
airlines
burma
collided
##egade
trollish
englishman
skunk
denies
restr
restrict
malcol
maleeva
malivai
arrive
unblocking
geoff
founding
sadly
repeating
muralith
dirk
halfway
appeals
##iddle
italians
chauvin
petra
expires
tape
questioning
correctness
##brother
##br123
jerkoff
victories
##meer
aviv
cowboys
possess
mainten
depending
murderers
ugh
cannon
bitar
studying
peaceful
misf
horr
behaving
atheism
359
54th
publications
pakis
totalitarian
counts
323
brack
grey
jesse
ordering
pasted
##englad
awfully
accepting
uncom
uncalled
compliment
nightm
holdings
balanced
honour
538
motion
pedant
liking
importantly
merr
merch
queers
##alez
##333333333333
systematically
magic
425
pressing
specially
specified
answering
garcia
grandmother
debating
masses
ethics
judith
judaism
socialists
costas
opposes
midget
412
animation
##kkkkkkkk
epf
epith
epbr123
kicking
criticise
lowered
robin
convince
martina
solo
reuter
franco
bandw
senseless
senator
privacy
lacking
omp
accordingly
deceased
utrecht
floating
protesters
validity
burnt
slapping
covering
statue
baiting
wallab
friggin
boxmeer
touched
touches
##ihad
blowing
equity
##iffel
investigated
derogatory
laughs
gamer
variety
melissa
camera
cambod
##ugged
processing
inflated
generic
bangui
hosts
architect
pollock
randy
enterprise
psychotic
hamas
hamlet
nicole
historians
rennes
renewed
renegade
practical
additionally
goddamned
pushers
crossing
##crimin
1979
gladishiva
sarcas
hacked
strikers
proposing
programm
conflicts
missionary
bulk
oliv
slutty
hillary
yankee
trafford
crowds
dragged
networking
1949
physically
conclude
equaliser
##pora
dreamguy
julie
guilt
albums
krish
initiated
teenage
jeffrey
updates
woodbridge
##encia
wrestler
bulgarians
dunno
hyper
stabbing
nba
shipping
forgotten
##ocentric
automatic
achieved
colonial
interpretations
bolton
coldplay
recovering
participants
manipulated
acquire
embargo
linz
combination
maintained
maintaining
reforms
graduated
unnamed
emerging
ranting
sikhs
literature
requirement
weirdo
harmful
accomplished
throated
persistant
nuisance
yamaguch
chilean
hahahahahahahaha
philippine
philippines
confirmation
vandel
righteousness
celica
pronunciation
terrif
colombian
explosion
dynamo
adjust
subscrib
poisoned
maggots
constitutional
maps
##pieces
boosted
stroke
philippe
neighbours
dreaded
hayes
venue
valletta
baham
lucas
shareholder
premiums
entertaining
bureaucracy
audience
gilles
kraj
shirt
expanding
crushed
massacres
succeeded
squeeze
shelling
adviser
advised
newcomers
obscure
pashtuns
hartlepool
kaluw
ricky
demonstrating
bordeaux
hutu
tankan
ivanisevic
tampa
taleban
priests
wikinazis
spaniard
mauritius
mauritania
hooded
pilot
##iciently
allenby
evidently
incomplete
infringement
gestapo
lahd
mocking
napole
##⟲⟲⟲⟲
antics
graceful
divorced
corey
loren
tbh
bishop
insecure
strictly
azerbai
sergei
dawg
disposable
luxembourg
liquidity
horses
skeptic
wareh
unexpect
raul654
interfering
flawed
extradition
culmin
luton
##interpret
inherently
chooses
pledged
afrocent
prejudice
elaborate
confiscated
sanctimonious
electronic
descendants
bielefeld
jeez
olsza
ymblan
aluminum
browse
indiscrimin
webquests
cunningham
batsman
diaspora
backstab
elephant
misrepresent
distinguish
erroneous
euphemism
infrastructure
cwt
hathate
vodka
zhanzhao
##hurst
coetzer
swansea
##brenica
declaration
duisburg
accompanied
journey
kawasaki
diatribe
arminia
manifest
persecution
surinam
impartial
gonzalez
catholics
rhythm
zywiec
33333333333333333333333333333333333333333333333333333333333333333333333333333
ibrahim
joubert
kocinski
mideast
pablo
srebrenica
takeda
woosnam
yonsei
scjessey
pertinent
monteneg
parnevik
registrations
emperor
antwerp
decausa
oklahoma
malcolm
muralitharan
maintenance
##engladbach
yamaguchi
kaluwitharana
azerbaijan
ymblanter
2x
5th
ald
acl
afore
ayr
aoki
bend
bov
bact
bbc
cull
cels
db
das
dic
dion
dame
dues
dys
dimin
dbach
ect
elder
etym
fow
fiend
fking
fold
gat
gust
gard
gail
gks
gordon
hil
hast
ion
jk
jens
jays
jalal
jenn
jockey
jlat
kle
ket
kate
kitch
kuc
lent
lust
lest
lue
lomb
mg
mth
mous
mds
mardy
nis
nld
nath
nable
nail
naming
oooh
ocd
pik
pent
pock
pice
pub
puff
pione
qld
rus
roof
roose
rounder
sings
sina
samp
sized
sooo
saga
sissy
tp
tin
tian
tart
titt
tiss
tandem
udin
uzb
vp
vid
wth
woe
wbc
yas
yang
ytm
zamb
zlot
♪♫
##ezy
##run
##rings
##ranger
##iago
##tight
##yk
##yton
##garden
##dic
##lies
##lord
##lined
##sbury
##cat
##cup
##cake
##cised
##coph
##cular
##but
##bull
##uber
##hang
##holes
##mus
##mothers
##mila
##muir
##wed
##wel
##pur
##ples
##nc
##nov
##naca
##vp
##vv
##vine
##fre
##q210
##xon
##xic
##xham
##3n
##69
##zin
##ziel
##27
##jin
##jim
##jug
##jord
##56
##100
##ouc
thw
thugg
##ergen
thej
##aning
##anica
##itious
##esis
##engo
##enne
##ller
##isle
##arty
##arms
##argh
tod
toll
##ucker
##alc
##alom
##alie
##alism
anderson
andpieces
ofk
##rec
##repor
inha
##asena
reel
reps
reiter
reiffel
whim
whoop
beers
begg
bevan
##stan
##ayr
##utable
##utto
##adin
##adian
##eted
stri
stark
shank
shave
shimon
aspie
##chee
##chita
##chdale
##enter
##entry
arequ
forens
forwards
##lding
heed
hees
heap
haunt
##iller
##tha
##think
sel
semin
seats
seizing
##iably
##opic
##opje
##unthorpe
##ipa
privil
myst
myths
##olve
##olate
##istent
##anded
dew
deploy
goet
chg
chess
##akib
##tery
fright
##ilation
sober
arts
arses
aryan
conway
conrad
conchita
weiss
weaver
amen
ample
ammar
amoco
donovan
doncaster
##ulz
##ulus
##iggy
##ationally
butter
abe
abid
abuser
una
unar
unle
unint
unident
uninform
unworthy
shitlol
sacr
ort
orphan
##ain5
tro
tray
traged
fagots
willie
morgan
edward
livest
offset
bytes
upst
upside
uprising
uptight
noon
lehman
leyton
prose
worn
##abis
##abeth
##aaaaaa
##mentioned
exeter
exiled
##ongs
sull
succ
outf
##ffe
##endi
##emp
spider
spots
spla
imdb
##shots
##aping
jewfat
##uda
##iescu
##vens
maniac
##ella
##icki
evert
newbies
twente
hier
hows
##iche
loath
logo
disaster
disambig
resent
##gger
comply
comparing
scunthorpe
quer
##pppp
grudge
wrath
##ondre
##asses
overlook
peru
bullish
bullcrap
persians
cram
crist
##ensible
##ensitive
warner
warrior
warmong
intro
intensive
banes
banner
sergi
ballanger
smashed
indul
intercept
##ocracy
slide
slog
teab
monarch
##ograp
hermit
underage
underlying
wellman
littlemount
##acles
badass
belo
worker
loses
##quer
##ibbean
##intendo
dammit
##oba
factually
cocksuckers
muz
buses
consulate
bigots
##primes
wherever
shutup
shutdown
checks
cheerle
16th
##weed
hugg
flush
flows
stripped
informative
insp
insists
dumbshit
cox
obese
##kei
elf
elite
eliz
##kker
defl
incess
appo
approve
marking
maoist
helibor
eval
evid
roe
roots
rocca
rochdale
namely
carries
careless
carrier
caribbean
genoa
longye
ende
schulz
worded
repost
apes
##beans
irina
boh
##orkian
##ashenko
startup
simitis
removes
happily
harvest
##vio
##vers❞
watford
propri
clearer
confusion
metro
roma
romance
barred
##phy
continuously
286
bios
##perform
moar
moench
sane
infusion
infobox
##burger
rui
sycoph
##ofi
surname
##ucing
##ucnost
##check
timor
blackmail
glor
gloom
salute
salaries
botham
calendar
colors
colony
reduction
crewe
farts
fanatical
angle
angered
anglo
angola
farrak
enters
juergen
illust
illogical
watchlist
burke
extension
profound
computing
provoke
skopje
socking
athiest
waht
##hammer
policeman
##why
##atherine
restruct
bills
##insider
406
ahold
viewing
authoritative
murders
##atted
gibson
firework
##amento
reportedly
chaos
petrol
##anni
tao
taipe
75th
##bron
erup
lawyers
thirds
victor
agreeing
##yrdin
ps3
patient
buh
buis
possession
copying
mainland
releases
pale
palin
depra
depri
uganda
civilization
trades
traditions
monger
noneth
yawn
misogyn
misinterpret
##awi
##aware
numbered
horribly
snake
snide
larnaca
condoms
##atson
kuru
distinct
buducnost
summon
brained
answere
portal
tourism
shotgun
servic
38th
popov
compliance
##ascar
462
mouthed
benin
mums
pakistanis
futile
gooch
limp
pedest
bernd
admir
admitting
mercil
jeop
fairy
controllers
duties
caution
viruses
speakers
economists
strongest
##ammy
garlic
shortened
dumbasses
grandmothers
frenchman
subjective
grav
karak
karbacher
undue
absolut
constitutes
767
classical
##tenberg
##tenstein
excited
telekom
##combe
costantino
janitor
midday
47th
90th
despise
cybers
robber
robbie
robinson
volumes
membership
confirming
cker
trees
danish
painted
painfully
seedings
speeches
tyler
typed
indiana
bombings
footn
gunman
gunna
seneg
suffers
sufficiently
57th
sandra
privately
lifting
stockport
favorable
aki
coul
specialist
batch
decisive
biases
375
519
typing
kisses
mcle
mcdonald
devast
devote
devoted
scientology
revise
holier
tomb
chancellor
burnley
searches
ethnically
drives
ladies
remarkable
baht
hopeless
nominate
rudely
trains
oslo
apologised
douchebags
reviews
expressing
muther
rocket
##iffe
derail
gaming
winger
montg
earthqu
luckily
publisher
hostages
strikeouts
buildings
psychological
bonus
wheels
barnet
improvements
##rams
peterborough
circles
contracted
molay
funding
jamesbw
practically
conversations
crossed
##cripts
##keren
blindly
1976
1975
appropri
sells
placings
smartass
employment
disgraceful
darker
ramos
candy
journals
arriving
copyrighted
immense
immigration
blatent
negotiate
carlisle
positively
diseases
insisted
delivering
panels
incomes
fleming
1940
imagined
physics
accessible
equality
intellectually
tighten
innit
conservation
documentation
anonymity
aleks
praying
primarily
heavyweight
rankings
wimp
splitting
globo
roda
rodney
rhobite
ninja
##armasena
rolls
impressive
disapp
disappe
lawsuits
naive
butthole
rabid
pga
packed
registering
dunge
duncan
abducted
ilchee
iliescu
stabil
selective
substitute
fantastic
santiago
shrink
duran
achieving
chatting
quietly
colonna
interpreted
novaran
manipulating
drunken
dishonesty
linford
assumed
briefing
essential
makin
attracts
1650
emerged
homophobe
voiced
havre
ensched
breathe
demonstrations
accomplice
wrexham
plantation
struggled
survive
magnifying
birds
gilberts
lyon
nuke
labeled
narrowed
celebrities
rogue
hahahahahaha
implies
reflects
reflected
dubai
rumor
rumour
rumours
wikipeidia
brighton
producing
deliberate
##rawi
sidew
rebu
concealed
spartak
surrounded
dharmasena
subsidi
relationships
rifles
stepping
boatmen
prestigious
savings
hooker
cairns
jamie
roubles
prospect
verifiability
stefano
chapman
promptly
temperatures
dystr
lgbt
odds
rudeness
rushed
shameless
spectators
gillingham
pillars
vocals
shirts
peeps
confrontation
encyclopaedic
transportation
dimit
sakai
sakakib
vacation
comprehension
contradicting
olympiak
ronaldo
guaranteed
cousins
newcomer
newcombe
observed
cells
hoddle
tapie
annex
soybeans
railway
bjp
yahoo
dodgers
fernandez
dwee
hugs
ponting
ticket
alberto
prohibit
eriksson
physicq210
gentleman
kafziel
navy
pyprimes
ww2
alpha
dressing
blewett
volunteer
##zzzzzzzzzzzzzzzz
gibber
nikkei
harrasing
fredericks
##hehehehehehehehehehehehehehehehe
bhutto
##zbollah
asperger
grenade
helicopters
condemn
condemned
observation
increasingly
fetish
mechanism
phenomen
severely
natalya
encountered
##dddddddddddddddddddddddddddddddd
##nnnnnnnnnnnnnnnnnnnnnnnnnnnnnnnnnnnnnnnnnnnnnnnnnnnnnnnnnnnnnnnnnnnnnnnnnnnnnnnnnnnnnnnnnnnnnnnnnnnnnnnnnnnnnnnnnnnnnnnnnnnnnnnnnnnnnnnnnnnnnnnnnnnnnnnnnnnnnnnnnnnnnnnnnnnnnnnnnnnnnnnnnnnnnnnnnnnnnnnnnnnnnnnnnnnnnnnnnnnnnnnnnnnnnnnnnnnnnnnnnnnnnnnnnnnnnnnnnnnnnnnnnnnnnnnnnnnnnnnnnnnnnnnnnnnnnnnnnnnnnnnnnnnnnnnnnnnnnnnnnnnnnnnnnnnnnnnnnnnnnnnnnnnnnnnnnnnnnnnnnnnnnnnnnnnnnnnnnnnnnnnnnnnnnnnnnnnnnnnnnnnnnnnnnnnnnnnnnnnnnnnnnnnnnnnnnnnnnnnnnnnnnnnnnnnnnnnnnnnnnnnnnnnnnnnnnnnnnnnnnnnnnnnnnnnnnnnnnnnnnnnnnnnnnnnnnnnnnnnnnnnnnnnnnnnnnnnnnnnnnnnnnnnnnnnnnnnnnnnnnnnnnnnnnnnnnnnnnnnnnnnnnnnnnnnnnnnnnnnnnnnnnnnnnnnnnnnnnnnnnnnnnnnnnnnnnnnnnnnnnnnnnnnnnnnnnnnnnnnnnnnnnnnnnnnnnnnnnnnnnnnnnnnnnnnnnnnnnnnnnnnnnnnnnnnnnnnnnnnnnnnnnnnnnnnnnnnnnnnnnnnnnnnnnnnnnnnnnnnnnnnnnnnnnnnnnnnnnnnnnnnnnnnnnnnnnnnnnnnnnnnnnnnnnnnnnnnnnnnnnnnnnnnnnnnnnnnnnnnnnnnnnnnnnnnnnnnnnnnnnnnnnnnnnnnnnnnnnnnnnnnnnnnnnnnnnnnnnnnnnnnnnnnnnnnnnnnnnnnnnnnnnnnnnnnnnnnnnnnnnnnnnnnnnnnnnnnnnnnnnnnnnnnnnnnnnnnnnnnnnnnnnnnnnnnnnnnnnnnnnnnnnnnnnnnnnnnnnnnnnnnn
##fuckfuckfuckfuckfuckfuckfuckfuckfuckfuckfuckfuckfuckfuckfuckfuckfuckfuckfuckfuckfuckfuckfuckfuckfuckfuckfuckfuckfuckfuckfuckfuckfuckfuckfuckfuckfuckfuckfuckfuckfuckfuckfuckfuckfuckfuckfuckfuckfuckfuckfuckfuckfuckfuckfuckfuckfuckfuckfuckfuckfuckfuckfuckfuckfuckfuckfuckfuckfuckfuckfuckfuckfuckfuckfuckfuckfuckfuckfuckfuckfuckfuckfuckfuckfuckfuckfuckfuckfuckfuckfuckfuckfuckfuckfuckfuckfuckfuckfuckfuckfuckfuckfuckfuckfuckfuckfuckfuckfuckfuckfuckfuckfuckfuckfuckfuckfuckfuckfuckfuckfuckfuckfuckfuckfuckfuckfuckfuckfuckfuckfuckfuckfuckfuckfuckfuckfuckfuckfuckfuckfuckfuckfuckfuckfuckfuckfuckfuckfuckfuckfuckfuckfuckfuckfuckfuckfuckfuckfuckfuckfuckfuckfuckfuckfuckfuckfuckfuckfuckfuckfuckfuckfuckfuckfuckfuckfuckfuckfuckfuckfuckfuckfuckfuckfuckfuckfuckfuckfuckfuckfuckfuckfuckfuckfuckfuckfuckfuckfuckfuckfuckfuckfuckfuckfuckfuckfuckfuckfuckfuckfuckfuckfuckfuckfuckfuckfuckfuckfuckfuckfuckfuckfuckfuckfuckfuckfuckfuckfuckfuckfuckfuckfuckfuckfuckfuckfuckfuckfuckfuckfuckfuckfuckfuckfuckfuckfuckfuckfuckfuckfuckfuckfuckfuckfuckfuck
##aaaaaaaaaaaaaaaaaaaaaaaaaaaaaaaaaaaaaaaaaaaaaaaaaaaaaaaaaaaaaaaaaaaaaaaaaaaaaaaaaaaaaaaaaaaaaaaaaaaaaaaaaaaaaaaaaaaaaaaaaaaaaaaaaaaaaaaaaaaaaaaaaaaaaaaaaaaaaaaaaaaaaaaaaaaaaaaaaaaaaaaaaaaaaaaaaaaaaaaaaaaaaaaaaaaaaaaaaaaaaaaaaaaaaaaaaaaaaaaaaaaaaaaaaaaaaaaaaaaaaaaaaaaaaaaaaaaaaaaaaaaaaaaaaaaaaaaaaaaaaaaaaaaaaaaaaaaaaaaaaaaaaaaaaaaaaaaaaaaaaaaaaaaaaaaaaaaaaaaaaaaaaaaaaaaaaaaaaaaaaaaaaaaaaaaaaaaaaaaaaaaaaaaaaaaaaaaaaaaaaaaaaaaaaaaaaaaaaaaaaaaaaaaaaaaaaaaaaaaaaaaaaaaaaaaaaaaaaaaaaaaaaaaaaaaaaaaaaaaaaaaaaaaaaaaaaaaaaaaaaaaaaaaaaaaaaaaaaaaaaaaaaaaaaaaaaaaaaaaaaaaaaaaaaaaaaaaaaaaaaaaaaaaaaaaaaaaaaaaaaaaaaaaaaaaaaaaaaaaaaaaaaaaaaaaaaaaaaaaaaaaaaaaaaaaaaaaaaaaaaaaaaaaaaaaaaaaaaaaaaaaaaaaaaaaaaaaaaaaaaaaaaaaaaaaaaaaaaaaaaaaaaaaaaaaaaaaaaaaaaaaaaaaaaaaaaaaaaaaaaaaaaaaaaaaaaaaaaaaaaaaaaaaaaaaaaaaaaaaaaaaaaaaaaaaaaaaaaaaaaaaaaaaaaaaaaaaaaaaaaaaaaaaaaaaaaaaaaaaaaaaaaaaaaaaaaaaaaaaaaaaaaaaaaaaaaaaaaaaaaaaaaaaaaaaaaaaaaaaaaaaaaaaaaaaaaaaaaaaaaaaaaaaaaaaaaaaaaaaaaaaaaaaaaaaaaaaaaaaaaaaaaaaaaaaaaaaaaaaaaaaaaaaaaaaaaaaaaaaaaaaa
##uyuyuyuyuyuyuyuyuyuyuyuyuyuyuyuyuyuyuyuyuyuyuyuyuyuyuyuyuyuyuyuyuyuyuyuyuyuyuyuyuyuyuyuyuyuyuyuyuyuyuyuyuyuyuyuyuyuyuyuyuyuyuyuyuyuyuyuyuyuyuyuyuyuyuyuyuyuyuyuyuyuyuyuyuyuyuyuyuyuyuyuyuyuyuyuyuyuyuyuyuyuyuyuyuyuyuyuyuyuyuyuyuyuyuyuyuyuyuyuyuyuyuyuyuyuyuyuyuyuyuyuyuyuyuyuyuyuyuyuyuyuyuyuyuyuyuyuyuyuyuyuyuyuyuyuyuyuyuyuyuyuyuyuyuyuyuyuyuyuyuyuyuyuyuyuyuyuyuyuyuyuyuyuyuyuyuyuyuyuyuyuyuyuyuyuyuyuyuyuyuyuyuyuyuyuyuyuyuyuyuyuyuyuyuyuyuyuyuyuyuyuyuyuyuyuyuyuyuyuyuyuyuyuyuyuyuyuyuyuyuyuyuyuyuyuyuyuyuyuyuyuyuyuyuyuyuyuyuyuyuyuyuyuyuyuyuyuyuyuyuyuyuyuyuyuyuyuyuyuyuyuyuyuyuyuyuyuyuyuyuyuyuyuyuyuyuyuyuyuyuyuyuyuyuyuyuyuyuyuyuyuyuyuyuyuyuyuyuyuyuyuyuyuyuyuyuyuyuyuyuyuyuyuyuyuyuyuyuyuyuyuyuyuyuyuyuyuyuyuyuyuyuyuyuyuyuyuyuyuyuyuyuyuyuyuyuyuyuyuyuyuyuyuyuyuyuyuyuyuyuyuyuyuyuyuyuyuyuyuyuyuyuyuyuyuyuyuyuyuyuyuyuyuyuyuyuyuyuyuyuyuyuyuyuyuyuyuyuyuyuyuyuyuyuyuyuyuyuyuyuyuyuyuyuyuyuyuyuyuyuyuyuyuyuyuyuyuyuyuyuyuyuyuyuyuyuyuyuyuyuyuyuyuyuyuyuyuyuyuyuyuyuyuyuyuyuyuyuyuyuyuyuyuyuyuyuyuyuyuyuyuyuyuyuyuyuyuyuyuyuyuyuyuyuyuyuyuyuyuyuyuy
##tytytytytytytytytytytytytytytytytytytytytytytytytytytytytytytytytytytytytytytytytytytytytytytytytytytytytytytytytytytytytytytytytytytytytytytytytytytytytytytytytytytytytytytytytytytytytytytytytytytytytytytytytytytytytytytytytytytytytytytytytytytytytytytytytytytytytytytytytytytytytytytytytytytytytytytytytytytytytytytytytytytytytytytytytytytytytytytytytytytytytytytytytytytytytytytytytytytytytytytytytytytytytytytytytytytytytytytytytytytytytytytytytytytytytytytytytytytytytytytytytytytytytytytytytytytytytytytytytytytytytytytytytytytytytytytytytytytytytytytytytytytytytytytytytytytytytytytytytytytytytytytytytytytytytytytytytytytytytytytytytytytytytytytytytytytytytytytytytytytytytytytytytytytytytytytytytytytytytytytytytytytytytytytytytytytytytytytytytytytytytytytytytytytytytytytytytytytytytytytytytytytytytytytytytytytytytytytytytytytytytytytytytytytytytytytytytytytytytytytytytytytytytytytytytytytytytytytytytytytytytytytytytytytytytytytytytytytytytytytytytytytytytytytytytytytytytytytytytytytytytytytytytytytytytytytyty
phoenixrepor
dmacks
faulding
yadavs
compensation
scarborough
phillip
phillies
discredit
##crapcrapcrapcrapcrapcrapcrapcrapcrapcrapcrapcrapcrapcrapcrapcrapcrapcrapcrapcrapcrapcrapcrapcrapcrapcrapcrapcrapcrapcrapcrapcrapcrapcrapcrapcrapcrapcrapcrapcrapcrapcrapcrapcrapcrapcrapcrapcrapcrapcrapcrapcrapcrapcrapcrapcrapcrapcrapcrapcrapcrapcrapcrapcrapcrapcrapcrapcrapcrapcrapcrapcrapcrapcrapcrapcrapcrapcrapcrapcrapcrapcrapcrapcrapcrapcrapcrapcrapcrapcrapcrapcrapcrapcrapcrapcrapcrapcrapcrapcrapcrapcrapcrapcrapcrapcrapcrapcrapcrapcrapcrapcrapcrapcrapcrapcrapcrapcrapcrapcrapcrapcrapcrapcrapcrapcrapcrapcrapcrapcrapcrapcrapcrapcrapcrapcrapcrapcrapcrapcrapcrapcrapcrapcrapcrapcrapcrapcrapcrapcrapcrapcrapcrapcrapcrapcrapcrapcrapcrapcrapcrapcrapcrapcrapcrapcrapcrapcrapcrapcrapcrapcrapcrapcrapcrapcrapcrapcrapcrapcrapcrapcrapcrapcrapcrapcrapcrapcrapcrapcrapcrapcrapcrapcrapcrapcrapcrapcrapcrapcrapcrapcrapcrapcrapcrapcrapcrapcrapcrapcrapcrapcrapcrapcrapcrapcrapcrapcrapcrapcrapcrapcrapcrapcrapcrapcrapcrapcrapcrapcrapcrapcrapcrapcrapcrapcrapcrapcrapcrapcrapcrapcrapcrapcrapcrapcrapcrapcrapcrapcrapcrapcrapcrapcrapcrapcrap
lanusse
rascal
##dogs
reminds
concede
amendment
sahrawi
sanctioned
disguised
incorporated
bourlet
cedric
nicholas
ooooh
wycombe
brentford
undermine
whitewash
cvg
panties
andersson
surprisingly
kilometre
aaron
griff
hyster
lukashenko
wounds
mansfield
moisture
approximately
bologna
ducati
vampire
forsyth
subsequently
kevorkian
reinstated
enthusi
bubble
bidding
heterosexual
kthx
pioline
sisters
siblings
vaughan
abnorm
exhaust
facilities
discharge
pertaining
badgujjars
phrases
encylopedia
younger
tottenham
aboard
liechtenstein
monopoly
prophet
eritrea
snivelling
nonsensical
undisputed
darlington
rodriguez
mladost
springboks
chernomyrdin
kankkun
klaus
walsall
##mootmoot
##wolff
chanting
arizona
ungraceful
enhance
manhattan
pokemon
correspond
chauvinist
misfortun
sarcasm
gillespie
napoleon
aclu
celsius
duesseldorf
dbachmann
jlatondre
kitchen
lombardi
mardyks
nathalie
nableezy
roosevel
udinese
ytmnd
arequipa
tragedy
livestock
littlemountain5
longyear
moenchengladbach
farrakhan
taipei
nonetheless
merciless
jamesbwatson
novaranist
enschede
gilbertson
sakakibara
olympiakos
phoenixreporter
kankkunen
1nb
320
533
6221
a3
aer
aunt
aiv
aqu
audi
awhile
bn
bv
bink
bri
bind
bass
bach
buk
bourn
bounce
bapt
coo
cud
civ
cuss
cac
coss
cott
cnie
catherine
dl
dk
dag
darn
dubn
daught
e2
eich
epr
erect
eti
ezin
fy
fv
fen
fud
foll
fles
fert
ferd
flex
foe
fdp
foster
ging
grove
gavin
h8
humb
honey
hls
hinder
ik
ih
icon
ilo
iowa
jh
jos
jab
jihad
ks
kand
kool
kob
kord
kiev
kiw
lom
lia
litt
lav
lash
lme
leng
luna
lighter
lenn
mit
mik
mam
nur
nuk
nyer
nelson
nintendo
pam
pess
pend
pose
pits
png
pander
pds
piano
puch
piggy
rr
rol
rother
rough
rider
rico
sz
soo
sank
sime
sang
sult
sakes
sieve
sarek
tl
tid
tac
tube
ue
ud
uaf
von
vas
vow
vie
vail
vfb
vowed
wan
wigg
wro
xi
xx
xia
yur
yop
yast
yada
yooh
zin
zan
zomb
zinc
zoe
❝я
##ely
##eur
##eign
##ebo
##rag
##rik
##rock
##rus
##raged
##rika
##titt
##yll
##ych
##gb
##gage
##gel
##god
##ais
##du
##dain
##dict
##lu
##lov
##lical
##cie
##cano
##bun
##butt
##uiz
##kan
##ked
##kie
##kick
##krade
##hist
##hans
##homer
##mith
##mate
##mline
##munch
##mandu
##wig
##western
##pes
##pop
##pest
##post
##power
##person
##nu
##nx
##nar
##nas
##nip
##nica
##vy
##vs
##vance
##fm
##fica
##xy
##3d
##36
##zs
##zaa
##zone
##zani
##zhem
##88
##89
##72
##24
##211
##jas
##jens
##45
##0r
##01
##oubt
##erion
##erile
##inqu
##inational
##inery
##atible
##atisf
##atunga
##only
##onts
##anium
##edvers❞
##itary
##itful
##orem
##orro
##ingitis
##enous
##enning
##enburg
anch
anke
##iso
##isons
##arrh
togo
toxic
##alis
##alton
##alanta
##reate
##rets
##reced
inver
incent
inline
##otal
##asants
##aseman
##asni
##lef
##leans
##omo
##omic
##icle
isles
fuckhole
repress
reigning
whop
whip
whoops
bele
beard
behead
beac
##iden
##see
##sement
##sets
##stop
##stick
##igi
##igent
##igake
##igible
##agle
##agram
##etto
##etjens
##ikol
##ikawa
sta
stim
stain
stations
stamp
starter
stains
stored
stenning
shin
shag
shem
shook
shoe
shoes
thatcher
asap
aspect
##chat
##cheng
forty
forfe
forfar
##amation
##aments
hah
hakk
meh
notion
notify
notably
notorious
##illo
##vereign
##ceeds
##cted
##thuiz
sealed
##ople
##opical
doin
##unged
##ippy
prud
##irk
##irin
##irts
##istuta
dil
dire
diverse
diarrh
##atel
##ateful
##andy
##usage
##uscript
goy
goetsch
cho
ches
chir
chew
chub
##aky
frog
franks
##iler
##ewise
##ustice
sofa
sosa
softer
sovereign
##estine
alloa
ween
amr
amy
##ules
##ulph
##ulatory
##umann
abomin
unita
unpa
unseed
unaware
saini
sabot
blas
blink
blessed
orr
orleans
##aint
canv
cancell
##ardt
tragic
mormon
lier
offences
offline
whoa
##elia
alum
usher
##pei
##pex
nostr
lean
lefty
##oung
##ounting
##iever
##abitch
##abani
exit
agony
peak
peel
peasants
##ouri
bitchy
bitchass
gayness
suhart
##arts
##ousing
outing
outcome
outperform
##ffy
##riers
##emouth
spi
spor
spank
spitz
spotted
##rov
##roven
impe
hasina
##ullandem
##shot
##hahahahaha
contra
jewranger
##udova
##venile
##letes
##icek
clo
cliff
cluster
brid
brug
bruce
howcheng
loading
resulting
##bsky
##manuel
hereford
quart
grin
gran
grants
grades
##ondition
##oda
perf
pervers
moreover
persia
##anges
crip
crashing
##ensed
##ifiable
warcraft
intense
asshol
ballz
joao
##cliffe
interrupt
interbank
miners
poke
slant
slash
slaugh
tech
teuten
pregn
monsters
##ogy
##acek
herm
herz
ballsack
needing
##pled
freind
underwood
##acan
marsh
marmad
shep
feud
fearing
##quay
##ibo
parad
parrot
verona
verdict
damon
##obot
##cester
##thing2tab
refres
refusal
commented
##1181
##ugini
consent
cheating
cheater
1610
##wear
guid
guzz
guides
putz
pharm
flick
desist
desys
desires
##actory
partly
##ribution
sourcing
lovely
centric
coon
coke
relent
reluct
reliever
##ossi
discont
els
elses
presents
define
deface
defines
defining
incon
##onsible
headache
cared
carre
genitals
messiah
swag
swap
swings
steff
functions
##esterol
##101
demons
schem
##alsa
reprod
lax
irs
##bold
doubled
simp
simult
invite
invade
fooling
germanic
happiness
##blum
##ression
anto
urban
urdu
hopeful
delight
acre
30th
30mod
mets
problematic
barzani
##phoid
formats
288
287
courts
moi
threatens
institutions
infant
syph
capiot
hander
handover
handgun
##ofile
charade
hume
hump
subaru
275
27th
##ologically
leftists
gluten
salang
highs
greatings
##berto
redact
followers
317
31st
297
292
291
impost
muscular
juvenile
yorker
detention
##ificent
homepage
meningitis
collstr
violently
sunshine
1966
1968
travest
skewed
athletes
waited
restric
planets
majors
majesty
founders
situations
sadr
sadder
murphy
truely
arseholes
##ientist
##anya
italic
petofi
expensive
expenses
70th
7095
stays
staying
fewer
memory
jerking
ers
ern
##gerard
##hean
missouri
lawrie
ministerial
##gros
stuffed
pats
patasse
patients
homeless
pretoria
avat
sonof
vision
visible
releg
relevent
jacking
deposed
depends
punks
punitive
cannes
cannabis
johnstone
studio
furry
scoreless
##awy
##awati
certified
horror
snatch
businessman
closet
543
vaginas
drinks
distract
33rd
331181
greer
greasy
greaseman
transform
transvest
transsexual
estate
estimate
hypoth
hypothes
portland
portfol
65th
madness
internationals
388
387
384
60th
60mod
tabthing2tab
islamabad
uncapped
uncondition
alongside
##ocrite
nights
baltic
balances
falsehood
467
461
mouths
unsolic
benfica
##ornik
534
53rd
goose
motors
berger
trips
1985
likewise
swearing
directors
admist
admire
admits
cultures
86th
merry
merits
merged
666
caen
caut
magna
viral
seasonally
85th
8520
746
credits
speculated
64th
##hhhhhhh
examine
logs
organising
requesting
declaring
undoubt
classified
classify
563
56th
555
squat
471
sounded
##linary
##cience
criticize
buys
robo
robb
volkova
volcano
convinc
conviction
confirms
solved
625
danie
775
injustice
unfounded
##fermline
bombard
alexandra
sandwich
435
disrupted
activism
millwall
pension
materialsc
batman
batistuta
multinational
deceive
accurately
515
objected
kissed
mcne
developments
colleague
##faggot
protested
goalscor
webster
drawing
searched
taxi
troublem
bait
trainer
contacts
industries
rotor
richards
lightly
##axy
##ategui
identities
puppetry
castle
describes
potato
defeats
legitim
834
830
montana
generated
increases
##iusz
archbish
connor
albion
khal
khalsa
bowl
pollution
departure
boner
historically
reversions
dares
##crime
1978
1970s
coaching
appreciation
proposition
establishing
ramon
divided
gaetjens
degrees
immort
luf
negotiated
negotiator
recognise
significance
panel
panama
1947
successfully
imaginary
ivory
sensational
sensible
worrying
coastal
walmart
targeted
journalism
prima
goran
interviewed
skilled
ambrose
crimea
applications
##spoken
firmly
rainfall
krakow
containers
ratio
##borg
##borne
warrington
academics
rabb
congressional
foolishness
redirects
packers
fortune
dunfermline
puerile
charlatan
groin
maxim
ghost
ghali
shrs
rosset
##woods
catching
tendentious
colonel
bucks
boliv
talabani
prepubes
barek
msg
msv
cyberst
kerkrade
linhart
assumption
outputs
popularity
midfielders
affecting
aziz
graduate
incorrectly
exclude
territories
torquay
fuckwad
maurice
galatas
galaxy
pimply
ripken
distributed
accomplices
gallon
throats
praha
praised
neighbor
magnificent
pseudonym
creeps
ranatunga
printing
intentional
irrigation
morality
sponsors
1930
pinas
opportun
ottoman
##breaker
traditionally
koerts
channels
dislikes
medicare
occasional
gutless
spoiled
spoilers
clarify
grasshop
crusades
pagan
stoltenberg
prestige
savage
slavs
strategist
1330
batters
battles
roster
strokes
paedoph
lengths
router
rouge
##geny
terminated
nilis
deported
obliged
glasses
patriot
substantiated
kidnappers
buffoon
sooooo
abandon
formatting
cocaine
sakigake
vinny
ankit
clicking
comprehend
feminist
feminine
cookie
douglas
goalkeepers
unpreced
functioning
experiences
kalash
offenders
lecturing
cruise
cargoes
legislation
legislature
##gggggggggggggggg
imperialism
wiped
inputs
cheek
sacred
rapidly
honorable
telecoms
townsend
extremists
exclusively
padres
tickets
dialect
concentrate
sparked
brutally
bragging
barbarian
brainwashing
cartoon
naval
wacko
suburb
warrant
synth
synonym
columbus
supremacists
convenient
spouting
frederic
benchmark
##7725
ineff
inept
beckjord
mercantile
divorce
bureaucrats
astros
biblical
digging
nagy
pwned
rsvp
##omerie
doomed
mujah
provinces
trailer
axe
shaun
sachs
eddieebo
clayton
eliminated
chronic
tunisia
unbelievably
ejaculates
kathmandu
niugini
westhuiz
reopen
cozma
obtained
awaiting
diaper
fulham
hmmmmm
mikael
vigil
##zhou
##enhagen
reeve
privatization
##wwwwwwwwwwwwwwwwwwwwwwwwwwwwwwwwwwwwwwwwwwwwwwwwwwwwwwwwwwwwwwwwwwwwwwwwwwwwwwwwwwwwwwwwwwwwwwwwwwwwwwwwwwwwwwwwwwwwwwwwwwwwwwwwwwwwwwwwwwwwwwwwwwwwwwwwwwwwwwwwwwwwwwwwwwwwwwwwwwwwwwwwwwwwwwwwwwwwwwwwwwwwwwwwwwwwwwwwwwwwwwwwwwwwwwwwwwwwwwwwwwwwwwwwwwwwwwwwwwwwwwwwwwwwwwwwwwwwwwwwwwwwwwwwwwwwwwwwwwwwwwwwwwwwwwwwwwwwwwwwwwwwwwwwwwwwwwwwwwwwwwwwwwwwwwwwwwwwwwwwwwwwwwwwwwwwwwwwwwwwwwwwwwwwwwwwwwwwwwwwwwwwwwwwwwwwwwwwwwwwwwwwwwwwwwwwwwwwwwwwwwwwwwwwwwwwwwwwwwwwwwwwwwwwwwwwwwwwwwwwwwwwwwwwwwwwwwwwwwwwwwwwwwwwwwwwwwwwwwwwwwwwwwwwwwwwwwwwwwwwwwwwwwwwwwwwwwwwwwwwwwwwwwwwwwwwwwwwwwwwwwwwwwwwwwwwwwwwwwwwwwwwwwwwwwwwwwwwwwwwwwwwwwwwwwwwwwwwwwwwwwwwwwwwwwwwwwwwwwwwwwwwwwwwwwwwwwwwwwwwwwwwwwwwwwwwwwwwwwwwwwwwwwwwwwwwwwwwwwwwwwwwwwwwwwwwwwwwwwwwwwwwwwwwwwwwwwwwwwwwwwwwwwwwwwwwwwwwwwwwwwwwwwwwwwwwwwwwwwwwwwwwwwwwwwwwwwwwwwwwwwwwwwwwwwwwwwwwwwwwwwwwwwwwwwwwwwwwwwwwwwwwwwwwwwwwwwwwwwwwwwwwwwwwwwwwwwwwwwwwwwwwwwwwwwwwwwwwwwwwwwwwwwwwwwwwwwwwwwwwwwwwwwwwwwwwwwwwwwwwwwwwwwwwwwwwwwwwwwwwwwwwwwwwwwwwwwwwwwwwwwwwwwwwwwwwwwwwwwwwwwww
kwasni
pipes
ptta
wisdom
thirty
noteworth
comfortable
sociopath
inventories
infinite
gianluca
hagg
mckay
heathrow
alaska
exaggerated
perceived
refunds
swimming
bankruptcy
transferred
mathematics
waldorf
habsudova
blogger
persecuted
manufacturers
intolerance
coventry
gaddaf
rusty
sceptic
tutsi
yoshikawa
depressed
cholesterol
chandana
allocated
manchu
razor
scenes
desperado
firefox
davidson
optimistic
acknowledged
hughes
consolidated
bickering
cyrus
fadia
kohl
nestor
franz
unimport
adequate
scratch
schmuck
giovanni
affirmative
database
solaris
tariffs
motorcycle
reconciliation
mulatto
cyprien
egotistical
hooligan
kornblum
naina
nixon
oregon
wakopedia
stretched
shrewsbury
wikistalking
alessandro
expedition
twinkle
compatriot
minerals
shearer
cleansing
orgasm
instructions
cretins
detrimental
nightmare
merrill
bahamas
krajicek
aforementioned
elderly
fowler
titties
uzbek
zambia
zlotys
shankbone
heeswijk
goethean
unidentified
uninformed
sacramento
sullivan
disambiguation
inspired
elizabeth
incessant
servicemen
absolutly
cyberspace
montgomerie
earthquake
roosevelt
bournemouth
cossde
cniec
daughters
ezinwa
gingrich
korda
lengthy
puchon
rotherham
❝яedvers❞
##zhembsky
inverness
goetschl
unpaid
unseeded
suharto
##ullandemu
brugge
slaughtered
teutenberg
marmaduke
desysop
collstrop
travesty
3311812
transvestite
hypothesis
portfolio
unsolicited
materialscientist
archbishop
prepubescent
galatasaray
unprecedented
westhuizen
kwasniewski
gaddafi
2over
4m
7th
911
ae
aaa
aus
aide
auctions
bm
b1
bou
bust
bard
boun
bally
bac
bav
baked
cer
cis
cid
cag
cbs
cable
cord
css
cuk
cards
cander
ditch
dns
enn
eke
eject
eef
eoe
einstein
fd
fp
fark
fug
fidd
fife
faded
ffs
fiance
festering
gop
gull
gym
ghe
gift
goma
hd
hw
higg
hike
hitch
hoy
hench
hides
hints
hulk
io
ig
ib
ioc
ieng
jb
jp
jade
jeep
jib
jps
jars
jana
jury
jolly
jiri
kit
kis
kot
kik
ksh
kry
kek
kund
kung
kris
kwa
kwan
kuna
lc
lj
lid
lac
lira
lolololololololololololololololololololololololololololololololololololololololololololololololololololololololololololololololol
ltte
mx
mice
muss
mog
mps
mls
migr
monde
noun
nuss
ntt
niet
nones
nuns
nguy
nathan
ole
ooo
ping
pst
palk
piv
pony
piet
pffff
pires
pizza
q2
rit
ruck
rope
ried
ranc
rama
rolf
riley
roughly
sans
sony
sask
srs
sulph
ti
ting
tik
tant
tum
tue
tory
tna
tute
tying
tanc
torn
tips
tlk
tbm
uli
uls
vip
vint
viable
vince
wu
wen
woo
waa
ward
wog
waz
wider
xh
yak
yummy
zast
zem
´¯
##ej
##eing
##ele
##eath
##rians
##rophe
##iew
##talk
##yon
##yana
##gone
##gio
##graph
##dit
##dia
##del
##drop
##licker
##ski
##cs
##cot
##cum
##crew
##cats
##cases
##conduct
##bal
##bbel
##buk
##uly
##uver
##uably
##kou
##kam
##kies
##kaz
##kila
##hoff
##hrach
##hullandemu
##ml
##mes
##most
##mah
##marn
##mura
##makers
##ws
##wit
##wik
##will
##pu
##park
##pure
##nk
##nom
##nid
##nell
##news
##number
##nayr
##vl
##vf
##vor
##vation
##vgeny
##fin
##fir
##found
##foot
##qa
##zow
##zie
##zman
##74
##ju
##jk
##jon
##jor
##jab
##jana
##507
##0m
##09
##04
##oui
##oux
##oura
##ouli
tht
thu
##eres
##eration
##inand
##inos
##inical
##atovic
##onies
##onka
thee
##ede
##edge
##ediot
##itated
##itimate
##itoba
##org
##oran
##inga
##ingos
##esi
##eson
##enan
anally
##isco
##arr
toys
##alword
##reb
inad
inner
inpure
##otha
##otiv
##asha
##lez
##icrous
ish
isch
fuckign
rely
reaper
reef
rejo
whoo
wholes
beware
##idh
##idis
##idiot
##sta
##staking
##igree
##igans
##aying
##utz
##utter
##uties
yourcous
##agar
##adi
##adays
it´s
##etical
##ikova
stank
stem
strain
stench
stomp
stability
stenh
shark
shakes
shaken
shii
shops
shinda
shattered
aswell
##chet
##chik
##chler
##enth
##entin
##entony
arease
fores
hem
hears
heidi
hebron
hahahahahahahahahahahahahahahahahahahahahahahahahahahahahahahahahahahahahahahahahahahahahahahahahahahahahahahahahahahahahahahahaha
haifa
megan
notare
notified
##illet
##verts
##uran
##urian
##urai
##thal
##throw
seating
seize
seych
##opes
dost
doors
##unks
prank
##haw
##hav
##haj
myles
##iris
##olph
##olini
##allist
##alless
##allel
##allica
diving
dibo
##andi
##andestine
degrade
##ockl
gok
goalless
chk
chander
chugg
chasing
chandra
##akat
##akim
##raf
##raig
##raham
frat
frater
fraser
franch
##ilo
##ilis
assa
assign
assigned
assessed
atagi
atalanta
comrade
suckin
soyme
ari
allahu
##essa
amoe
donation
##ups
##ulty
##ulary
##ulative
##antle
##antari
##osa
##osing
abund
abrams
unve
unlim
unsec
shitt
##agel
sava
sauber
blan
blair
bloom
orton
orbit
##tyboy
##ainted
cancel
tres
trigg
fagot
fag0t
adri
adler
adela
adrs
liu
offal
offender
offends
whois
##elnikov
ala
alain
altered
albe
alred
alatas
uss
##uya
nocal
leap
lego
##ighty
knuckle
##aude
neuch
proc
proceeds
editting
##abo
##abaya
##herent
##herford
##ivehi
gettin
##aaaaa
##aaaaaaa
exempt
anyang
##orta
##cco
##ostal
##onex
outer
outspoken
outnumber
##river
plate
plague
plung
plucks
plunged
cuntcuntcuntcuntcuntcuntcuntcuntcuntcuntcuntcuntcuntcuntcuntcuntcunt
spd
spill
spies
spying
spray
sprin
spewed
##wwwwww
##wwwwwww
ims
##uelled
cockblock
cocktail
contam
##mins
##vene
##letive
manuel
manuscript
manitoba
clip
clandestine
thereby
twer
twel
yevgeny
idol
idoit
##bernian
brann
brugu
branch
hibernian
##ollo
##ollen
logging
lokom
discla
##ivism
##ivities
##fection
resem
rao
raids
ravan
pencil
usernames
homies
hometown
shoulders
suprised
compon
compass
scalf
quo
quant
quitting
quarters
gray
grill
grotes
grateful
grockl
##onders
wikih
wikiquette
##ookie
##ussion
overd
overc
overre
oversh
overthrow
perception
moreau
bulls
bulldo
theirs
deletin
##ifo
secrets
accounting
warren
warburg
intens
intimate
##ptoms
##athon
servers
addicted
##ideen
##ahe
##ahan
1200
joker
joakim
smir
indra
indices
plea
pleas
##clav
interrog
interval
##ocre
backbone
mins
minim
minne
goodwill
pohang
slum
slack
monte
betrayed
##aceut
heros
herpes
##plane
underpin
undergone
retained
basics
basuki
oprah
##acas
eaters
download
belt
workshop
oldest
##aches
##achment
##ounters
margar
marines
marino
##quist
motherwell
##ibas
##integ
parade
parana
parano
parallel
vermont
owning
##obic
readily
##ultural
playoff
drought
drums
##umbled
telly
attacker
attackers
##avor
takemura
mule
mulder
terribly
superiors
##igne
##ignant
lasted
17th
consists
shutout
cheesy
1600
guided
guzman
stillborn
phob
phnom
fling
flip
flour
fluff
flipp
desu
desert
##active
sinner
sincer
stripping
stranra
partick
##cedes
vio
insensitive
thankfully
centred
obey
relate
##ildara
disco
newsfl
elk
elena
elitism
mostostal
##kka
presume
preserved
defacing
beats
appalling
markov
mapei
regain
helm
helen
evasion
evolved
headless
headlines
25th
carole
carling
carbon
caracas
swart
stevan
funeral
deleteing
gerard
emil
empires
emnid
##oooooo
throne
demean
endors
turds
schult
earliest
earrings
##202
repatri
repulsive
apoc
irresp
boer
boats
governing
##boe
invaded
invading
fooled
internets
harare
harper
harold
urugu
##istered
waters
delicate
acne
confess
305
metrop
metaph
metallica
barge
##phd
##phem
continuous
decre
recons
recieve
recru
283
284
curt
curry
counties
##hhe
biological
##perse
smalljim
moot
mozam
paths
sanity
sanath
instr
instantly
instances
financing
hann
hanover
##rrr
ruins
opener
syl
referencing
handled
pathetically
understandable
surnames
surabaya
singular
facebuster
humid
subt
subd
subc
subtle
breg
brechin
hover
274
265
dai
timber
fours
issuer
glowing
##ieties
highness
australians
sixteen
calg
inclination
cola
sorensen
501
5040
295
imposter
fanny
farmer
juha
detest
arguably
exploration
hardy
burr
burg
burger
burden
extract
indecent
filing
legally
legacy
ideal
smelled
##umming
provider
sunni
traitors
differently
denver
denier
denounced
##whore
numbs
409
ahole
viewed
viewers
lesser
worthwhile
petah
petros
expend
expletive
christophe
sickness
hourly
imported
armors
erd
errat
erbak
guesses
##uka
opinionated
medallist
jobless
##grad
psps
tommi
effin
deadlock
respective
avonex
copenhagen
relevance
jackie
palme
deputies
punr
punjab
semetic
promodes
promotional
##liari
ridic
riders
dipped
susan
susant
peacemaker
69th
furn
misusing
miscon
misconduct
absently
scorp
sharpe
sharif
chicks
certific
haired
wikipedos
advances
advancing
businessinsider
anthem
anthrop
criterion
355
35th
northeastern
548
545
##balls
counting
distress
payroll
339
greedy
transit
transcripts
hurl
formerly
cuttitt
estes
##enga
protections
qualification
awake
popper
uncont
unclear
complicated
456
457
455
poorest
466
469
465
460
4653
weston
westside
benz
beneath
deserving
725
modified
models
pedigree
berg
berm
berth
admi
61st
cultist
cultiv
fallacy
mercy
merlin
mercedes
quell
fairbrother
caf
economics
852
sticks
specify
speculate
grandfather
##zzle
exams
examined
447
44th
graeme
grawp
lowlife
debts
organise
karin
karab
karina
karma
massoud
constit
kidney
marched
343
judged
observe
482
tempor
capitalization
556
opera
operates
sorted
replay
accords
afford
416
470
labelled
##bedee
hatchet
buyer
cooler
robbers
robbing
easing
destroyer
trek
tremend
painstaking
treats
##yyy
seeds
58th
778
photograp
dipshits
59th
occass
souza
unfriend
##uuuuuuuuuuuu
goldentony
stephane
autism
autob
autumn
##cccccccc
creativity
secretly
indianapolis
bombed
annoys
annoyance
575
80th
sandy
434
lacks
stockings
stockholm
millfe
livingston
526
525
akh
akam
batting
batista
##bique
receipts
##oxin
deceitful
37th
512
typo
objects
walkover
6364
utah
##oopsy
395
391
prisoner
device
protesting
productions
shouldnt
flynn
hola
870
8787
drift
zebedee
starved
periods
nominee
nominations
witty
frigging
rotting
richmond
touchdown
separated
blowjobs
spreads
appearances
##kyla
##agery
apologized
ferenc
ferrig
unlisted
unlucky
neutralhomer
mutola
rockies
noticeable
laughed
identical
identifying
associates
fifty
077725
puppeting
approves
laziness
representation
pornographic
##regas
premi
neglig
montillet
cracka
crackhead
averages
tagging
dictate
slept
sleaz
sleaze
hosting
connot
alba
competing
gmc
khmer
bowled
hangs
randall
##deal
josef
##sternet
8948
barnstars
84th
renate
##oulos
louise
##ettes
oversight
ashes
darry
filling
##official
blinded
1974
geeky
sellers
1950s
royals
closest
prevented
encounters
facebooks
collected
collecting
rambling
arrival
favourites
symptoms
greenock
aggressor
indications
indicating
purposely
guerrero
##ophobia
cubans
dragging
flea
fleet
fleurian
hesitate
fischler
dufus
islanders
dissent
preferences
brokered
domination
dreaming
gorst
gorge
julius
globally
masturbator
rodhullandemu
ambig
facs
facility
beneficial
##ohn
envious
aiming
mixture
##eshit
bells
feeding
bordering
container
##cuntcuntcuntcuntcuntcuntcuntcuntcuntcuntcuntcunt
customary
disagreeing
disagreement
henman
naoko
yelling
rabbani
wooden
mirren
miriam
broadway
broadhurst
puig
zaido
##xxx
##xxxx
abduction
1640
focusing
grobbel
##hrs
loads
concensus
molested
duration
klan
kimiko
nbc
pascal
rosen
##bitants
commandments
incidentally
pairs
6000
bossi
zionists
##ylvan
finishing
summerphd
capture
daniels
satisfactory
##joen
novye
escort
escaping
literal
tanzan
tanjug
##guide
hailed
combined
progressive
affects
azhar
essence
tyrants
widr
thorough
predicted
grader
gradually
graduation
gabon
mlpear
##ousemuir
knocked
homophobia
performing
unemployment
ciao
literary
rejects
influential
fabregas
pimps
mediator
mediocre
praising
advocates
magnus
bogdan
hanson
lynn
sigma
priority
deleate
restaurants
semifinalist
narrowly
celebrations
kosova
principal
prosecuted
reflecting
gregalton
dubious
pitches
rumors
oriented
reputable
##olololololololololololololololololololololololololololololololololololololololololololololololol
fundamentalists
jacqu
jacob
katja
kilmarn
##rehensible
rebuke
dhivehi
pcap
withdrew
subsid
screams
purchasing
guttyboy
rifleman
tirade
voter
spoiler
spoiling
clarence
clarification
resorting
crushing
detected
arrangement
jealousy
reminded
unrelated
apartment
dumber
hooked
yields
##jjar
forbes
intimacy
bangladeshi
hilariously
taka
moldovan
unfairly
muthafuck
##rieonians
##stairs
chamorro
nepali
climb
audio
nablus
pills
confronted
salvage
expanded
cocu
hogs
joyce
vacant
rewritten
worships
contradict
##oooooooooooooooooooooooooooooooooooooooooooooooooooooooooooooooo
cookies
dedicate
squeez
yassin
tribute
antisemite
gvnayr
harte
hartford
kgb
pesos
pacts
yardie
shouted
liquor
supplied
demonstrates
##hahahahahahahahahahahahahahahahahahahahahahahahahahahahahahahahahahahahahahahahahahahahahahahahahahahahahahahahahahahahahahahahahahahahahahahahahahahahahahahahahahahahahahahahahahahahahahahaha
withdrawal
scribblebook
naconk
anarchy
##agnon
libyan
hispanics
crooked
humorous
boobies
ukrainians
##eeeeeeeeeeeeeeeeeeeeeeeeeeeeeeee
ftse
ludwig
ludicrous
padraig
##124
concentration
douches
mongolia
gentle
gimp
kafelnikov
ncpa
forestgarden
fcuking
embarrassment
cpi
cursory
drowned
consulted
incompatible
surgeon
oppression
oppressive
environmental
falsified
anticipated
storage
mortgage
probaly
highlights
filipino
##uuuuuuuuuuuuuuuuuuuuuuuuuuuuuuuuuuuuuuuuuuuuuuuuuuuuuuuuuuuuuuuu
corsica
mcewen
reckless
chonan
chonbuk
rescue
preaching
retailer
consolation
phenomena
columnist
viewpoint
natalia
revolve
routinely
discriminate
discriminating
inferiority
icac
svg
conquest
abbey
sachsen
discipline
disciplinary
discredited
provocative
psychoan
stereotyp
wiberg
yoga
zhirin
reopened
reminder
amendments
attributable
presumably
catalan
accomplishment
dwelling
nursing
nurses
tipto
sebast
resumed
psychiatric
bpd
csu
ccp
mtv
moura
noteworthy
extensively
petersburg
greenspan
transmission
transitional
postponement
clydebank
graphic
jenny
pinto
ruehe
chorzow
refunding
fluid
professionals
##jajajajajajajajajajajajajajajajajajajajajajajajajajajajajajajaja
sacrifice
cigarettes
kubo
perez
tackle
weakened
spurious
jewelry
grindcore
coincidence
emotionally
##blahblah
escalating
uncertainty
fitzpat
fantasies
gabriel
survivor
survivors
airdrieonians
jingib
kostner
mantilla
pardon
zagreb
thumbs
thunderst
reynard
whittall
habits
doggy
protein
neurotic
persuade
drooling
demolition
avocados
electricity
extraordinary
caucasian
bengali
dacom
jyvas
mossad
phallus
rampant
tireless
tavildara
threesome
degrading
atroc
abolish
enabling
nevada
managua
brittanica
lodz
parasite
gujral
britannica
absorbed
initiative
advertisement
kannadiga
grammatical
cencor
kangar
ligier
rutherford
silliness
sidelined
wielding
anatom
inadequate
recliner
stooges
stunning
stallone
stricker
francesco
sokol
fathers
parrots
supermarket
inconsistent
restricted
restrictions
wallaby
cambodia
programmes
olivier
krishna
subscribers
tbhotch
indiscriminately
montenegrin
bacteria
diminish
etymology
pocket
tianjin
tissue
yangon
thejps
inhabitants
seizinger
abidjan
unintell
trayvon
hierarch
banespa
slogans
huggle
appoint
bohdan
proprietary
fireworks
erupted
depraved
jeopard
footnotes
senegal
sidewalk
rebuild
subsidiary
dimitris
gibberish
phenomenon
hysterical
flesh
ferdinand
kiwi
lomason
xiao
zinzan
##zsche
##atisfied
sovereignty
weenie
abomination
cancellation
pregnant
refresh
simultaneously
antoine
restricting
sonofabitch
convincing
goalscorers
kalashnikov
ineffect
mujahideen
noteworthiness
haggard
uzbekistan
cagliari
canderra
eefje
kshatri
kwanzaa
lolololololololololololololololololololololololololololololololololololololololololololololololololololololololololololololololololololololololololololololololololololololololololololololololololololololololololololololololol
mussolini
nussle
nietzsche
pivotal
sulphur
tikva
tancred
ulihrach
ulsan
vintage
zastava
##50782
ischinger
yourcousin
stenhousemuir
areaseven
hahahahahahahahahahahahahahahahahahahahahahahahahahahahahahahahahahahahahahahahahahahahahahahahahahahahahahahahahahahahahahahahahahahahahahahahahahahahahahahahahahahahahahahahahahahahahahahahahahahahahahahahahahahahahahahahahahahahahahahahahahahahahahahahahahahahahahahahahahahahahahahahahahahahahahahahahahahahahahahahaha
notarealword
chanderpaul
soymeal
unlimited
unsecured
adelaide
albeit
alredy
neuchatel
bruguera
scalfaro
grotesque
minneapolis
stranraer
newsflash
stevanin
demeaning
mozambique
erbakan
cuttitta
temporarily
goldentony111
ferrigato
07772550782
894840
grobbelaar
mlpearc
kilmarnock
guttyboy3d
naconkantari
zhirinovsky
fitzpatrick
jyvaskyla
1w
2c
2k
2check
4ever
481
4221
523
711
aj
a4
ait
ase
awar
aerial
aiding
b4
bain
buss
bile
bign
bander
bisc
bours
bamer
c3
cage
cries
cbot
cnb
dent
dank
dro
dope
dug
drain
danc
duk
dale
dmit
eld
eel
emin
emm
eales
etr
eager
echo
f1
fook
fib
fists
fakes
fisted
fudge
ged
gigg
gum
gif
gund
gama
gtr
ginn
gpg
gasco
glyn
h2
hent
hound
hore
hott
hunk
hounding
hwy
horta
i´
iasi
ji
jw
jz
jin
jat
jol
jave
jared
jaw
jorn
jossi
kv
ked
kut
kol
kant
kart
kud
kual
kib
kont
kras
lp
lill
lup
lend
lime
loll
lars
lamm
lugg
leno
lomas
mh
mw
moo
mop
maa
munt
mens
mason
mph
mumm
mgr
maked
miley
nk
nf
ner
nay
nann
nites
nilly
nih
ndp
noses
nolan
oo
oic
oust
oink
oats
ods
oued
ooops
ouch
pb
pp
pors
pav
posed
panc
pitting
pesc
pizz
pyth
rc
rj
rar
rim
runt
rous
rend
rings
ricans
ranger
rishon
ridden
sο
sag
sop
sould
sanger
sda
srin
sammy
tt
td
t3
tj
tad
tul
tau
tub
tide
tign
tarn
taker
tipped
tulu
ure
uber
vy
vu
valk
vap
viv
vitor
vfl
venge
vasco
volley
vacek
wot
wad
wally
wif
wach
waking
wbo
wuz
woud
wien
wounding
yi
yih
yediot
zo
zver
zach
ıs
##e9
##efe
##eering
##rth
##rand
##rust
##rant
##rine
##rations
##rower
##ruit
##rze
##rinker
##rzhembsky
##iently
##tion
##obs
##oids
##olete
##yo
##yed
##yas
##yard
##yss
##ystem
##glish
##gling
##green
##gograd
##aire
##dat
##dall
##dong
##lc
##lay
##liness
##longs
##some
##ska
##cies
##care
##ciously
##cont
##cibly
##cule
##cchi
##bat
##ben
##bid
##bia
##bate
##bett
##uve
##uity
##uces
##uquer
##kull
##kamp
##kits
##hia
##hya
##hival
##mack
##mov
##mens
##mett
##mantle
##wag
##went
##wave
##wagen
##ppe
##pity
##pings
##pah
##pile
##pants
##nen
##nard
##nitzer
##nada
##vid
##vos
##vod
##vals
##fy
##f7
##fly
##five
##fighter
##fatti
##qm
##31
##62
##zed
##ziat
##76
##78
##2rior
##j1
##jos
##jah
##jones
##jwoods
##jvod
##1ng
##49
##420
##ים
##ин
##ка
##ƒƒ
##ouf
##ouche
thri
##inth
##inau
##inating
##inarian
yous
youself
##atha
##aters
##atum
##atne
##once
##onna
##anl
##anu
##anos
##anne
##itably
##orig
##orate
##orian
##orous
##orph
##enstein
anh
anita
anahe
##isi
##isa
##isinau
##arc
##aram
##arina
tos
toot
toad
toast
toba
towel
##alia
##alall
##alysis
##reated
invis
ingr
inmates
##otive
##otna
##asance
##aska
##asoft
##leigh
##omi
##icron
isold
fuckstick
rex
reid
reim
reun
regg
bein
beit
beet
bears
belly
beep
##idt
##idon
##sett
##sty
##stall
##state
##stra
##station
##stap
##igo
##igley
##igenous
##ayama
##ayeva
##uters
onorem
##aght
##aggggg
##adh
##adis
##adar
##adas
##adic
##owers
##owitz
##etas
##etric
##ikan
##iken
stee
stry
stare
stoop
stoned
sho
shy
shq
shiv
shore
shhh
shining
shinc
shoved
shaped
asc
asp
asians
asset
aspir
##chette
##champs
forcibly
##amous
##amatory
##ldman
heated
hehehe
hector
heater
heinz
haj
habit
meiss
mega
mevl
noting
notification
nothin
##ceph
##urama
##urring
sev
seals
seper
sectors
##iall
##iavo
##imp
##imic
##imov
##imated
##unc
##unny
##ithe
predic
prissy
##iry
##irates
##olitan
##istically
##istair
##allister
diary
dilig
diverted
diagn
diyar
##andes
dea
devers
debb
deuts
dejan
dekker
##usin
##users
gob
wikpedia
chi
chased
chode
chili
chaser
chisinau
##rab
##rabacher
##terns
##nnn
fres
fries
frodes
fruits
##ilor
##ilous
##iltr
##ewan
##ewell
assk
assim
assisted
assorted
atomic
##ustin
comun
comelf
wastes
sucky
sucka
sod
arist
congo
conform
converted
##wwefe
##este
##eston
##estar
alls
alley
weee
amt
ames
amused
amtr
ammun
##upta
##ulent
##ulous
##ulance
##iggen
##osition
##osene
abst
abide
abys
abstain
##hto
unm
unin
unen
unic
unil
unification
unhar
unambig
unanim
unofficial
saves
sabb
sahar
blu
bland
blake
blond
bloke
orviet
tram
trum
troop
mord
morally
morals
morale
adject
advers
adoles
adti
adoni
edt
edison
edmon
liffe
offsh
off2rior
##outing
##elong
alight
alarm
alami
alerts
alesi
alistair
usd
usenet
##pelling
upgr
uppity
noes
nosey
leu
lech
leop
kno
knup
knots
somone
neat
negle
neumann
procl
provisions
wors
worms
##aste
##abel
##abody
##abulary
pegged
peasant
peabody
##iani
##ianne
##iannis
faggotry
##inks
##unting
##ccio
gayest
gaylord
dickweed
suke
suwon
##arton
##ouses
hissy
outed
outline
outlaw
outraged
##endous
##riors
plag
plank
planted
##emor
##emark
##embers
##tical
cuntface
spinal
##roath
img
imed
imho
##ully
##show
##shole
##shev
##shasa
talkback
contention
##arky
jewell
jewboy
##udent
moronhi
mane
##eller
##elles
##ellion
##asek
clam
clap
clones
claud
clients
clinical
claude
##itto
thereof
newfound
twa
twick
##bering
bru
bred
brake
hiya
hilde
##ollar
##oody
##ichev
loz
loans
lozer
loko
##indus
##indra
disple
disney
##ivas
##fej
##feasance
reson
rah
rav
rafa
raises
raichev
vandalis
vandalist
penns
afl
userpages
hadith
hereby
suprise
articleonly
comple
sci
scat
scan
scal
scant
scout
scree
scape
quad
quiz
quint
quasi
quigley
##pping
gron
grim
grunge
##reek
wrists
##ansa
wikiality
attraction
##odies
nowadays
overr
overt
overly
overha
overweight
perk
persib
rightfully
##anging
##angel
crust
crass
crotch
##oyama
##enson
##enska
##shits
##ifics
polar
polonia
warwara
warriors
intl
intends
seeks
banc
bann
banter
theme
0800
##athers
bullshits
##ahar
balloting
joan
joel
joins
smashing
smacks
indiff
indigenous
pleaded
##claw
backside
vehe
veiled
vega
veldman
mini
minors
pog
poised
commited
##adeus
slag
slough
slips
slipping
teens
tearing
beta
betar
betaser
1500
##oger
##ogouli
##ogiannis
herb
needlessly
##plate
fremantle
undergo
underwr
underwear
underwent
retief
retrie
retribution
realization
##acular
eater
eaten
downgr
downright
downtown
1111
postal
postings
belfast
belchat
tryna
marion
marred
mariano
marrin
marianne
mattythewhite
sheets
sheesh
sheikh
feas
feld
maya
maynard
##quilla
##azab
##iball
##ibilities
parap
veritas
carey
spear
speach
playstation
drones
refs
refuted
##rative
##avi
muhaj
nipples
##hahahahahahahahahahahaha
22nd
supercup
lasting
##ugug
##mming
consulting
bigd
##psons
comex
shutting
putang
##ololol
pharl
flock
neverending
sins
sinister
1300
strippers
parting
##ribes
buttocks
buttface
dumbo
dumbhead
dumbarton
centers
coerc
obvi
obstruct
relieved
relinqu
usefull
corret
corbett
##keley
##ilda
discour
discret
eli
elb
elen
eliot
elonka
ohh
ohno
prescott
defer
default
defiance
defamatory
retarder
retardmongo
inco
appol
regained
helmet
evn
evry
evula
roam
roker
##naut
messy
messaging
stein
steak
##iero
gerg
gerhard
geraght
emirates
demo
endure
schne
schuster
schumin
schiavo
repent
reporter
apollo
analy
bunce
##erton
##bec
##beer
##beck
##beath
laus
lawh
irl
irwin
irvine
boon
##orkae
##ashe
runway
doubling
simpsons
invention
invasion
invaders
internationally
happyme
##blings
##blocks
harle
harald
harrington
difficul
winnip
urinate
watan
delta
delusion
delighted
austin
propol
propog
clearing
clearance
acres
confuse
##entsburg
306
304
listens
rommel
barret
barros
barran
barentsburg
##phir
##phardt
continents
continuation
decended
deciding
ourselves
forma
formation
recurring
britons
289
282
##uctive
bushel
moxon
lolcats
instig
infidel
infested
infamous
infiltr
##bursement
opengl
jerome
milti
milburn
capoe
latch
surged
surreal
singers
humenne
subway
subvers
##etsky
breen
breeds
##checks
##chebag
hoot
hogg
timothy
glove
gloss
salah
salary
salvio
changon
neths
calton
##uffle
colts
redvers
eurod
creed
nationals
nationalities
soren
sorbs
50th
299
imply
fanboys
angl
angolan
farms
farming
faroe
farewell
kindness
southeastern
saturn
##itsjam
detain
explo
explodes
politeness
airforce
hardship
accounted
burton
extending
extortion
legia
seth
settl
##garhia
totalled
boyz
colling
collision
respir
##cycling
sunnis
trailing
trauma
skip
skank
skipped
##tex
denig
denny
denounce
684
680
waves
yeshu
borg
bores
borough
restart
restitution
restoring
malaria
malfeasance
signalled
gephardt
forehead
sadd
saddo
lessons
valentine
valencia
crafty
arsewipe
##amented
##hahahahahahahahahahahahahahahahahahahaha
appearing
sentencing
expels
expuls
junction
sicko
afrikan
finalists
##anca
memorial
##brid
##brook
##briggen
armoured
armando
##heart
##hearted
##ventions
missiles
teaming
##cunti
passer
agreements
psg
psch
patr
patterns
kingston
casey
deadline
respects
respecting
pretends
cowden
sonison
visas
visual
testud
schoolgirl
palmans
ancestor
langmore
depreci
wholehearted
promot
growled
household
ugliest
##liya
cannons
cannibal
civilised
trademark
ridicul
peacefully
696
drach
dravid
furious
misqu
misread
misgu
proofs
003
005
horns
wikipedai
snoop
##undo
behaved
condom
businesses
358
357
falun
falcon
541
titanic
distill
distric
32nd
##oooooooooo
destitute
332
330
brace
greed
grease
summar
favonian
estates
estonian
##kswagen
invested
bleck
jesper
tourists
madag
madonna
602
popul
populations
populated
tables
45th
nightstall
raphael
46th
unsup
benes
honiball
differentiate
537
532
530
goosen
limb
mode
peder
cea
ceased
##ysz
berk
berwick
beryll
berkeley
tripping
wished
directions
admissions
617
listened
fallacies
jeans
entirety
maggie
magdal
origins
730
seasonal
paula
426
429
421
42nd
pressed
credential
specim
##structed
garage
garry
gareth
##hhhhhh
grandpar
446
442
lowly
stream
debunk
rulebook
karol
mentor
keane
declines
breakaway
researcher
researched
569
561
560
microp
povs
projection
excre
religiously
obsolete
temple
##epedia
telegraph
squish
costly
janet
replaces
363
362
rubbing
visitor
affront
strait
##arajan
hatoyama
almere
almighty
cyde
cycle
cyphoid
picks
pickup
frontier
criticizing
buyoya
volgograd
volkswagen
cked
mistress
treasure
trevor
painting
vsmith
reprim
589
79th
photography
598
599
595
occurs
injuring
unfit
unfunny
creates
tychy
moderating
571
574
sandrine
stalked
lifestyle
neilson
439
432
430
stockpile
disruptively
millns
omitted
527
529
coups
##eneuve
detailing
batty
multitude
pullout
##fields
arbroath
##rops
63rd
mcn
mcallister
util
398
390
##afsson
belonged
revs
revival
profitable
flyer
tomas
universities
fffffffff
dispers
78th
875
87th
silencing
##forde
quarterback
dried
static
##bergen
hopping
056
boxer
boxcar
roti
touching
separately
osset
reviewer
reviewing
liberalisation
campaigns
lightning
mutt
mutiny
rocky
rocked
educate
derive
derry
forgetting
hearted
heartbeat
camille
castration
castrated
knowledgeable
casp
leduc
owing
##isticated
teachings
nasa
nasal
samok
samurai
##aldo
83rd
montrose
generations
generals
artific
nationsbank
irishguy
mccoist
mccurry
donkeys
hostility
##dao
##icoff
reaches
albuquer
competent
competitors
florian
khaled
bowyer
jasper
andrex
exchanges
middleweight
psychology
bonilla
hamburger
nicola
##rasing
894
89th
fukcing
hideous
844
renault
similarly
independently
hospitals
circulation
trusting
felix
felony
pounding
ashley
practiced
conversions
chairs
dariusz
##offs
speedily
##crest
##cription
1971
##rodite
coached
geeks
hindi
sarfatti
1958
1950
ranging
rangarajan
proposes
villages
villeneuve
exported
collectonian
ramblings
ramgarhia
gaogouli
skinny
skinheads
olber
olga
immune
luigi
negotiators
aggressiv
aggressively
indicators
carlton
pusan
##imentary
proudly
dismant
deliveries
panic
riyal
scrum
dragons
flemming
kiddie
machines
successor
locate
cooperating
cooperative
ivorian
senses
conclusions
equals
equalised
yrs
factual80
arbitrage
gangsta
amaze
permits
alec
primitive
cabaye
categor
dominate
dominant
dominance
amounted
guideline
globe
88th
bedou
bedie
gasp
rodham
##ersonal
ambush
facets
preca
applicable
dictatorial
rhym
interpol
tracking
appealed
feedback
feedlot
originated
rollback
afghans
submitting
lords
ronny
rabbit
woodforde
grossly
mailing
miracle
fuckyour
broader
beside
hybrid
hydao
routes
tilleker
abdullah
displaced
explanations
hunted
##hrase
andrews
substance
ghana
ghetto
maths
santana
reveals
shrugged
softpedia
suitcase
corporations
durum
kimber
nbh
roskam
##holds
safwwefe
commanders
catches
bossy
zimmer
##minded
smoked
colonized
bolger
talib
ironi
participant
participation
satisfying
rupert
novak
novotna
acquiring
holidays
wheaton
kerosene
litigation
##guin
alias
progressing
sincere
essay
jumps
tyrrell
widen
width
intellectuals
9000
gaba
joehaz
emerge
fundamentally
gazeta
torped
##atchewan
commitments
engineer
literate
nyva
voices
vojvod
frustrating
branded
brandes
pimping
pursued
pursuing
ripping
demonstration
7000
gallant
laps
lindsey
magnet
bogra
birdies
holla
slandering
approached
celebrity
hobo
hobart
hobbies
wilde
hahahahahahaha
buddh
gregory
dubbed
kaikol
punches
scholarship
jacobite
katie
hazara
spinning
ottey
pmc
sidhu
rebellion
measles
measuring
bounds
dhoni
masood
masnada
constantin
occasion
mountainous
manufacture
piercing
rifkind
sinebot
blasted
clarified
resorted
espouse
denialist
arrangements
dhabi
mobil
wolfowitz
reinforce
reinhard
stirring
chemlon
chemistry
performances
bugging
solidarity
battled
battling
hookers
tortured
vaas
vaclav
whiney
jointly
drummond
mislead
treasuries
takagi
stadler
prosper
terminator
discovery
stefanie
temperament
bahia
jamaican
unwilling
specter
lauren
couples
hangingcur
vocabulary
yuo
sherlock
shiraz
salvation
sympathize
venezuelan
##aphrodite
feminism
dorks
hipocrite
keller
squeak
##ahaaha
stationed
tribe
odra
pesetas
pools
viktor
assistance
soybean
nobhead
nobodies
perpetrators
strengthen
reconstructed
demonstrators
symbols
displaying
bjorn
bertie
lynagh
tatyana
dodge
flowing
flowers
portugues
welcoming
intimidation
egos
ludmila
tampering
zurbriggen
shopping
concentrating
alberta
necmett
sparkling
bragg
granting
mongoloid
mothafuck
##cuntcuntcuntcuntcuntcuntcuntcuntcuntcuntcuntcuntcuntcuntcuntcuntcuntcuntcuntcuntcuntcuntcuntcuntcuntcuntcuntcunt
achievement
balkans
jsut
kafka
pyman
rigby
vastly
megawati
cherry
collaborative
distorted
distortions
voluntarily
challenges
gibbs
kanpur
podium
podcast
rottwe
vulner
##fortable
fattyjwoods
guarded
structured
incomprehensible
harrasment
infringe
infringing
surgeons
pedophilia
ultimatum
gestures
gawker
pdf
pulpex
teddy
shelter
probable
agricultural
brushed
commodity
barbaric
dirtball
mercado
observations
sleeper
dalglish
lagos
##varos
chonnam
retirement
patronising
recommendation
fckin
fcken
faure
hendrix
hendrik
javasoft
yadda
insecur
shaft
conquered
abbas
gratitude
gratuit
eliminate
2602
tunisian
ejaculation
djorkae
fulfill
fulfilled
reacted
mystery
mysterious
conceded
sahara
blessing
loyalist
obtaining
disguise
catalog
incorporate
##rrrrrrrrrrrrrrrrrrrrrrrrrrrrrrrr
tibetan
linguists
linguistics
bourbon
horseshit
poofter
rewarded
hectic
hectares
sodomy
unpleasure
implemented
implementation
resuming
undermining
simplified
calculated
extradite
patrols
psychiatry
broadcasting
imprisoned
cska
cesar
hersfold
kinshasa
tallinn
wrapped
weighed
unjustified
saxon
enforcing
smugglers
posterity
repairs
infinitely
strawberry
omnip
cameras
lobbying
tajikistan
hysteria
jenkins
lubric
sophisticated
tutu
vadal
vaduz
##penis
##oneoneoneone
perceive
guangdong
fluids
flooding
inspection
swinging
prevailed
breakdowns
fleeing
predictable
unprotected
hrw
hammers
puppy
ricardo
sinking
tempted
viljoen
styled
deemed
weakening
bloggers
enquirer
spewing
vegetables
undertaking
retracted
rohrabacher
authentic
brokerage
grabbing
alexandrou
gabriela
##udesudesudesudes
manufacturer
intolerant
gypsy
gypsies
overwhelmingly
airdrops
dakota
sutton
vitri
zelenska
##l0l0
habib
prairie
adventure
quotations
dramatically
carlsbad
finnish
handicap
handicapped
avocado
misunderstanding
fractionally
##ssssssssssssssssssssssssssssssss
plagiarism
bhadva
bhadani
dashiel
eugen
eugene
falkirk
fiery
fierce
gastel
joost
sallary
ustashe
##trail
reorganization
haarlem
byzantine
outdated
browser
poetry
insufficient
evacuated
apostrophe
sunflower
patrolling
patrolled
absentia
affiliations
waltz
narcissistic
improperly
fogarty
lonnie
lumpur
pianists
toure
vessels
vassal
vogts
wiesner
wijaya
zabrze
inevitable
stifle
wikiep
unusual
savior
libertarian
exhibit
clothing
brigade
pernilla
obstacle
carnival
subpoena
horrendous
brackets
uncomfortable
epithet
bandwagon
gamergate
unexpectedly
culminated
bovine
dysfunction
gatwick
jennifer
kettle
kucera
pentagon
pubic
privilages
mystic
unarmed
trofej
upstaged
outfit
overlooked
warmonger
intercepted
teabag
illustrate
restructuring
buisness
misogynist
robbery
mclean
devastating
immensely
disappro
disappeared
dungeons
dweeb
enthusiastic
misfortune
baptist
dubnicoff
fenian
kandahar
nurse
nyerere
pandering
simex
sultan
vieira
wroclaw
yastrzhembsky
##bunion
anchor
beleive
fortyfive
hakkinen
diarrhea
choices
blasphem
alumni
sporadic
spitzbergen
clooney
clusterfuck
hermaphrodite
paradise
guidance
pharmaceut
relentless
reluctant
inconven
steffi
simpleton
ernest
avatar
unconditional
cautious
undoubtedly
lufth
grasshoppers
unimportant
b1tch
ballybunion
ekeus
fiddling
gullible
gheorg
higgins
kekkila
nonesense
palkhival
saskatchewan
srsly
##jorative
##ourable
seychelles
triggered
adrift
cuntcuntcuntcuntcuntcuntcuntcuntcuntcuntcuntcuntcuntcuntcuntcuntcuntcuntcuntcuntcuntcuntcuntcuntcuntcuntcuntcuntcuntcuntcuntcuntcuntcuntcuntcuntcuntcuntcuntcuntcuntcuntcuntcuntcunt
twelve
disclaimer
ravanelli
##acheslav
margaret
sincerly
repatriation
irresponsible
metropolitan
instrument
subtract
bregman
calgary
burrito
numbskull
scorpion
certificate
bermender
tremendous
ferencvaros
premiership
ambiguous
##ylvania
azharuddin
tiptoety
sebastien
jingiby
atrocities
kangaroo
vintagekits
2checkout
aerials
bussiness
bignole
bamerindus
gascoigne
jzg
javelin
kuala
kontogiannis
luggage
nfcc
nitesh
ouedec
porsche
tauziat
tignes
vyacheslav
vengeance
yihye
yedioth
zvereva
anaheim
tobacco
invisible
isolde
reimbursement
meissnitzer
##cephal
frodesiak
amtrak
ammunition
abysmal
unharmed
sabbath
orvieto
adjective
adtiors
edmonton
off2riorob
sukecchi
rafael
pennsylvania
screeching
scapego
vehement
betaseron
retrieved
belchatow
marriner
muhajirs
pharlap
ohnoitsjam
geraghty
lawhon
happyme22
difficulty
winnipeg
barranquilla
miltiadis
capoeira
yeshuwa
cowdenbeath
sonisona
depreciation
wholeheartedly
misguided
districts
magdalena
credentials
cyphoidbomb
albuquerque
factual80man
tillekeratne
vojvodina
hangingcurve
necmettin
djorkaeff
zelenskaja
gheorghe
palkhivala
cuntcuntcuntcuntcuntcuntcuntcuntcuntcuntcuntcuntcuntcuntcuntcuntcuntcuntcuntcuntcuntcuntcuntcuntcuntcuntcuntcuntcuntcuntcuntcuntcuntcuntcuntcuntcuntcuntcuntcuntcuntcuntcuntcuntcuntcunti
ohnoitsjamie
2b
2w
3r
6m
810
820
896
9th
ave
aww
aces
aek
akk
aeg
aax
bg
bd
bb
bia
bim
baa
bike
boll
bree
biot
bors
boof
bks
bicker
busting
bumbling
bagel
bribes
cf
cin
cet
cess
cack
cem
cme
cush
cried
cesc
cerc
cfd
cccc
ciller
cumming
dp
df
dx
dre
dus
dess
dous
dime
drap
dna
dwar
distan
dung
duel
dunk
ein
eun
ecc
eek
eased
erection
eec
ekeren
fg
fs
fw
fο
fom
fang
fult
fuse
fio
feral
fcking
faint
gin
gan
gom
gol
gau
gma
groom
gta
gya
gump
gaff
gater
gaga
gaud
gupta
hj
hid
hock
hul
hive
hich
hina
hord
hinc
hinch
hrs
hilton
hinting
hidem
iw
iva
iota
iustin
jig
jad
jur
jock
jaz
jamm
jaff
jett
jarm
jfd
jazz
kun
kew
kww
kup
kite
kass
kov
kach
kier
komb
kij
kyle
kyt
kfar
kikes
kadian
kemp
kilda
lal
lus
lak
lamp
lester
lender
lipped
lalalalal
liab
lakers
lumber
m8
m2
miz
moy
mace
maz
muth
mash
mij
mmmm
mmmmmmmmm
mqm
mundo
n3
nol
nast
nort
nud
nub
nass
noooo
neda
navel
niall
ove
oik
oly
owe
ogle
opec
pis
pau
pong
pause
pud
pies
piot
pug
pamp
pets
pots
pantic
piles
piling
piac
pistol
poured
pabl
pestering
pvs
ponders
qed
rt
rik
rie
rink
rond
ratt
rhe
riff
ripe
rita
rsp
rba
rfar
rdr
rdain
rookie
sq
sj
sı
sas
sly
sally
sary
sint
sns
sipping
tes
tis
tge
tare
tread
tbo
tider
tbn
tuna
tikh
tfa
tires
tko
tanya
tainted
uc
uw
ucking
vt
vm
vw
vet
vish
viz
vets
voron
vault
vfd
veto
vbutt
wt
wic
wart
wite
wod
wof
woot
woof
wives
wether
witted
wba
wuh
waved
widdle
xt
xchan
y0
ying
yuck
yup
yap
yuk
yarn
yolo
yalc
zv
zer
zom
zic
zoo
zip
zil
zub
ziel
zulu
−tab
##ein
##eck
##eber
##ecess
##euw
##rt
##rg
##rl
##rith
##rath
##rina
##rists
##ruff
##roph
##iom
##iform
##iating
##iology
##iye
##tw
##tv
##tag
##top
##tart
##tale
##toria
##oqu
##overs
##oacan
##yadh
##gay
##gill
##gra
##gant
##gov
##gang
##gence
##gents
##gins
##gson
##giving
##gmy
##giy
##aul
##aedia
##awar
##doria
##dandy
##l2
##len
##lip
##lak
##lism
##lash
##lars
##lene
##lift
##lowski
##si
##sman
##saken
##sana
##scr
##cch
##cun
##call
##cers
##city
##cope
##cany
##censored
##bill
##bos
##bau
##bart
##bird
##bott
##battle
##bara
##bikes
##beek
##uall
##uates
##ubert
##uahu
##kas
##kid
##kop
##kra
##kiss
##kme
##kmat
##kater
##kowski
##ktor
##hl
##hf
##his
##hop
##hir
##hey
##house
##mi
##mg
##mic
##map
##mey
##mash
##metic
##mio
##wah
##wire
##wren
##wuz
##wolf
##pi
##pus
##pter
##pod
##pens
##paper
##pots
##polis
##pagen
##nig
##num
##nos
##nee
##nians
##nese
##nuts
##nlah
##nicki
##vre
##vie
##vah
##vinda
##vshits
##fest
##fish
##fool
##fact
##fried
##qq
##xi
##375
##zu
##zon
##zic
##zag
##zew
##zee
##zod
##zio
##zling
##zuk
##zburg
##zisl
##znan
##zewski
##84
##994
##2k
##2000
##jl
##jit
##joe
##juna
##58
##1000
##42
##41
##4chan
##06
##05
##´re
##ра
##ouk
##oust
##ouare
thur
thang
thiel
thistle
##eron
##errat
##erio
##erness
##inat
##inan
##inna
##inness
##inville
youi
youths
you´re
##atz
##atad
##atard
##atism
##atica
##atini
##ativity
##oner
##onon
##onal
##onic
##onut
##onte
##onkey
##onki
theology
##anama
##anello
##edict
##itur
##itia
##itos
##itness
##itley
##itiba
##itomo
##oro
##orc
##orah
##orets
##orfer
##orchamps
##inging
##esth
##esque
##enas
##enities
##enzi
##eniec
##enbeek
anom
aninat
##isans
##islam
##ishable
##isphere
##arie
##arab
##arious
##arians
##arabad
##aricki
##aribo
toc
tocl
tomat
towers
##ucked
##alat
##aling
##alyp
anderle
##reau
##recks
##reza
ink
inge
inqu
insein
inhuman
infection
##oton
##asan
##asty
##asategui
##asshole
##lee
##lea
##leth
##leter
##leine
##omed
##omark
##omutter
##icio
##icably
##iconduct
isis
ismail
fuckt
fuckan
reed
reap
reich
repp
rehe
relying
whin
whist
whiner
whims
bece
beige
##idal
##sem
##sef
##semer
##seeker
##sts
##igy
##igod
##igence
##igma
##igula
##ayne
##utaro
##ionale
onsc
##agre
##agher
##adeth
##owice
##owick
itch
##eton
##iker
##iked
sto
sting
stil
stony
stones
staging
stalled
stagn
shk
shat
shad
shoo
shia
shun
shack
shee
shine
shred
shiny
shipped
shatter
shalt
shalom
shenan
asa
asad
##chm
##ches
##chle
##chos
##chge
##child
##entions
##entzen
forints
##ooy
##ooly
##lya
##amar
##ambi
hein
heir
heel
hezbollah
hekmat
hae
haf
haas
haul
hajd
hachette
meow
meek
meara
mezo
meagre
notions
notcensored
##illard
##illiam
##verty
##uras
##urally
##urge
##cts
##ctar
##ctic
##ctrin
##thin
##thard
##thorn
##thomas
sez
seam
##oped
##oput
##opular
##opoulos
doe
dogo
##imo
##imuta
##ipes
##ipede
##ithole
prol
prive
prone
pranks
prades
priced
priy
##hab
##have
##havi
##iru
##irim
##irled
##olt
##olit
##olent
##olous
##iston
##alls
##aller
##alloo
##aaf
diver
diare
dieter
dihy
divisions
##andise
##andered
deck
dept
deform
decept
debr
deja
deception
##erscript
##usiness
goons
goias
wikt
wikic
wikepedia
ching
chal
chow
chum
choud
chuq
chih
chipping
chiate
##aks
##akry
##akable
##akato
##rawn
##tero
##terd
fry
frame
friction
fruity
frowick
frentzen
##ilm
##ilic
##ilment
##ilian
##ilinarian
##ewitness
assurance
ato
atp
atria
atkin
comin
comers
soaked
ars
arame
arson
arsten
arjuna
arctic
conakry
##estion
##estake
##estone
##estial
alle
ally
alll
alloy
allens
allways
wees
weke
weeds
weiner
weinstein
##essional
amon
aman
ambl
amica
amput
ammend
amarth
amadeus
donot
##upt
##ulant
##ulescu
##antan
##antis
##antiated
##umonia
##oso
##osure
##oslov
butler
butcher
abre
ababa
abraham
abyss
##hton
unqu
unatt
unqual
unmarked
shitler
sapp
sacks
sainz
sausage
blo
blend
blud
bloc
blames
blok
bluff
blax
blinker
blaze
orn
oran
orch
orii
orlowski
canuck
canai
trim
trident
tribal
tristan
tropical
willies
morph
morbid
morinville
ador
adul
adel
adher
adios
adorable
edl
edwin
edgb
liek
livi
lietti
livshits
offical
##oute
##elin
##elot
##elow
##elul
##elier
##elaw
alom
aliens
alicia
##peed
##peare
upa
uphold
upgrade
upcoming
upsets
encl
enable
encephal
nod
lec
lem
leven
lease
leander
leki
lemon
leboe
##ighters
kne
knit
knot
knol
knif
knickers
##aua
sombody
neagle
probly
procre
proleter
##ouncing
worcester
##asts
##aston
##ieu
##abilities
##aballoo
exert
agr
agk
aggr
peg
peers
peac
aboutmov
##ource
##inko
##ishing
any1
##orts
becuse
becuz
dickus
dickless
sud
suker
sukova
##artment
peopel
##geon
##gele
pageant
outbur
outfield
##ffer
##ffin
##ffiti
##endt
##endon
##endra
##endered
##riff
##emn
##emason
sper
spat
spic
spine
spree
spac
spaz
spoof
spont
splin
spino
spunk
spui
spilled
spaces
spilling
##forsaken
##rovia
imagery
##ueh
##uelling
hasbara
cocky
cocked
##shi
##shed
fatt
talkie
##apedia
##mines
##vened
manly
manama
manson
manacles
##elling
##ellatio
##elllll
##ryse
##ickman
clit
clout
clio
clippers
cliche
##itters
everl
newl
newest
newport
newbury
newcrest
yekater
idc
idk
idf
brass
brund
braga
hizbollah
howling
looted
sexism
sexiest
dising
disar
dispar
##ivar
##ivist
##ivatives
adminst
resur
reserved
resigning
##andalidis
agains
##bsleigh
rave
raven
raced
rahman
vandaliz
vandalizes
vandalisim
##isms
penh
pence
penrose
penrith
thinkers
##ports
##ported
##manship
##manpre
homestake
##oleague
##olehto
supple
##gga
compr
compound
compli
compounded
compiled
compartment
scler
scold
scram
scarian
scifo
##izi
ques
quack
##inea
##ineers
grid
grupp
gringo
wrink
wronki
wikifag
wikibreak
atta
attache
##odo
##oddy
##ussed
overrated
peron
peruv
perverts
peridon
##ovich
bullion
bulldogs
##owned
cron
crony
##ensing
##ensibly
##ifax
persona
##sold
##soil
accust
accred
accross
accidents
warmer
warfighter
intra
remedy
remeber
banners
##athy
asshats
serbo
sermon
addis
addict
addictions
##ahn
joey
smiled
indus
pleasant
##class
##occh
##ocation
##wwwwwwwwwwwwww
hella
wankstain
veg
veer
vecia
vegas
mined
minut
poznan
commas
commack
committing
slain
slice
slated
slower
slows
slask
slater
slayer
telet
teased
prey
montp
monrovia
betta
betray
##issipp
##ogne
##ograf
heretic
herring
herald
##pling
##planes
freel
freemason
underway
vandalisms
retr
retared
##acs
##acus
eatin
lookin
lookup
downs
downer
##eye
1100
belts
belives
belted
workforce
marble
marvel
mariah
maratha
##quin
##quity
motherfu
worldcom
##azionale
pars
paral
parry
parram
paribas
vern
verification
damp
##obe
##oboy
playboy
drill
dripping
drilled
drunks
##umba
##opean
tellin
refact
refining
refinery
refuelled
##avit
##avid
##avent
##avia
##avage
mugh
terence
commentators
llan
##1185
22trail
lastly
busiest
##uger
##ftu
consisted
conscience
##print
beforehand
##psbane
chevent
cheering
nordic
gujjars
putra
hugo
phar
phuck
flop
flach
fluct
flipping
desmond
godforsaken
sinh
sinus
damnit
##eke
##eki
stranded
partition
2410
buttons
informing
engages
engquist
##uthor
insom
insider
thanked
thankful
centres
centrist
centipede
madeleine
coe
coat
coch
coanda
cozy
obl
obes
obfus
obilic
relies
##aaaaaaaaaaaaaaaaaaaaaaaa
corini
##ationalist
##ossal
discern
elias
elimination
eligible
000s
##ubljana
presently
defy
defen
deference
defaming
defunct
retardo
retardation
markus
mao
maul
regrett
regulatory
helmer
helena
hugely
eva
robson
258
257
259
carr
cari
carp
carved
caroline
carriers
cargill
##nails
##naires
swell
swoger
steam
steaua
fung
funn
##xton
emon
emmanuel
meanie
##ttt
##tto
thrash
throws
demi
dems
demel
demographic
showdown
showcase
schwar
scheme
schubert
schooly
personalities
wordpress
earns
earmarked
histories
licked
repaid
analogy
bung
bunds
##erties
poopy
##behavi
officious
irna
boots
boeing
bobsleigh
goverment
starters
internazionale
##ymous
##blom
##blies
##blance
harvey
harami
##jerk
differs
ante
urus
believers
delted
delays
delicious
organs
props
prophe
properties
clearest
acid
acce
acorn
confron
linkin
307
309
mete
##getic
romantic
baron
baril
barnes
barrich
decor
forming
formatted
recuse
recourse
recieving
recruit
2843
curb
##etically
##useppe
##icsson
bih
biitch
biology
biologically
courier
courto
placebo
moan
moines
moada
mokh
moaning
russkie
pathological
##ceptions
naz1
fines
financ
halifax
helpdesk
infur
revertin
refern
handing
dealings
ignorants
##ofl
##ofan
##ofellatio
ipo
freezing
freepsbane
breuk
brewer
brewed
presidents
hoon
hoor
hoch
bloodshed
pao
paolo
dajud
timah
fourier
glo
glow
glist
glock
glov
glory
glaring
glickman
##ooter
chriss
okla
oksana
salam
salem
salaf
salzburg
highland
highways
highsch
sixes
calf
calvin
caltex
coloured
coltart
colossal
##step
redist
redempt
redisco
eurocentric
euromark
euroleague
wedgie
wedding
316
31202
sorrent
5017
unto
untouch
impuls
impunity
impreza
fanfare
farc
supportive
kinds
musa
jimenez
deton
detract
detachment
exploit
considerations
yeahhhhh
airplane
hardline
hardware
illumin
illawar
userspace
accountant
watcher
burk
burp
burial
legalese
opinons
annett
smelling
719
71st
computa
##string
oxide
1960
##cyclopedic
minding
topsoil
trax
traced
travis
escra
skirm
skirt
skandalidis
thoughtful
685
waist
waff
borac
borrow
pissant
restrain
restoration
malice
malawi
malignant
arrows
pointer
majoli
geo
geog
geology
geelong
##insically
40s
ahve
ahron
curran
currencies
arable
aravinda
mommmmmmmmm
sadistic
repeats
murdo
##atta
giver
giuseppe
valued
valentin
gona
craft
##ophin
sentiments
babble
chaaaaa
chakra
petition
expel
christina
afrika
afridi
motherfuckin
importing
taunts
7565
##bruck
##brand
armchair
jerky
erin
erad
ergo
ertl
erotic
ericsson
misses
missile
mississipp
lawl
requiring
thirdly
meds
meddling
jobber
eyewitness
patton
patently
##mean
effing
respectful
##constructive
avg
possessed
visa
testify
paler
cantor
canteen
puny
punishable
semit
semiconduct
enjoyment
grows
growers
housecall
murderous
vomiting
mongomutter
rides
nonconstructive
misuse
misbehavi
sharma
sharetsky
posing
broom
behn
behold
horiz
snip
snub
snugg
snarky
##matory
##unders
condone
356
3548
northwestern
547
5452
publicity
pakist
vaginal
tito
titanium
payne
budi
destiny
331
gremio
transph
uglyness
2016
estudi
estonians
investing
hypno
portrayed
orderly
protector
653
6500
fellates
awp
madd
delaney
foreigner
383
386
382
385
380
basepagen
##aneous
statesman
tablets
uncons
uncover
liberian
##ocross
balt
baloney
##eeeeeee
falsetto
463
468
464
westwood
unsure
unspec
unsubst
unsatisfied
##orno
728
536
539
535
lima
motel
motocross
modest
pedos
pedofile
berasategui
tripe
tripod
likud
swept
swebus
wishing
admission
616
culturally
861
fallacious
merest
mergers
merlene
##loaded
controvert
662
caes
caus
magically
magali
73rd
855
blanket
biggus
biggie
pressured
garang
garrity
garrett
##coach
weakest
weakling
grande
grandson
##zzy
examinations
login
logically
prevents
subjected
deletionists
441
440
graz
gravel
graffiti
lowers
debated
kara
mentmore
declining
breaker
breakman
researching
marchal
76th
classed
346
347
342
345
341
344
ukip
fuckedy
courtney
apparantly
judas
radnicki
exciting
cito
487
bonded
bondhold
temp
televised
textbook
##ouchi
capitalist
capitalize
558
55th
squares
davidgerard
coste
rubens
##putable
midway
midweek
vanessa
accordance
linear
shitheads
474
4746
workington
epa
epit
lieuten
despot
landless
landmines
##liners
disgusted
republics
republika
criticized
robots
robotic
dearly
convoy
ckatz
marti
martan
martial
martens
figuring
solic
solving
627
reprinted
francorchamps
immediatly
582
7717
795
bandit
593
occured
soup
souls
injunction
##uuuuuuuuuu
autobi
autofellatio
##ccccc
responds
constructor
constructively
9700
##olds
##ferenced
extreem
footscr
gunn
gunshots
natgas
natasha
senor
senile
suffice
monkeywren
576
956
alexis
cater
catilinarian
sanders
sandhu
stalkers
lifeless
431
lackl
lacked
disruptions
definitive
omer
omar
omfg
omicron
remembered
remembering
528
akbel
##affarabad
pensions
specialists
947
940
battered
fucc
371
51st
typos
##ervice
objectivity
disgustingly
walkin
mcgin
mineiro
utmost
39th
##afr
##afanes
devon
##rrrrr
protestant
announcing
##omposed
revive
crohn
attends
attendence
dutchman
universitate
kongs
disprove
disproven
786
877
nationwide
silic
silenced
taxp
taxable
hotmail
pneumonia
covert
campaigned
829
zelez
##front
starving
starvation
assocates
troubles
bax
baar
baird
hopkins
nominating
atlas
precedent
cleaned
bosnians
richly
richter
richest
richey
equations
equities
osmond
embra
apologist
apologists
##boy96
mutton
mutineers
##vertently
creditors
stephenville
derrick
derived
derivatives
laughter
chinks
alleging
identifies
fifteen
variable
republicanj
melting
casting
castes
castilla
hawk
hawthorn
casino
owed
owen
potty
defeating
chiefs
samir
samson
831
crackpot
artie
illegitimate
bangin
diction
fracas
hosni
winding
archae
connolley
mate1
slowed
dads
gmail
khad
bowing
bowel
bowler
polling
polluting
randi
##dec
##eter4
heavier
exchanged
##qualand
agendas
technique
technologies
builds
departments
psychosexual
hamster
hamstring
nicer
warsz
schedules
tournaments
fuk1ng
spammed
845
renamed
contractors
btng
molenbeek
##sssss
felicia
practicing
goddamit
##times
custod
darth
darcy
darwin
lankans
shovel
##oooooooooooooooooooo
1977
1972
1970
stagecoach
storyline
brotherhood
gladly
catholicism
hospitalised
battleground
digress
digits
hindust
seller
smartest
naruto
ranged
royle
hacking
closure
closeness
018
qualifies
qualifiers
lunches
villain
##marks
collections
parking
rambo
##waite
##alala
##alalala
divine
dividing
waterboard
huskies
##iptions
arrivals
skinhead
favoured
nutjobs
nutjob
nutcases
olazab
symonds
degryse
deepest
greenwald
fielder
luo
powder
carlsson
motorist
motorcycling
hillb
locking
lockhart
spirited
spirits
dismal
panis
rivers
riyadh
scrut
slovan
deterior
kiddo
kiddies
1945
judgements
fraudulent
ryutaro
sensit
sensibilities
##backs
concluding
fischer
trials
1913
duo
ganging
tightened
walton
amazed
conservapedia
momentum
targeting
journalistic
dissc
dissolve
disservice
dominion
dominican
gorf
jonas
jonzon
julia
splash
bedroom
rodent
##ariat
ambition
roommates
forwarded
firmware
tracked
appealing
connections
egyptians
egyptair
raining
therm
thermal
##eship
bellend
belliger
belldandy
krakato
kruger
mikey
##amba
blueboy96
mounted
naid
telfer
toughest
yelled
updating
suprem
academy
submission
submissions
girlfriends
ronz
ronnie
rabbi
wrestlers
mailman
mailbox
redirected
mirr
miron
mahanama
packing
packaging
##doing
##doctor
1908
1909
joked
jokhad
bessemer
hyd
routed
zajd
##daddy
animalfucker
dismissal
focuses
iloved
arguement
arguements
santander
santanos
shrine
softbank
bottles
corporal
randomly
bonnet
molesters
durban
klt
klas
klux
revising
suppression
commandos
commandment
automakers
michalc
michele
michoacan
smokin
colonies
buckle
boland
talbott
umar
umpires
colder
caption
participated
witnessed
witnessing
##ieveable
manipulation
manipulates
embarass
embarassed
linux
tanaka
##huis
##fuly
plato
platoon
resigns
boldon
indefinately
essendon
fingernails
widened
widzew
##world
prediction
predecess
mullah
weighted
torr
##sclll
fuckwads
engineers
laying
pooch
voie
voeks
voinea
rejecting
rejection
frustrations
trivium
willingness
brandon
accidental
mauro
mauricio
harrassed
admittedly
occupy
influences
influenced
municipality
fabio
galati
honduras
jakob
pimple
ensuring
harmless
calmly
mediated
distribut
distributing
domesticated
gallen
galley
gallery
gallagher
laptop
##655
doctorate
praises
alternate
planting
complexion
replacements
pseudom
birdie
birdied
gilts
gilford
gothenburg
holland
lyoko
tunbridge
##ghgh
priorities
1150
labeling
approaching
encouraging
celebrated
ducks
ducking
kosice
sums
sumitomo
wilderness
toddler
implant
resolving
copywr
bodo
bodom
kawwww
tastes
##iasm
oriente
punchline
snowman
snowolf
federico
celestial
ecw
ecst
katrina
katowice
spinner
slams
travels
malaysians
satanic
lingers
insurer
insurgency
insurgents
exposes
wrestlinglover
masl
stanley
##cheri
dildos
alerted
medication
medicinal
jacksonville
purchases
circumcised
gutted
gutters
loosing
loosers
tiresome
wannab
##ruet
##sucker
deeper
safely
energ
spongiform
espousing
denials
assemblies
pirate
siem
wolfkeeper
wolfgang
##piece
fuckheads
reinfor
strategically
buggy
buggers
solidere
tortur
tortelli
vacc
stroking
stroked
seanmack
unconfir
surveyed
crews
legionnaires
photographers
lesbians
commercials
etitis
licence
licensed
mickey
takuya
venice
assertions
brookie
terminal
obsessively
ryanpost
citizenship
bahrain
fashist
lgagnon
rudar
rudest
chambers
excellency
spectral
spectacular
oblige
laurence
wheeler
arbitrarily
substantially
bugno
buffett
kraut
kraft
migration
tongues
vicente
vicenza
yugo
sheriff
sherrod
##opathy
orangemar
fukkers
disappoint
uploads
coceres
tasks
vacuous
ankle
rewrote
rewriting
unreferenced
1673
contradiction
contradicts
feminists
lonelyboy
bilo
lancer
##moor
stationary
unprof
unpopular
scrappy
partisans
functional
absurdity
obscenities
bakker
ebay
ebusiness
gurusin
hodson
hodgson
mandela
odnos
tapes
viktoria
nobility
suppliers
cruft
cruised
cruiser
superiority
cretinous
legislative
imperialist
bertram
fictitious
hutus
hutnik
wipes
dodgy
unbelieveable
smeared
sysops
travelled
welcomes
experimenting
degener
ponce
tampon
concentrated
switching
physicist
physician
physicians
revealing
achievements
cartoons
fisting
jarmanpre
ncb
nigs
otelul
pygmy
pilots
riga
rigs
ww1
##iciency
megadeth
measurements
cheri
cherny
uneven
suburban
dawnseeker
entitle
collaborate
collaboration
collaborating
distorting
negroid
challenging
slovenian
astle
astro
gaping
naira
##drous
##eworthy
convene
convenience
conveniently
abuja
spouted
consultancy
designated
mccarron
frederick
emphasize
bathroom
kumara
lahore
mocked
mildly
napoli
tedious
becky
stormed
shelby
##hahhaha
probation
proceeding
crum375
verbally
delaying
confidential
highlighted
mercury
bibli
bibiana
caden
fetched
jaime
jdwolff
lorries
nagorno
##passing
infectious
mechanical
mechanics
suede
actresses
corpses
registry
greeting
revolt
discriminatory
fashioned
ellis
eagle
gfy
hedge
hedblom
hippies
icp
icftu
kazak
kazakh
##jeska
rectify
conquering
sachin
altering
leonard
compensating
museeuw
guinean
chronology
provocation
provocateur
sentimental
fixture
wrecked
adoption
azeri
astonished
hullaballoo
nadu
nader
pumping
rallies
shedding
mysterio
attributed
incestuous
dawkins
juventude
legendary
awaited
luxury
imbecilic
fabrication
linguistic
tasmanian
rhetorical
algorithms
bcn
diapers
dwellers
lambrecks
rm994
##ajar
reeves
hectare
unbeatable
sabatini
outsiders
intrinsically
interference
marlow
249er
endorsement
karlsson
privatisation
whitewashing
ekimov
kirk
luther
neder
ozers
piper
ruthless
tentative
tentinator
tallinna
tilde
beaner
shimer
choosing
fricken
donghai
saxons
enforced
smuggling
marginally
paramount
paramaribo
breeders
electronics
descendant
kilometres
nervousness
coden
gnaa
gnome
griqualand
sneaky
##halt
##halova
straps
shabazz
shudras
##irtbikes
wikilawy
wikiprojects
aluminium
lezion
composite
sloboda
guangzhou
flooded
coordinator
relaxed
stevens
collegial
collegiate
sungard
snotty
objectionable
webquest
mathematic
vandilism
vocalist
sacrificed
aqsa
bolognese
cigarette
ducruet
hrm
kinky
kinkel
kubigula
nitp
temptation
waggers
topple
styles
shadeed
dietmar
enquiries
vegetarian
flaunting
americas
americast
subsequent
grabbed
alexandre
fitzroy
enthusiasm
ciara
cavity
dorms
dingley
dakar
oyu
pardoned
reneberg
sutjeska
scepter
tutsis
vaguely
yoshendi
##kbkb
anxieties
sturm
protege
prairies
cholera
chetniks
amateurish
manchus
clinched
tweet
screamed
quotation
retaliatory
desperately
stressing
carlsen
demolished
boasts
institutional
snobby
brahmins
mutilate
##0000000000000000
##1111111111111111111111111111111111111111111111111111111111111111
plagiarized
cobain
fiasco
munching
nvidia
phallic
zapat
thighs
android79
##omirov
revels
haarhuis
atrocious
contenders
lodge
indoctrin
superbike
flamboy
insufferable
bogeying
entrance
entrusted
protocols
sunflowers
taunting
absentee
kannadigas
##llllllllllllllllllllllllllllllllllllllllllllllllllllllllllllllllllllllllllllllllllllllllllllllllllllllllllllllllllllllllllllllll
##6million6million6million6million6million6million6million6million
grammatically
avenged
dikkkkk
kuchma
lenzing
ostensibly
vessel
vogt
wsrl
wireless
witschge
inevitably
whisper
stifling
shoving
exterminated
disclose
disqualification
penetrated
##odomite
smoothly
insinuating
confederation
installation
inflammatory
humiliating
subpoenas
pedantry
merchandise
epithets
architecture
##⟲⟲⟲⟲⟲⟲⟲⟲
warehouse
warehouses
unexpected
afrocentric
afrocentrist
backstabbing
surinamese
aldrin
daschle
gustafsson
gardens
hilary
hasta
lentini
lestrade
luehrs
samper
sampdoria
##butler
thwart
thwarted
thuggery
reeling
repsol
beggars
striving
forensics
haunted
selves
weissus
unauthor
orphaned
succes
loathe
resentment
muzaffarabad
cheerleader
flushed
deflower
endeav
sycophants
gloomy
buhner
pedestal
admirer
gravity
karaku
coulthard
derailed
aleksandra
stabilise
dystrophy
dystrophin
phillipines
griffith
abnormals
binksternet
bricks
binding
cotti
dkba
dagizza
etiquette
fvck
follower
humbly
lennart
pessim
yopie
zombies
##muncher
##narine
shaggy
direktor
goydos
chirac
chubby
canvassing
nostril
grinning
perversions
herzliya
freinds
shepher
guzzling
discontin
schemes
hopefuls
redacted
impostor
relegated
falsehoods
mcneight
troublemaker
richardson
castleford
legitimacy
rabbits
bolivia
cyberstalking
maurice27
opportunities
nagyatad
desysopped
4meter4
bmt
bounty
csssclll
cukaricki
fugly
fiancee
hwang
hoyland
henchman
jeepday
kispest
kotlars
kikinda
kunduz
ljubljana
nguyen
nathaniel
ritual
rancid
zemun
inadvertently
whoopee
wholesale
shakespeare
foreskin
hemisphere
hearsay
dostum
gokdel
##akatie
fratern
franchise
amoebas
abundantly
unveiling
procure
outnumbered
plunging
spraying
sprinter
lokomotiv
compassion
overreact
smirnov
interrogated
underpinnings
paranoia
violet
helmut
schultz
apocalyp
uruguay
metaphor
decrease
reconsider
curtis
petrosani
erdmann
anthropologists
uncontro
karabakh
photographer
occassional
unfriendly
autoblock
millfeed
sleazy
connotation
gorgeous
facsist
rosenborg
gentlemen
psychoanalysis
unintelligent
hierarchy
eelam
eminem
jiul
lupu
limey
python
wachter
wouden
shivnarine
mevlana
diligence
deutsche
asskrack
unencyclopedic
blakey
adolescent
offshore
leopold
worsened
plagued
newfoundland
twickenham
loznica
displeasure
gronholm
override
overhaul
bigdunc
obstructing
relinquished
corretja
propoganda
latchkey
subversive
settlers
collingwood
denigrating
afrikaners
pschemp
ridiculed
bleckter
madagascar
unsupported
pederast
beryllium
grandparents
micropen
excrement
mcnulty
flyer22
caspian
samokhalova
olbermann
fuckyourself
kimberly
zimmerman
torpedo
buddhism
kaikolar
portuguesa
insecurities
gratuitous
hammersoft
mysticism
ernesto
lufthansa
6mth
aaxis
biotch
cercle
cfdt
eekster
fulton
gaffney
gatera
gaudenzi
hicham
hidemichi
jammu
jarmo
jfdwolff
kombouare
kijimuta
kytolehto
liabilities
moyer
mijatovic
n3gros
piacenza
rikl
rheum
rdainah
sıde
tideroll
tikhomirov
vmig
wodzisl
wuhwuz
xchanter
y0u
yalcin
zvornik
zieleniec
##uahua
toclafanes
anderlecht
##lethwaite
rehears
becej
onscreen
shenanigans
hekmatyar
hajduk
pradesh
dihydrous
debris
chihuahua
aramean
allensbach
amblin
unqualified
edgbaston
encephalopathy
leboeuf
aboutmovies
spaceship
splinter
spinoff
brundle
compliant
sclerosis
gruppen
peruvian
montpelier
parramatta
cheventogne
obfusc
schoolyard
confronting
barrichello
courtois
mokhoff
breukink
dajudem
highschool
3120264
sorrento
untouchable
impulses
illawarra
escravos
skirmish
ahronoth
mommmmmmmmmmm
murdoch
756525
eroticism
mississippi
semiconductor
snugglies
estudiantes
basepagename
unspecified
unsubstantiated
controvertial
bondholders
lieutenant
autobiography
footscray
monkeywrenching
universitatea
olazabal
krakatoakatie
jokhadar
zajdi
ilovedirtbikes
michalczewski
wrestlinglover420
unconfirmed
ryanpostlethwaite
orangemarlin
gurusinha
odnosum
jarmanpreet
kazakhstan
wikilawyering
indoctrinated
kotlarska
wodzislaw
wuhwuzdat
033
011
020
1c
2a
2¢
2nb
381
4c
4x
422
5w
522
596
610
710
9f7
a1
a0
aal
ace
aip
aime
aary
awwwwwwwwwwwwwwww
ache
ahahaha
aks
azz
aung
aaaa
aye
aql
aesth
bith
bate
bau
bose
bps
bales
bise
bier
buc
banda
boles
bouch
bode
bwa
beds
baud
bribe
benson
c5
c4
c0
cen
cout
cif
cade
cages
cove
cower
catur
coud
cbi
codes
caye
cimic
dt
dq
d2
d1
dse
dike
dally
dap
dans
dook
dough
doth
duct
dne
dome
ddd
dush
dini
dyer
drey
dye
djam
dazz
dccc
dandy
dreek
ew
eal
ead
eam
eww
ewwww
elet
eman
eated
ewe
eks
ecom
ezer
errrr
ebc
evey
ekok
emanuel
f4
fou
foo
fick
fuss
fok
fract
fitted
fkn
fda
fusion
fgt
fouc
f0r
gj
gis
gow
gak
goun
grap
gumb
gord
gte
gret
gcal
gita
gsk
golan
gassed
gornik
gpu
hg
hp
hry
hov
hose
hoc
hove
hoop
hbo
hte
hidd
hines
heng
hunch
hinted
hounded
hicks
ia
ick
iar
ich
ipe
iban
ibn
ibm
jl
jed
jut
jong
jumb
jeeee
jaq
jaha
jedi
jello
jensen
jahan
jitters
kse
kig
kip
kock
kus
kau
kame
kee
kitt
kiv
kans
kod
kook
kac
kory
kral
kler
kush
kron
kde
kipt
ktm
kola
kros
kitty
kapo
khaz
kueh
lt
lout
lel
lark
lice
lath
loth
loop
lange
liable
lks
lilly
lci
linger
ldp
lomm
lumin
lava
lavin
lololol
lamented
md
mb
m3
m4
ming
muck
mest
mau
mare
mma
mised
muppet
mwa
mundi
miy
moya
mazz
marek
mucking
mammy
nou
ning
nim
nau
nish
nause
nase
niz
nond
nif
nure
nach
nib
nude
nana
niel
nugg
nico
nfc
nsd
nias
nirm
nascar
nandes
oq
ock
oas
oap
oste
ola
ovens
pn
puck
pom
pate
pand
pank
punt
pue
piz
ppp
pine
pss
patt
puz
pino
poul
pupp
puls
pfd
pavin
paved
p3n
q1
qid
qian
qajar
rp
rf
roo
ria
rigg
rour
ritt
rory
rames
roles
riel
rattle
raged
render
rump
rhaps
rager
rudi
roca
ralf
riana
rakow
rationally
sd
s3
ses
sis
sip
sate
sook
sass
sway
sory
scept
sny
soooooooo
sator
sista
siam
sigm
sssss
sizes
sagging
tc
tk
tx
tus
tty
tink
tally
tead
tans
tore
tyou
tio
tuff
tending
tattle
tamb
tinch
tipping
tcha
tucky
tdh
ub
ues
uve
ural
uzi
uhhh
uwp
vn
vere
vos
vort
vost
vous
vell
vick
veng
void
vhs
vested
vinson
vnu
wb
wm
wie
wab
wend
wuss
wings
wint
wier
wester
wert
wising
waving
wander
waged
wades
woon
wux
woooooooooooooooooooooooooooooooo
wooh
wmc
w14
wqa
x2
xal
xox
xeno
yit
yoo
yun
yand
yone
yidd
yiff
yitz
zis
zay
zha
zak
zind
zod
zens
zillion
zilla
zyl
zhic
zadar
zafr
©™
на
╟─
✉→
##ei
##eers
##eans
##ext
##efully
##eiro
##rough
##rased
##rantly
##rows
##rimin
##renty
##iq
##iedia
##iie
##iber
##t1
##tal
##tro
##tue
##try
##tors
##tting
##tof
##tario
##oor
##oing
##oise
##yd
##yre
##yro
##york
##yboy
##yali
##ygen
##gd
##gic
##gain
##good
##gable
##gical
##games
##gister
##gli
##glia
##g0t
##aou
##aan
##ahaha
##acc
##acl
##df
##ded
##date
##dov
##dumb
##dits
##dair
##daughter
##dums
##dollar
##david
##ln
##luck
##lik
##late
##lest
##lau
##lake
##lif
##lace
##lages
##loop
##lins
##lient
##lane
##lots
##laf
##lantic
##licted
##listed
##litz
##luded
##lcop
##lengo
##lisi
##sl
##sou
##sit
##sha
##sup
##spar
##cm
##cp
##cin
##cit
##cos
##card
##cap
##cles
##count
##corn
##cron
##cza
##cision
##bd
##bh
##b2
##bes
##big
##bir
##bud
##base
##bee
##bole
##bens
##bore
##bah
##breat
##bread
##bons
##bio
##bands
##bites
##bfr
##breed
##bovan
##brates
##buddin
##bouc
##uj
##uas
##uage
##ucc
##ujo
##ku
##kat
##kay
##kos
##kite
##kary
##kne
##kacy
##kla
##kela
##kata
##keepers
##kalis
##kiken
##hed
##hun
##hha
##hive
##host
##hame
##hell
##hov
##hmann
##hane
##hara
##hury
##hinct
##hlets
##hovs
##huffle
##mr
##mom
##media
##mation
##mike
##mast
##mie
##mud
##math
##mler
##mok
##mtl
##mored
##wal
##with
##wind
##wine
##wey
##wives
##wana
##waf
##watch
##witz
##woopsy
##wipes
##wofan
##pit
##pal
##pas
##pth
##pak
##pices
##puppet
##panda
##porn
##prof
##nm
##nin
##nuck
##nal
##nies
##nore
##nets
##nava
##vm
##vity
##vamp
##vvi
##valdo
##f0
##four
##free
##final
##fuk
##farm
##f83
##fathers
##qvar
##xer
##xel
##xandra
##xicated
##zig
##zty
##zoy
##zek
##zier
##zuki
##zysz
##zeye
##9l
##97
##987
##2me
##217
##277
##jar
##jow
##jak
##jigg
##jour
##jka
##jput
##jf83
##54
##567
##1s
##133
##1969
##4d
##─╢
##ст
##את
##★★
##oufl
thi
ths
thx
thay
thark
thome
thrac
thnk
##erent
##erive
##erity
##erman
##erans
##erife
##inck
##inor
##inia
##inley
##inburg
##inaries
##infl
##inctions
##inho
##initis
##inovich
##inouchi
youa
youll
youuu
##atr
##atim
##atuy
##atable
##atiable
##atgi
##atlantic
##ono
theod
thefts
theweek
##anag
##anovic
##an90
##cke
##ckkkkkkkkk
##edin
##edon
##edit
##edean
##itel
##itory
##itler
##itled
##ituted
##itanya
##itbart
##orp
##orel
##ority
##orms
##orously
##orasan
##esive
##esden
##eni
##eny
##enk
##enah
##enner
##enhe
##enyi
##enikova
anore
anons
anph
##llite
##llsh
##isse
##isch
##isite
##isism
##isations
##arg
##arro
##arica
##arrr
##army
tol
tobag
toled
tome
toms
togli
##alon
##alot
##alist
##alib
##alova
##alwell
##alpa
##aloman
##alayan
androm
oficial
##reus
##rears
ines
inse
ince
inel
insh
inns
inaug
inund
##otom
##otyp
##otto
##asu
##asberry
##leased
##leep
##lebie
##oming
##omes
##omen
##omation
##omos
##omosexual
##icz
##ician
##iciously
##icits
##icative
isot
isps
isai
fuckn
fuckon
fuckup
fuckass
fuckkkkk
fuckoff
fuckiest
reall
rept
rebe
reblock
reword
reiterate
reaves
reeks
reinteg
wht
whith
whitting
whipped
whql
beam
beads
beheaded
beady
##idinal
##iditas
##idrun
##sek
##sever
##semin
##section
##seller
##veill
##st1
##stad
##start
##stood
##stead
##igonom
##ayev
##ayashi
##utan
##utte
##utva
##utrix
##iong
##iones
##ionews
youri
yournum
ong
onda
ontario
onyali
##agus
##agra
##agai
##adia
##advant
##adream
##adgu
##adowed
##owan
##oward
ite
ity
##etar
##etly
##etter
##ettered
##etreau
##iky
##iks
##ikas
##ikav
##ikanim
stik
stitch
stunt
steep
stork
stair
stats
stds
styl
strained
stumbled
stitler
shor
shig
shish
shaking
shoud
shamed
sheds
shamb
shaved
shoopsy
shayne
shoddy
that´s
asank
aspers
ascrib
aspx
asleep
##chs
##chop
##chup
##chem
##chism
##champ
##chke
##chott
##chai
##chunk
##chenko
##chelle
##chategui
##enties
##entric
##entti
##entoran
forged
forrest
##oove
##amy
##amet
##amiliar
##amorph
##ldim
hew
hege
heine
heiko
hefty
heidrun
hacks
hahahahah
hails
haiti
hakme
mee
mead
memm
meyers
noth
notre
##illic
##illusion
##verifiable
##cek
##celi
##urp
##urn
##urin
##uria
##urate
##urids
##urable
##urred
##urova
##that
##thers
##thos
##them
##thap
##thren
##through
seiz
selim
seiki
seguy
sephir
##iau
##oper
##opian
doh
dose
dodd
doorn
dosen
##imi
##imation
##impet
##iph
##iple
##ipher
##ipro
##ithead
##ithmetic
pri
prich
primes
prisons
proove
##hair
##haus
mys
myan
myopic
myg0t
##iras
##irich
##ircum
##olian
##olite
##olism
##olving
##olido
##olcany
##iste
##istor
##istrates
##istakable
##alleng
##allowed
dih
diven
divis
diane
divant
divert
diario
diouf
##atement
##atelli
##andam
##erezh
dey
deer
deed
dell
dever
deee
deby
deities
dehy
decker
dejay
##ushing
##usages
##usky
##usamo
withering
gosp
goeb
gogele
wikit
wikpe
wikish
wikians
chu
chia
chate
chil
chalk
chry
chod
chican
chins
chzz
chald
charted
charters
chimed
choking
chlip
##akr
##akon
##akage
##akov
##akash
##akhan
##akya
##akova
##akchott
##rae
##rav
##rape
##raint
fron
fren
frie
friv
frana
fr3n
##ilat
##ilan
##ilus
##ilight
##ilating
##iliser
assface
asswipes
atkins
##usto
##usters
##ustworthy
compelled
wasps
suckish
suckdick
soad
soir
sovi
soared
solem
sojam
arce
aril
arbs
arose
arrears
arithmetic
conman
concess
convey
conroy
congrad
##estra
##estimate
##estoch
weas
weber
weib
weep
wealthy
ama
amd
amor
amigo
donated
donations
donoh
##uperscript
##ulia
##ulied
##ulash
##iggers
##antics
##antef
##umi
##umer
##umns
##umara
##osly
##osyn
##oscop
##oscope
##ikey
abet
abel
abort
abated
abrupt
abkaz
aborig
wikipide
wikipidia
wikipiedia
##hte
unap
unhing
uncl
unpl
unav
unbe
unency
unreg
unreal
unload
uninter
unclaimed
unthink
unverifiable
shitted
shittttttttt
##agex
saq
sabour
sahib
saunders
sausages
blc
blant
blade
blather
blush
blues
blunder
bludge
bluer
blargh
niggah
orign
orrell
ordeal
cane
cans
canker
canola
canucks
canyon
##arde
trian
trous
trough
triang
trumps
trotha
tralala
trln
trigonom
fagan
fagit
faget
faggy
willfully
willmc
mores
morrow
morrison
mormons
morelia
mordec
mornin
adl
adkins
adverse
adnan
adolph
edna
lien
offff
offened
##elb
##elove
##elton
##elili
als
alv
alon
alun
alast
alab
align
aloud
alius
alarms
##uyama
##uyoshi
byron
upro
upright
upstairs
enim
enri
entic
enap
enact
envis
enuff
encom
enlight
enzo
enabled
noel
noah
noisy
leo
lex
leve
leone
lege
leary
leje
lebouc
lehmann
##ighting
1900
1910
1920
knives
knox
somali
ife
neh
ne1
neon
neoc
nebr
neva
negros
nectar
prover
prosec
worsen
##astard
##astri
##astics
##abil
##abouts
##gott
##iveled
exor
exem
exceed
exxon
exmoor
agw
agnes
agsman
pean
pead
peole
peple
pebb
pearl
pecs
peiris
pejorative
##anker
knowles
##ianna
##inked
##untled
##ishingly
anyday
theybers
##ong4
becaus
becanovic
##alka
gayer
gayyyyyyyyy
sui
suction
suks
suarez
sugiy
##arten
##artica
##onella
hissed
hissou
##gei
##geist
outl
outlet
outsc
outsk
outlets
##ffels
##enders
##endorfer
##rio
##riam
##rivia
##rizio
##riantef
fae
faq
fawn
faulk
fawl
plas
plow
plight
plug
plzen
plains
pluto
plotted
plunge
diem
##itelli
##emone
##eminate
##emosyn
cunting
sple
spike
spared
spaw
spitting
spammer
spews
spelt
spithole
sphinct
##forth
##forums
##rods
##rova
##rochategui
oneeur
imran
hasan
hashan
cockus
##shell
##shchik
fatig
fatima
blockers
blockade
talk2me
##hahahahahah
##apie
##aprop
##uder
##venous
manor
manic
manages
manne
managing
manhand
##elly
whyd
##icevic
clone
clich
clob
clave
clips
clashed
cloning
##therner
diddums
theregister
newt
newer
newmark
newyork
twin
twits
tweed
twirled
twenties
twilight
ids
##berger
britch
broth
brute
brands
brno
brenner
##ollars
howl
##ichist
loy
loot
loony
locom
looting
lovin
lokeren
##inding
##india
disob
disgr
disability
disallow
disinteg
disperse
dissemin
disillusion
##ivable
##otherapy
administered
resurg
reshuffle
rae
raf
raided
raoux
vandalistic
vandalizations
##isman
penins
penelt
penguin
afa
aflat
usertalk
stoppage
##manaman
sayers
##oundrel
stupids
stupidhead
suppp
supplement
suprising
##ggman
##ggett
comprised
scent
scales
scones
scots
scaring
scummy
scares
scroll
sclient
scrape
scoundrel
quah
quips
##ubal
##pper
##pped
grum
grrr
grits
grund
gripping
granny
gritty
gringos
wrang
##onda
##ansk
##ansky
wikiret
attain
firmer
firestone
##odan
##odie
[...]
